يتركني
…
ماقصرتوا
للفتح
بيعلم
ازق
##work
للنظام
السذاجة
##كيك
تعاملها
للاعلان
اصحابنا
بالكويت
النشبه
امريكيه
ﯙ
ثقتكم
منجا
ﻣﺣ
اكلمهم
اﻗ
مكتيبة
##واعليه
##🤚
تخترع
محبيني
الفضفضه
فطوبى
ﻳﺎ
##قنعه
التهامي
وصوتها
واجاب
فالمع
اتلا
ﻧﻌ
##متان
اقلل
بيطير
##کل
alq
لشاعر
وريال
##سمي
متابعيك
تسقيني
تدفية
افو
المثليين
##قيموا
بصندوق
واحك
وكانها
المخترع
##رابي
ممدودة
الامني
تقواهم
اظفاره
الخصال
الصوت
فالنصر
راكبين
##دعس
جيبك
نسبا
فجرية
نسيانك
تضفي
للايفون
ابيخ
امالنا
دليل
سرعان
الشوارب
للدول
يحرمكم
برسل
الجاحظ
بيطمن
##يام
##سيير
والنجاة
باستغفار
المجتمعية
فحبك
فوقكم
متسلط
للانتقام
زانيتي
طنا
بابك
500🔥
تقولنا
##وينا
قنعني
بايسه
يتعرضون
وانسانية
والهجوم
ﻫﻢ
سودا
الكبار
وتكون
مبهم
##عاير
بالصيام
##كرس
##ﺯﻕ
اهواء
قلبان
١٣٢
##روز
##ووني
دماغى
احارب
سفيرها
##ولويه
يحجي
مقبله
##ديق
حمايته
ساقيه
رفعة
خلقهن
اوضة
عطشان
ولايك
قرعة
ﻓﻴﻬﺎ
##مسين
نرتقي
امو
يوصلني
وتنه
يلقاها
البرك
شفته
المسيطر
الظلم
تميتني
ابخل
التجهيزات
قلبه
##ريستيانو
مداخيل
الرمثا
الكويز
##لحد
##وهاب
##دش
##ask
##بلة
اهلنا
المكا
الصحراوية
لتعبر
ht
الشهير
اسلم
شافتني
مضايقه
الرافدين
لتستفيد
اعطت
للعيد
والصوت
وسنكون
اللاعيبة
الده
##وهج
😂💜
##وتن
##ياه
مصريه
مدح
الاكادي
جزاير
وفارس
الترو
لمه
الغابه
soon
ﮟ
##ose
خرفان
العناق
190
لانعرف
ذنوبهم
يستغفر
بهي
وبعضي
##اا
العذبة
نسكت
مقفوله
استثماري
مارتين
للطيب
الارملة
حملها
غفار
الاستراحة
الابتسامه
خشونة
الدير
هالاسبوع
ابوفيصل
يداعب
والنشر
وقيامنا
قوية
##طنوخ
اصحى
الامانات
استلط
واحكم
يامل
غروب
##نانك
ﮪ
واشتك
درة
وسياسة
##لناا
معرفتك
يرخصك
مفقوده
يصبرنا
البصل
تعد
بثقل
خير❤
مايجي
ومتاك
##لضر
مننا
فمنهم
تطاير
السابقة
اكسيد
سنحت
city
حاشر
ارحمهما
الفقراوي
ارقامهم
موزه
##تحرك
الكاظمي
ندين
والصهاينة
والطي
لتكون
انتخب
مملوك
الملي
اتوبك
قولى
باقصى
تغاضى
الاربعاء
استصغرته
بذاكر
##قامه
شيي
تسهي
عبده
نوجه
طعام
قطعنا
اعبري
ول
##وارب
##مو
تبتلى
والاتي
قشرا
يتعلمون
تتناول
عافيتنا
ماصبر
يشقي
حماده
وبنام
وفرحتنا
التوحيد
بقرا
وحكمته
hall
##فىء
محمله
المشهورة
التغطية
اغي
والحديد
##عليك
لسلطان
ممطرة
مجود
النخلة
متخلي
عذابي
وخسر
بدقيقتين
المستر
##فرف
بالشرق
والقصور
تساعد
الطحالب
twit
والكر
العلاقات
٦٤
بمناطق
##██
qatar
لاولياء
بالصدق
الالاف
نتوما
رك
عسانا
يناديني
الجاب
نيكولاس
ويفرح
وبالسييات
عقدا
كروب
اشوي
المقاتلات
برز
##صاحب
الشقيق
بقدرتك
شتاء
مضجعه
اعني
قلقة
اثرك
وهنالك
ونقدر
غيابها
وانكسر
متاحه
##حك
##⇠
##عترض
لتجربة
تحاسدوا
##وجيه
ومج
هود
يحترمك
اذنيك
سويلم
المروه
ياروح
الساذ
feeling
##r
الجولات
تشربون
##قهه
✩
وبغض
بقدم
بالاحباط
حرمة
##يسة
نوكد
##arac
خما
h
نهض
ﻗﻞ
الاصطفاف
تاون
مغير
للمعتقلين
ومك
ﻋﻨﺪﻣﺎ
سرقني
اقترح
صدورهم
ميست
معبر
فب
والتانى
الركن
##ﻞ
وقدر
##سلامه
بالدراسه
امنحنا
يوجد
باقدار
ماهذا
والفريق
طوني
##عرفوا
فمكث
والعذر
اشعر
ماتحب
سياره
وجعلهم
وحكم
نيب
عبدالاله
الاحراج
واحلامنا
محدن
مفاعل
تحتار
الشاغرة
##ك
للحسابات
فصي
لاخفاء
اغتنام
وابواب
قاعدة
☺ہ
الاباحيه
واتمنى
الاخري
السعو
نياتك
والمواطن
سنابه
mbcthevoice
جمس
تنفيذي
مدمر
حبگ
يديمه
هل
بنفسى
##فهمه
##ندر
عربيه
لاخرتك
انتخاب
ياريت
طرايق
0096
##اكاو
وانتماء
وتبتسم
▁
بالفم
نشكوا
نسيا
شربات
متعشم
الاحتفاظ
مزارع
قو
بصغر
يعطيها
##حتسب
بموتمر
240
تعاتبني
الحضاري
فولوا
طبعك
اكترث
وبعضها
للمرابطين
##قبلي
بالذاكره
الحيطة
##قسم
باسوورد
اخلق
##ظنش
##ﺬﻟﻚ
✨⭕
العمال
اخويا
ماتم
##اكو
البشريه
لكننا
نكس
eid
🔹
بلوا
صدا
سياحه
ذكيه
بعافية
صفحه
##زرها
بتصلي
توقيع
ويمكن
وتحت
تحقرن
معصبه
وجميلا
القصبي
##ورن
their
تتعدل
حقول
اجتمع
##غربش
يابتوع
فصامه
بالتغريدة
ﺑﻨﺖ
##💐💐
محبوبك
طهروا
ذنوبي
##وبين
المتهالك
المضادات
اتركك
مسووليتنا
يثبتك
وبكره
##راحھہ
لايل
للامانة
تحميها
العبره
الراحلة
سيرحل
جتك
سويفت
##🚩الان
تعلقني
منتدي
بخطوات
رحمہ
فروع
المنسي
والدفان
تتمنوا
ياعيال
بشتى
㊗➏
فعي
الاسلاميون
شاربه
الوحشية
الدستور
طريقهم
ليبي
مخد
##نوق
فتحو
##ض
التقا
سيحصل
ثب
الطفولة
^
غامق
وتحميل
السجاير
الشخصيات
التجهيز
مقارنه
وصنع
الوحدوي
##قابلة
الشاعر
زيلامسي
بشاعة
ايتوا
##⌒
mall
فينبيكم
حملات
##زله
##قلل
بحلمك
اللس
جيتكم
##افظه
مهنة
بقدر
يقرع
للاستعلام
لبقى
##عملش
تحسبه
##ادمة
الكافية
حلالك
##اند
0544
معرص
واﻹ
ولظلم
وحارب
مشط
goo
الارك
وهران
اعوذبك
اهضم
##دتكم
😍😍❤
td
ﺑﻌﻴﺪ
حنا
اي
بالانضمام
سنجد
##ﺎﻃ
ضرا
اخاف
ويغفرلك
اصر
##ستهلش
اطلق
عتبي
للبيية
واتبعنا
كاذبة
ks
طبول
امكانيات
##اهل
فالنا
وياشين
لحركة
##شوم
##ومش
بصحبة
الجاذبيه
التاكد
الملكوت
##ندسة
##طهر
المخدرة
للايتام
افيض
ياشي
💭💗
##يري
كلها
العقاريين
بجنات
بالسويس
لقوة
##ورتان
ممكنا
منهي
معلمك
الزعامة
بتمسي
واغنية
##uper
ٱحب
##وافق
بمدرب
##كبروا
يكتفي
العباقرة
سميتها
افيد
تلقون
وبالمدينة
مانشيت
##سبنا
وابلغ
النقد
ضيعه
وقمرا
ويسلمك
باجي
ﻟيس
واحسنوا
عويس
ارتدى
وتسود
حرب
اخبط
فرايت
نسميها
المريض
ﻟﺎ
##ﻣﺮ
يتظاهرون
ووقتك
##علي
ش
الحميدة
دارا
وبالقران
طويل
بالوجه
اسلف
تخلص
السباحه
الموالين
ونزيد
المنيه
حدثوني
بيوت
زورا
رويترز
##لاان
##فايلين
الخصوصية
سجل
البغيلي
تنسي
لولده
👊😂😂
فرند
##ونه
سييا
##ابق
فالاخلاق
ادخر
##ترة
خيرة
لاباس
يلد
مليونير
القاعه
##ويف
يجمعون
##عوو
نيش
متوقف
##ﺪﻡ
##شكيك
الرح
التحصيلي
للخبي
بوراشد
حذفت
اوصاف
يصرف
تخلد
هتك
اﻻم
ay
ورط
حجمهم
لتخفيف
مبتسمين
مارايك
امحق
صبري
ينسي
للاقتصاد
تصدر
هامور
##خراط
شري
والعلاقات
نصفه
##نادي
بعتني
بالرييس
صمته
يشترط
انور
الانفع
ملم
بتخصيص
حذار
قصرنا
السيطره
share
يباله
##رقات
1440
😂😂😎
فرمایا
##تينغ
ﻣﻨ
تيليجرام
##ندمش
اطع
بوك
جنبيك
وااو
بالتم
نسج
ارتاحت
يصيبني
مالمو
مسيت
الانحراف
👴
تفرق
خارقة
اصطدام
يشهر
والمدير
يتقمص
يقلب
موسف
ومقاطع
مبنيه
يمنعنا
قراءته
وياب
بنما
نايف
dra
##ينية
واجساد
وامرت
ظلمه
لتركيا
مطوع
واعطاء
الهزيل
السلحفاة
غزل
🇹🇳
احييك
ورجل
##ﻤﻴﻊ
وراسه
منزلتش
ولعي
وتعم
تكللت
لبيته
تعساء
الانتخابي
ماكنش
متفايله
تعملك
السج
ستد
ويقعد
##تمت
المعروض
اتقبلك
تعلمك
ﺩﻗﻴﻘ
اعجوبة
نباتا
لايفوتكم
مفق
##ges
##باعهم
ليحدث
●الاشتراك
واستهداف
والدكتوراه
##ance
بوليس
منهاا
المكسيك
البغي
مثيلا
نيتي
##طفاء
لقاءات
احاسب
ضحكاتهم
##eep
##ﻌﻪ
perf
فالكاو
بتابع
بتس
سقوط
يغنوا
همني
عرفان
ورسولك
بیشتر
تخدم
##صيها
بردوا
رجالة
نسيانهم
الكلوي
محاكمات
وعل
ومالا
تهون
اصليه
بحقوقه
##مرات
المال
لعباده
عقدي
##سانى
##صين
بتشوف
شاحنات
##✯┊
مدفون
تدشين
##حاور
ورضوانه
الاضلاع
خارجين
والعوده
هيتكلم
##ضون
ويح
رميهم
وفرحة
##راءات
##┊┊
##اننا
قلمك
فانصرهم
الاف
##رامية
وضعك
الاجنبي
الهالات
بورما
استبدلنا
تعجبه
موقع
exam
الظواهري
الفشيخ
لعمر
واسلوب
##ةة
بالابت
يتعب
رقود
واتجاهل
الاسلم
##رتا
المحمول
يعاقبك
الوشم
##اطي
الاشواك
گھر
##لقين
الزنا
2011
لمحه
لايترك
وتقبل
السلاام
##فضلتي
طرقها
بالحوار
الاصط
##لازمة
بيا
البوابين
يابوعبدالله
بيجو
رغب
انزعاج
ستبقى
يسويها
وتنس
تمتلك
مسلمات
عودتي
##مالا
كاريكاتير
وازيدك
٢٠١٦م
يومياتي
وقود
لوحة
الايرانيين
⁄
التنمر
طقس
شطارة
لاجملها
متوكلين
غلطك
اعلمها
اوفيكم
ﻋ
##قدرت
##سرتي
وحلوا
النقطة
رولكس
ريالات
مطابق
##لامنا
ملته
##ﻜﺮﻩ
##ضباط
وتكرم
ارسلناه
بقالى
ورمي
الجدعان
المفروض
##غض
والقايمين
يقتلنا
معيشتها
##ﺴ
شالكة
ياحسن
يعزمني
##حى
ووك
الغرياني
بزعم
يطالبن
اجتياح
سحرها
ابنته
احبط
استياء
مغرية
##الشيخ
صانك
##ﻻح
يخارج
والحسابات
لميلان
الماستر
##🔆
ردكم
اجباري
وفاتهم
١١٩
العقاري
space
ﻲ
عملوه
هجري
##ورات
##عااد
يخبط
انتقالات
هااه
##قينى
مستعجلين
ہر
##يعه
##💐
الوفاق
##زلك
##جافي
تتمنين
اجعلي
الضحكة
نتخلص
ميدو
لرم
واقعها
مابغ
اعتكف
##یر
فاسر
وجميع
عوضها
المغر
لوكاس
##ستة
مرضي
جدعه
بعب
تصيبه
مغريات
الساعتين
##خت
التريند
وقنا
واتشرف
##enchik
الانكليزي
تشاء
╮
الغلا
ﺃﻃ
امسى
##ung
لاجيين
ضاحكة
راجحي
##رﻓ
فايق
احتراما
ههع
ترشي
راسلنا
لاتروح
##دهما
فلنفسه
##alth
يعنى
مطهر
ظروفنا
قبلك
يشير
بحمدھ
السامية
بالمفضلة
البراءة
المنض
الرياء
اطفش
ولغيرك
تشربه
##قود
النزول
لمقر
##مون
رطبا
تاتيه
غزيرة
نكت
##ﺩﺓ
الوشوش
mtvlebanon
عارفها
المطران
☹💔
العشاء
يرصد
##ضنك
الرابطين
موضوعية
ᅵ
اطري
##ish
وشوق
والوق
##فص
وماله
رول
##ستهين
خطوبة
التوقف
كوي
##alb
تمح
يالت
ننتظر
##رجي
خصب
عبدالواحد
مايخليك
فكرية
تانية
المراهق
متغيرة
ماتصدق
مكتفيه
##قتى
لخير
وسين
ٱﻟ
اثبتت
ارث
يطرق
مناكبها
muhammad
لكريستيانو
فامسك
في
واحياء
##مضى
انشاءالله
مميت
مضايقك
الار
البته
اطبع
واناء
والنيه
يعملي
بالقصف
تحفظنا
لتفاع
متجاه
انواعه
يشترون
##ايرات
وخط
فمها
شفيه
يلزمه
ماكي
فليك
ثمانيه
٩٧
الاميرة
انجاح
فنانة
تعطيك
المطرود
والسواك
يعوضني
انقهرت
حقارة
السف
مصلحه
الاعور
تبغض
هجوميا
بطريقتهم
يتف
وينصرهم
قبور
تتجاهلني
##كبون
نواياك
عصيتك
البطريرك
احسبك
قضاها
✋🏻😂
ونتايج
بتعديل
والامير
##ماجد
بحالنا
اتاكدت
بشاعر
reply
اوقفت
٤٨
ناشيين
اطعم
الازفة
فحسن
info
فرانس
وتقطعوا
##itch
متقلبه
طبيعه
ذاته
الفراعنة
والاقوى
وخاصة
الكيف
مجتمعي
يخر
ولدك
sent
ضفاف
ودخلت
اعجبت
قومك
ووظيف
رايعه
ﻣﻨﺎ
مثقال
شبوه
\
يشرح
استقبل
##ولہ
طفولته
انتهي
نبش
تزول
##هارى
حواليه
خرايط
الان✔
فعد
كوبي
ازا
غطاء
الباس
عبودي
ريختر
كبيرها
للتسامح
منافس
##نعه
لايجاد
ومايخ
لاتزيد
التابعه
##544
فانها
##ages
صالون
وطنى
للبيع📢📢
💔😞
لعض
توسع
to
تولع
وصفدت
للنايب
تشبهنا
##🖐🏻
يقبلها
اجدابيا
وشوقي
الزيوت
ازازة
مجازر
camer
اعداينا
✳
المواط
فلة
وجز
صوري
بسلامه
كوت
بالبرنامج
يجزاك
غطاءك
فلقد
منسق
الطويله
زون
حجاجه
بتتح
dem
لقافة
قيد
طعون
المولى
٢٢٣
كلهن
cpd
ومسان
حداد
وقطع
eff
الناري
تطيق
الشقي
😷😷
هلم
بولندا
مهتمه
الخليجي
##ضور
##اف
اعديها
لثلاث
الاسد
💥
الاسهل
بوليفيا
موتنا
الروافض
تايلند
هالمشاعر
احاتي
العجيب
داعشية
لۆ
اسعادك
والسوري
الماذن
طاعاتكم
بلاس
عسف
وسات
ينشر
ويدعون
الوصفة
وتنشرح
صحه
يدخلك
فعلته
المحت
معلومة
للهواتف
تراقبه
فاتت
مكملتش
تسيطر
مضغ
واحط
المنسف
الناحيه
الحفلات
تدوم
##عبي
تضامنا
حاصبا
ملجا
احببت
بيعيط
غيب
العالق
وتخرج
قالوا
ماركات
فرده
المورخ
ﻛل
لتبرر
كوينتراو
زيين
##يشه
##🍺
صغيرا
ramadan
🚗
##زلنا
التفسير
وكر
وزلزلهم
nike
تراجعت
غص
##😳😳
##سني
##تموا
تنتقي
يشقى
تفعله
وياتي
مامنك
سكارى
قلوب
اشفيه
كايدهم
فتقول
##خمة
##ﻮﻝ
برابط
##ووره
للطيبات
تقرر
فالموت
اغمرنا
تشكيك
ناصيتي
ساف
عفي
دمعا
##رحية
##بتها
##زام
يتطاول
يقويني
ياان
جلكسي
حنية
##ايين
متيم
##نافسه
دوامة
وجيهم
الفلبين
غلاها
يجتاز
لبسوا
الوثايقية
عارض
رجعتي
قضيتها
وطاعته
للدوري
مدربنا
راكبه
ﺑﺎ
واصبروا
فضلوا
##لت
شعورهم
قبلها
ادمه
ملكني
##ult
42
التدخلات
تري
شهامة
البس
➌فولوللي
بالرطب
الغرد
يخلصون
ورضاه
مرعبة
والجا
عونكم
عتقت
اجيبك
ولافيه
الكحة
للخطايا
هجم
وتحل
##paper
بمستواه
معاك
##قدروش
هيغير
وضاع
تتر
الهذلي
##ﻒ
النظيم
عمرو
بالامر
خامسا
وابشروا
ﺃﻡ
الاجداث
farwaniyah
طرفه
ﻻﺯﻡ
عاص
وضعكم
freedom
ﺂلو
🌐
يعجل
واللح
ستحتاج
ويلاه
الوطن
ﺍﻷﺣ
ﺻﺤ
##لكن
غمازات
##lack
اوش
##edom
يستغلون
تنتظرك
مهديا
##🌙
##قايا
نوت
اتقدم
مسرات
فاعط
حصلوا
ﺷ
اتفرغ
off
##2016
المخيس
en
مجانين
##لج
حشم
الساحل
سلبيات
زلزل
تراكمات
وكذلك
ڈ
قايدة
ودمعي
خوتي
بيهون
نجاحها
العليم
وحطيت
واضله
##قبات
احداها
حزننا
##mo
بالغاء
المرسوم
##۰
تسلق
سليم
ابيك
عينهم
كشر
ثعلب
الطواريء
توجهه
عنصرية
رودريغيز
بهد
نقمتك
لقصة
ينشف
استفادت
المولد
يمناي
study
لح
ياخويا
انشره
بنحكي
تحاك
الكاتب
وترزقنا
الزول
اهتمامكم
لشعوب
الاصدقاء
وجدت
والاعتدال
ﺍﻃ
⚘
current
والسك
##يتج
mom
جارية
وعملية
والكاس
طفوله
يعطر
الارشاد
صرخة
تابعونا
##😋
لرح
لقلبك
يجاهر
تستخدمها
oh
يبادلني
##وراي
غزالة
📷
١٣٧
وبمجرد
صبيا
##🎆
زاويه
حفره
╯
كق
وعفوگ
الواسطه
فارح
وحضنك
اذني
ونتوب
##ڼ
حط
ويغسل
ويطوي
وجاني
وثايق
كفيك
وشوفت
ودلني
اكاديمية
ياخدهم
الطويل
##درك
تقصد
يالذيب
غرار
##one
وباسم
فعندما
##راقبين
العقاب
اتابعهم
##ويتنا
بالقلوب
##تبه
😍👏
مستكبرا
wael
ترجعوا
يروج
سواريز
وتواص
ذويهم
والياس
##صدقش
الاستعمار
بسن
بوطني
cn
مزري
##حكيها
يطري
الصحيان
##وريا
يطفيوا
##طال
##ﻮﻟﻲ
عرة
##هرا
صناعه
##ﺘﻬﻲ
ودنيا
الاتهامات
◎
مليانة
السماجه
متفاعلين
aj
صعبہ
نقيض
##فوريت
عيدنا
للفقراء
ايام
##لاين
اجاز
المتواصل
##فسكي
انتر
وتعود
فعلك
يقص
نرضى
امور
القليله
💚❤
ماظنتي
حضاره
للغاز
عسكرى
الغزالي
لاشياء
وشهادات
ذهنك
##كاش
مرحبا
##2020
تدمع
الجشع
ﺑس
احيان
الفيران
روك
بالحكم
##بيكم
وواحد
الريا
تثق
ببس
تعالج
والثقافة
فبلاش
تلبس
ٱڵ
تتخانق
جلبت
اجركم
يجاب
بحفظ
بريد
يداس
غيظ
ادخلنا
##ولدن
##كنز
اعترض
وجه
الجرب
##اركوا
##قوش
اكث
خدا
دخلني
house
##احبتي
قاعة
للفرح
للنهوض
لاتصدق
مستان
لاترد
ويرده
وصاد
يوجع
التخاذل
يغيب
اموالا
متنك
ونفوس
##ايفون
وخلفي
فوقك
واعطنا
فتقبل
سداد
دامت
نسبت
ستواجه
ونطالب
🌹للمتصلين
##ﻬﺪ
##كال
بيسوي
ندارم
موذية
البصره
##لقاب
##صالحة
##ﺒﺤﺖ
عملنا
##اييس
مقطعه
تلتفت
فالالم
ورضا
العمانيه
سنظل
ويصل
♩♡
ويرحم
🌟🌟
عملين
دوافع
┊✯┊
فاكرمني
##حينا
للى
ديش
صوتها
حيلها
تحبيني
عظمة
التسويق
بصرى
══
150k
اغتيال
التشبيه
مقصوده
امي❤
عبدالشافي
ترمب
الموهبة
compl
امتلا
بكيفي
الخاصة
سعيك
لدعاينا
##ناف
لاسيا
##ياهم
للاستماع
يرم
nat
ﺗﻤ
##960
بالسك
عايزك
##امون
بلقياك
ونحمد
##رفين
ترقيع
ﺭﺳ
وهاك
ابار
عريس
سمعته
عالة
لدنا
جبهتي
عنہم
ليتنا
ربط
##ويته
مذن
اسكت
بالاحلام
يتعرف
وناسها
بركاء
##رافورد
⚡⚡
##بحيرة
للامتحان
والجن
سابقين
وادينا
الجوايز
##غيرات
تستص
ret
خدمتها
##irl
يقربني
بدرا
للزعيم
امرت
بيتريق
والصبح
شامله
ويلي
195
والاسعار
ورييس
وقلبي
بدرى
وسعه
واذن
موبايلك
عريقة
سيختلف
##ياها
وساد
الفايزون
والكبر
اعصابه
موظفا
##ﺘﻌﺪ
يشعلون
شاه
يجعلنا
المفقود
جروب
مغامر
مرضاكم
معرفتش
مسفرة
لحظتك
فلومي
الفض
والوطنية
ﺭﺳﻮﻝ
يعيب
لابطال
يعاني
ذكى
واحبابي
ودراسة
عملته
واكثرهم
الجنيد
النزاعات
فارغة
الارهابي
والتاييد
تتكلموا
مكسل
انستا
##فعك
مكونة
الريال
حواره
الاطراف
پێ
فادح
تناه
🤩
والمبادي
ولدينا
رزقت
تريكة
مضاعفة
##شيسكو
##قناة
ماركيز
بعودة
اشتغلوا
فرحہ
باخطاء
خلتني
الظلال
حقتك
بقضية
ويهز
دوام
حواسك
ذلولا
مضمار
النايمه
والاندية
کردی
يتقون
##شوين
فتت
اخرك
متست
والثانيه
قالها
##رابه
قرعه
فلورزي
تعدو
والقوانين
##ix
##يدون
دارنا
وعبادته
مبك
هوه
وترب
اﻹسلام
##عيها
الراي
الكلى
كصاحب
طاقتك
للحذر
العثرات
شوقى
يوق
الضلوع
يحتويه
المرفقة
##ومون
دم
يشفى
##وفان
باين
هياط
كاكاو
الحرية
ﻷن
دوك
يقولى
انصاتك
تميم
تحت
يغلط
الحماقات
فهولاء
بالضبط
left
فكاهي
##یکم
يريدك
ضحكنا
وتفرح
ينمي
معموله
ماتحتاج
وعقلي
اطلبك
😉😂😂
الاضا
الشنب
الشيطان
للكاس
كلماتهم
العسكريين
باجازة
هندسية
قميصه
تطبيقا
ريفر
التمساح
##شم
##👯
لامنه
يستغيث
##فرجها
تلفزيوني
##اریخ
رشة
اعدامات
لتواصلك
تربيتها
رساي
فاسقين
##واريخ
مثمرة
ديالي
ياريم
البديل
لحا
وحبب
اجرحك
يتابعني
فليغيره
بوظبي
اللتي
الكوارث
##راطات
وارسال
ساعدوا
##stc
maj
المتسبب
بوكر
العلك
ازواجه
الابتعاد
ابغاه
يبحث
وارتفع
اى
وامسي
يطعنون
الغذايي
##اسو
💜✨
مرها
وخلي
واستخفافا
ميريام
الاخضر
التنقل
تكبيير
سورى
يرام
ذهول
نسويها
ב
اتحمله
افيدتنا
فبيس
الازواج
بالعيد
بخالص
ساقها
##زمة
الخدمات
توفت
😴😴
ظل
حوافز
ترزقون
الاطاحة
يورثون
##صرة
استقرت
##ارع
الفستق
##رونية
جواد
الحصه
صيدلية
عطوها
##ابروا
ماينام
نفرح
داهم
النشطاء
اﻟﻠﻬﻢ
##لاله
حقوقهم
اللغات
الداف
العص
يتقنها
✅✅
بقلب
##✌🏽
المسح
وتزرع
تحش
بالجمهور
علاجه
حزنهم
رعية
لاتخرج
حاقد
شوبير
ﻣﺎ
ومعهم
هك
ولخ
فيكم
للاطمينان
ﻫﺬﻩ
فولا
يارب🌹
الاصفر
زعما
تاهلنا
يحسبوني
##بالت
لديهم
بحبيب
عاوزينه
سلمولي
##قاة
ak
##ظري
هوو
الاخرة
##lı
يامه
وجھ
##لمين
##فنا
##افاتك
والقاء
افتتح
souha
امعه
ارزقه
رفيقي
الاورو
يميز
عامين
العزاب
يااستاذ
لاتقبل
الجوو
ازي
بابايكم
ﺠ
وسيب
يناسب
الابله
اذانا
نفيرا
المعلمه
##view
وافيه
ماقالت
##طنه
💦
بالدر
ونذكر
نياته
وتوت
##دبش
احمر
##اقبه
##زيارة
تولى
وحرار
##لاكسي
هليل
##ريحا
جاب
خااطري
يفوتكم
محله
المول
عهر
ساقطة
##🌰
نظرهم
الخنزيرة
وميسي
##بطح
الاهمية
##ودك
وااحد
جدام
ننزل
ماخلصت
جمعتك
يوظ
جدا
البطاطا
##ضاه
العمراني
المتطوعين
##اليز
كنك
وحفله
لغالي
نفسي
##دها
اعدايي
الشركه
بفار
بالامس
وشاهدا
##ضرها
ابلي
بتخلي
بيتكلموا
كالماء
##الح
##نز
المسوول
الفولورز
مانشستريونايتد
##ظكم
ابراز
سلا
يمتلي
وتفاءل
ينفع
##eline
شبه
فرجه
يستثمر
وايمانا
##❓
زانه
بداح
المويزري
الحصص
زعيمهم
ﻳﻮ
طيور
##اهرا
التنافسية
معي
شكره
بيشرب
خدمتك
مستواي
##ارجي
الشبكه
##ﺪﺭ
ينيب
والقيادة
باينة
وسندا
ذوقك
ولاحبتي
##ﺒﺮ
مقاب
وقبله
بضعفك
قسط
للواء
الخيام
اكادير
لانش
اوردته
مونديال
متطور
رعود
##ﺳر
عبدا
انون
عبادكم
منھا
هدايه
نتناقش
المسيرات
##اتي
للشوون
القارية
الكنايس
##زتك
المجير
##اهرون
رتوي
الخمسة
حصوله
الرايح
والدوران
تحريك
جعلت
قالهم
سوالي
اختاروا
يحسون
##حبهم
سيدى
فستذكرون
وكرمه
حكم
محتاجينه
تدهن
مستقرة
والشمال
##فزني
بالمشاركة
المنتدى
##يد
الطاي
ولجنة
##ﺘﻠ
##iman
سعوديا
##قاق
😁😂😂
يصبحكم
المهنا
طردتنا
القراني
متميزا
##وكل
نعترف
##ديد
الارث
المصورين
مستوانا
وهاب
المخلوق
المفض
##اركات
راوا
ماكل
##نايي
مجيد
يلدريم
هوانا
بتاعه
سبقنا
نفاق
قصتنا
😌
صوبي
هيعرف
ﺃﻱ
الحقد
المستوى
اعتداء
فيحسن
عظم
ﻋﺎﻳ
مهتمين
👏🏼
##موها
تنكتب
كلمتهم
راتبك
كماء
اقراي
مضمونه
السته
وليلى
اديك
اتكالي
بااب
ملاب
ناجي
##حرر
اندلعت
ﷺ🌹
غدت
##تيين
فاسو
##rate
توهقت
دنياكم
محفوظة
العلماء
بصاحبه
##فرز
##ساء
##يدان
##حتن
⁽
2020
مرات
##ارتكم
ريجيني
برزخا
الصمد
غذ
محدد
يقطف
زعلي
ضغوطات
وزير
تمجد
حوار
وانقطاع
جيري
الصفحات
بمجهود
ريتشارد
##ونتي
الصاد
والصلاة
القرص
مفروشة
بدنياك
luck
ابقا
افعى
بتغريدات
##وماتيك
يامج
ستنتصر
سواح
##🇺🇸
1435ه
يروقني
ثرو
البديلات
اضافة
شقيقته
وخزة
التقشف
تكررها
الفناجيل
خيتافي
اﻹنسان
يحميهم
فاكثر
المفقودة
میرا
واكرم
دک
يغزو
##صش
يشبهها
يلمح
الاستك
##رازيل
اﻻيام
الستر
اسيادك
ٱلہ
اسبانيا
وفول
ﻛﻞ
شلتها
ايفان
##تيها
افتك
ملتقانا
اتفض
اسيوية
قاموس
ينظف
الحصول
واخواتنا
نفوز
٢٠٢٢
فواتح
##بناها
😂👌🏻
جهده
الرواد
اﻷح
بحاله
مهموم
خذلهم
##sport
##ذير
##ﻴﺮﺍ
للشفقة
ومغفرة
يرتد
السعااده
ضاي
##فاها
رييسة
تنفذها
تعبهم
بحالي
تفعل
ميلي
يرضي
تجربتك
بحكم
ضيافة
فالكلام
المنافس
يالبيه
وجهرا
##اهة
ياخذكم
عناء
تجاهد
صحتنا
مجاله
متشوق
بالغرفه
الغيره
وحالا
الخزان
الانت
لتوفير
😙
تلم
دعوا
مازلنا
باليابان
☺
نظرات
0090
يذڪركم
##ﺘﻬﻢ
ہوت
##وديوم
الامان
يوجهون
هقولها
اسطورية
المتجر
فالكتمان
##خلين
وهام
باعشن
داايما
المختلفة
صافرة
♂😂
طاوع
فداء
cin
كارد
صفوت
والعديد
alahli
نجامل
ناقة
وخراب
لعايلة
##ندمون
المستحي
وجاهدوا
##باا
اصحا
ايدو
##رتويت
وندعو
اكتشف
وماخذ
مرحلة
ايلي
شممت
رحمك
البلاك
موامره
اجوع
فاطمة
صلاتي
##وظة
يطلع
us
لاتفارق
ديون
العداله
##enge
ومدى
فوزي
##حون
طييب
##نتس
ضف
ℓ
##فيف
دیگه
ارحمه
تهنا
يامقلب
الفرص
عمادة
البرنابيو
والحبيب
اساليبك
ونتظر
تاهلت
شود
الزبداني
تعملوا
كفا
منين
استروا
دمعه
ﺍﺳﺘ
وريد
##رحت
##👒
يومه
يلعنم
بلغنا
وبمحمد
لحالهم
نصراوي
امني
الخمسينات
فلذات
بالكلمة
💙💭
اثرت
الارواح
رم
ذاتها
عطاها
ميري
دواره
كونو
مهاجم
ويحول
##اريح
التعداد
والموعظة
وجلست
وخدمة
كثره
ياليتها
قارب
##😂😂👊
لمي
الصالات
يبعدوا
##ينين
ابلاغ
وشرها
غسلت
تتوحد
ذود
المشرقة
شاخ
تتكلمون
اعناق
معاناتك
الدراسية
الفيحاء
والافضل
بنزعل
##الهلال
تسامحهم
فام
فهمها
نذكره
سريري
كاذبه
امراضها
شاع
الموبايل
برسالة
حنيني
والصوم
تستريح
تحد
يستفيدون
المواطنين
ﷲﷲ🌹
بطلي
##ﻓي
⛈
والتب
الفيروسات
تركنوا
جزيل
شورت
ليبلغ
بليغة
😂👇
اظنك
تحتوي
تشر
العزف
المنشور
حبايبك
ستجعل
يهتمون
اوليس
حولنا
##ظمت
الجواهر
ولكنهم
ajoute
نحر
##فوتك
لاحبتي
بجواري
مجبرين
قصيدك
##🎧
##طية
للعق
معيار
والادب
100
بعيونها
سبوتنيك
جوفك
المواعيد
يعجبه
ابومتعب
تتقدم
##تغير
مامع
##وسب
مروعة
بذكريات
فجمال
وتحتاج
يقفون
##3⃣
جمد
100k
الحمايل
ينسيه
المخدة
مقاييس
وبع
##للد
ادخلك
بغضب
عالان
لاجديد
##7
##ولاتي
مكرونة
واطالب
يتفلسف
الاسبوعية
زمانا
جنسيات
تهرب
بتصميم
نكتبه
والنت
##بقاش
قدمها
الشريعة
وللمت
للاحسن
##تنی
صبحك
بتتبعها
ويكفيك
ادعية
امورك
انتقال
عندكم
خصوصية
نبيها
النظام
المجوهرات
علاقتنا
مخه
الارهاب
بولو
الجراد
بجوارك
اهي
الخطابات
اخبرتني
يشملني
##قيناكم
ميين
##ايض
عكسك
الطري
لعبه
😀😀
هواي
شغال
فارزقنا
##ﺧﺮ
لبن
##شق
عصابات
الوم
##ربخ
التاب
التحية
استخدامك
التسعين
جمبه
ماقمت
وسو
ﺯﻋ
بسري
عسكريين
ثوار
ويخليلك
ساهمت
ادعولها
تراك
قيمہ
الاغلبية
august
ومرتز
للرجوع
سواها
بسلا
شملنا
وقارا
للعيوب
الضيافة
قتادة
رسوله
##🇮🇶
ضعيف
والثلث
هۆ
##aza
ابعدت
اقيمت
مخليك
ليلة
بلياردو
ذبح
تحرمهم
عق
حملتها
بناصيته
اہ
سلطانا
دعمي
ترحلون
جاهزون
سنتنا
##توب
##ليف
اللقى
واقعد
جبن
ويد
ياز
رفيق
ومساند
كيفها
لولاك
والرعب
يتخ
وعظيم
خنت
اختصر
الورع
##وايل
گد
فتحى
مسموم
يتامى
بالذنوب
عني
##ثاقل
##علون
رماد
اسكنه
سعدوا
خارق
##▉
يرتقي
للاخضر
تتناك
##طرسة
طفي
ارواحنا
فالعلاقات
تجامل
﮼اللهم
الاقتصاد
مزرعه
##سكرية
##ابتين
لهات
ماقرات
اخطف
نظارات
مقربة
جمعهم
##يايك
##ديته
##حتوا
##لاناتكم
نقية
يرمينا
بيصدق
2004
cnn
##وخ
تكتيكيا
وليات
##ﺧﺪ
يميزك
يزيدني
تعني
عويد
وابتغاوكم
السيول
احبهم
ماشى
غوانزو
ضخمه
ﻋﻠﺸ
0537
والوضع
وقعت
ومكتب
ونفتح
make
##اليت
تنتظرون
screensh
وارج
وبعضهم
##غبات
##ومات
direct
##➐فولوباك
ملخص
متعرفوش
تعذبنا
تبدد
الغيا
سلعة
##صاف
١٩٢
تطوى
الصحوه
اخبرهم
نعتذر
##y
رايد
يامال
والكوثر
يقتصر
##وهو
تحسفت
##لحمد
##طاة
##القين
قطا
تلا
للثلاث
ضريح
زكاه
مكرونه
تفتش
اختنق
وشديد
للابد
بوسع
##ard
ﺎلحمد
مشكلتك
مفضلة
##قتنع
ضحيه
ب30
تاكدت
تلوموني
الهية
##باس
وتاخد
تتمناه
تكيف
لاك
صباح
رصاصة
شوارعنا
الميزاني
##ذار
##ضينا
بمكان
لهالدرجه
عشاق
##يمو
##ذاذ
المخالفات
😭
هيطلع
العلانية
وماتشوف
اخرجها
الخضار
##ليے
##تما
مهددة
برضا
وليف
تطبيقات
ولوم
ياحكم
للح
يربيه
انساني
ويله
مامته
تطرف
تنهيدة
جغرافيا
٢٠٨
الابلاغ
المتسابق
الوصال
ابتعدت
افرجها
العايلي
save
الاجوبة
يولاد
يشيد
ووقتها
شمسها
##28
##ﻬﺂ
يصور
كدابه
##use
احييته
معدلات
ويعاني
##❉
وانزل
انسجام
وفرحنا
سودان
تستن
تقفل
لساانك
الاحتفالية
##قاض
اتبعت
باريس
مطواعا
افكارنا
بكافة
##ﺾ
معاناه
بتحصل
السمح
والسودان
تعر
جباره
وهلاليه💙💙
تاركين
باردة
##طهرك
ﺍﻟﺴ
يلقون
وتقتل
يتابعها
اسطر
تصيد
دشتي
هتتب
مقتله
فروق
اتعثر
يارا
التحف
تبعي
تهريب
ذاقوا
عزيزه
181
##زحلق
بلغة
شاطرة
مخل
فول
##جتي
الخوات
بليت
مكتبه
لاعرابي
تفاجي
فارج
وسعها
##ليكوبتر
بالذهاب
دفنها
الاجنبية
والاهلي
واجهة
ابوم
ابوح
واياهم
كلماا
ويظل
ماتدري
وصراخ
ماتتمناه
واردى
نعم
##صول
شبهي
تحقيق
عيناه
المراعي
وافدين
لانتش
نجوى
دعوتك
اسوء
سنيني
ترسخ
خشن
##واحا
طيارة
##kids
يااخ
الحزين
جيسوس
##😗
اولوية
رابع
يستحقونها
الخليفي
مجرما
##تاز
واسرح
باذني
النش
هالة
##انسيه
##٤
لنظنك
وخاطري
وكافي
بالاحساء
احباط
##للين
المشروعات
ومفارق
مسكينة
بيحيى
سلك
وينكم
احترف
##ﻌﺎ
تكامل
نبدا
شوم
المتكبر
يضرنا
ماركت
متلازمة
خلنا
بالسيوف
##حبوا
المحافظ
بحمد
وبق
##f
السيديا
##ﺒﺐ
حنك
كلاما
##تازي
مورخ
mah
طريقه
شيري
##هاينة
##غيرت
رست
tunisie
معتزل
غرقا
القنصل
الكوميك
كراي
نشاطه
رخيصا
╲
نوره
liliabenchik
##ﺗﻪ
youtube
الموت
بابو
وغضب
##ارتنا
##ﻬﺎ
کب
سرد
اليک
يلحقك
قرن
سجد
##يتو
##شرك
مبالغة
ﻚ
##ﻨﻴﺔ
والتعصب
مزحه
ربع
ﻋﺮﻓ
ى
kun
استحي
الوردية
##نجوم
تنتعش
مسروقة
عزلتي
##ليق
الخطيرة
فاغفرلي
ج1
الارضية
ليلها
وعقلا
##رويش
شارعنا
قى
نقسم
تخذلني
التحرر
صحصح
اﻟح
رخمه
الدقن
للاسوء
الجحود
##لحس
يسعى
بييرو
وطننا
المهيب
برگ
قتلتها
المحاضره
السقم
dub
هاز
ومامن
باصدار
تغريني
التشخيص
الاعلانية
المتوفى
##ght
##حلات
الزود
ترتوي
لوكاكو
rem
ﯾا
الميزانية
bay
##راك
mus
##كرمنا
💨
يسمي
##وريني
الايق
كبك
ياقلبي
ثالث
تعبير
##دورة
باسراييل
قند
تدميره
بمشاعره
##ajre
للعلا
اخترعوا
tweets
يديد
نورك
زملكاوى
العطور
عيونا
يراضيني
فجعلت
##غبا
باى
مستوا
ويجلب
انتشار
##irut
مختارات
بعلها
##طقين
الغل
قن
التفاصيل
متواجد
##وبيان
روايع
فكونا
انقطاع
تعاملهم
مران
ومحل
نسلك
وبيق
حيلته
المنقلب
اڵ
ضافك
##ﺇ
يوج
لحظ
ثلا
ااع
الرصيد
وثوا
##لحف
بيحضر
للارض
استجابتك
ارضاه
تحبوا
ّ
جحر
هزني
والبدء
عنج
والوجد
🏃
والخي
مجزره
رسايلك
ويكيبيديا
تقا
لعيد
الشوري
المسا
الناسف
فسالته
تظلموا
🔔
وسواريز
تتوج
ﺎلذي
بهدفه
صباحوو
رووحي
جديات
والارواح
المتاسلمين
بساع
واصرفني
تتلوث
واديلوو
##ﺭﻱ
فلياخذ
##ﻭ
وامنه
##اشتاق
ساعود
##عانا
##افها
الحدي
gh
بارس
والاهداف
سدد
رضاك
الحوارية
الانديه
مساهم
ورخاء
معضلة
دورات
يفد
لطيف
مانتي
الفراغ
##الل
بتقولوا
##فوك
وياخذون
تنفروا
ججميل
نرجو
تعم
الشوب
تحترمه
بحارة
ااه
والمملكة
الجنايات
ماعرفته
##ٺب
فابت
خهه
##ظهرا
assad
وبتن
##⭐⭐
##םבםבﷺ
كلب
##يكية
الحقو
اعلامنا
الترب
ﻳﺮ
استوطن
الشتوي
وص
##فسي
2019م
تضيفني👏🔥
ضوابط
##حاز
وجنبني
😹
لعقد
منكر
للتوقف
باعتباره
فورزا
هويدي
فلست
##حيك
زوق
للحكومات
عملها
يمكنني
صحبت
سامحنا
بعدوا
شحت
##فكر
يلقب
##اقين
بريك
بالتقصير
ساط
ثقيلة
خطاب
غلاه
والكراهية
##واية
##ورج
وامنوا
اقروها
كليا
تصفق
بالتش
البروج
ارادة
مسفر
##تهن
وتنع
انف
وكنه
اتعلمتها
هناء
##بنت
جلسنا
عادله
يستنجد
عسير
واحضر
وجهات
شعوور
الجرحى
التكبر
بله
##اهن
##صدمت
ببر
##وها
مام
##روحك
موريتانيا
المركزى
للمشاركه
متحف
يتغلب
والعين
يغر
##ﯾر
##ترين
مدربي
بولاية
ونهار
الp
اميرتنا
اسقف
فرقاي
##قروب
كارفاخال
وميتة
وعادت
لمساندة
قلٺ
قواعد
لاعاد
بعر
تكثر
يامساء
وتجاه
عزها
الخطوط
الكاره
يدينا
التخبط
والمروة
منحرف
فارحمها
يدعو
فيصبح
ولاقوة
ياويل
مايمشي
ليونا
اغت
موكدا
ومحبتك
الارجنتين
البيدج
بالاساءة
الفتوح
واسكنها
##قولش
شلالات
ليہ
##هوه
رفضت
رجلى
##🔴
##اﻟ
##قايق
الزع
ورقاب
بوسعيد
يعشقك
عتيد
##65
بتحول
2003
ليتك
##رايق
الحيره
احضني
والمراه
لايغ
العابرون
احصاها
اسكندريه
ونادر
السجود
سيذهب
معام
فايقظني
بيصبح
ويكيليكس
##حل
رحمتها
##بتو
جددت
بالحرس
##كرا
وامانك
الثام
يقينا
بالنية
بحوزته
مواكبة
مفصل
##قعات
الاستفزاز
ترجعين
بدايہ
غنم
##لوكي
فنون
اال
للاجانب
لعبة
٨٨
ودعمكم
للقمر
الايجابيين
سنجار
##ارة
اكتفينا
كرما
ترزقني
رمق
بالثلاث
دموع
وذقت
الارمن
تاريخي
اسري
◕
الوفد
لمغفرة
عجلت
قضى
❤💚
اعلامكم
تنهى
##يامي
ينقط
اصلاحها
##ainab
kaak
الطعون
ثنايية
متعمد
😍🙈
ليسعدك
##٦
زق
الزما
ابيت
0500
##k
تفضي
تكذيب
##ثم
##باته
البخاريhadith
اولاده
البقمي
⬇⬇
##قصير
البحيري
صفعات
يفقهه
لتغطية
وزاره
تزك
بالمق
ويسرلي
النقية
مثاليا
##✗
✔🌹2⃣
قزم
سيصوم
بتخسر
مفترض
بامكاننا
المنازل
بوقته
وتسب
السيزون
اهيه
التشري
اخيراا
استاذ
الحكمه
تشاهد
وقعد
البقرة
ياكثر
التراكم
انتقم
البترول
ويجون
حمزة
عليكوا
مكانين
ناطرين
التشدد
بمصر
نبشركم
بكثيير
##اشا
والعبرة
قدماه
رحيلي
##نسوش
##براء
عبار
طبرق
المشاركات
اهتماماتي
الموقرة
تركيزك
ويقدم
افران
##عتنا
يلاه
منمتش
خواتمنا
يصلحه
ft
تضلني
##صدقة
فليكثر
سترك
##ابقين
ادوم
النور
باولو
تبيح
##وطي
منعمين
وسج
الكرويه
حماس
mbc2
لتعويض
لوفاة
الحبايب
يايه
بالحسد
يدوي
##خبرك
انضف
المواد
بتحصلك
التيس
لتستقر
السياحيه
خاينة
جاهل
اكيدة
##اتشب
kamelw9f
ميش
تبصر
وعيشوا
سوا
للتس
رمال
التفاهة
وخياركم
اطل
وابارك
بوخالد
للضعيف
##نزير
عاليه
الاسباني
##لقي
خاصرة
الثع
فرانكفورت
اوربا
بالرج
جابلي
بجسمي
الظالمين
الاوتار
خليها
##طام
##حكم
##تقلين
ثقافي
166
والوقت
يامعالي
واطير
وهتكلم
الزايفة
وبمن
اخضع
##ent
للخلف
ناقوس
ببركة
الفاتنه
دعايك
شوش
##ordan
والعلن
مہما
وطهوره
انتقام
ومعت
الانتربول
##ضرم
همومه
كلوو
ظبي
فقرا
يسترجع
##لھم
سوالها
وبركاتة
##فقون
ركعة
ﷲ
نعاتب
اجعلني
واتغ
وحدهم
وحلوه
##فيري
سلوكك
شهرا
وعزي
عاطفية
جهودكم
يدفعوا
حضرتها
اقدام
ومرات
ونورها
اخطب
رقمية
وتقدير
غافر
لنسعد
يرحل
الامين
شهار
##4
##كمش
يازينها
سهيله
tu
قياس
العريفي
ببراءة
اريت
ضا
##حاكم
دامي
رقبتك
ثلوج
بايرن
وثبت
والنهايه
دارن
##داما
يدبر
بالتالي
هانيا
##ہڕ
##سدح
الجاكيت
وزينتها
عنان
المعارضه
##وسيقى
بالزهايمر
كرنفال
##احبي
وطنا
مخذولا
لاخوانكم
سعدت
وعاق
retweet
صحبك
اغفرله
للثقافة
النهارده
تنصب
التشام
##⚫⚪
فرط
ولساني
💙🕊
الشقر
##شوا
ووكيل
حجازى
بيتكم
کردن
وزكها
ينجبر
ولاعبيه
تجلط
##عوب
القطبي
ومبر
الفسي
مهلكي
الفتاة
ونذيرا
سيقت
كوكي
ثمارها
تركها
ايووه
خروجي
بالكاد
الصيدليات
حراك
يقويك
عزيت
وتدعون
ثلة
حبيبت
##وقي
نبيلا
بتريق
مرخصة
صابره
##حمده
سنتين
يمثلني
ويصلح
والاحباط
تحفه
عالا
##الفة
نسى
المقصرين
حمودي
تجف
فايا
بيقولون
##😭😭❤
للمجموعة
اتوقعه
شوفتو
يتقدم
##😎😎
والديك
اعتر
سعيرا
يبدها
يحزنني
مسابقات
لاقوم
دينى
يقتلهم
وادفع
يناديهم
لادارة
ونادي
ﻭﺃﻧﺎ
ماترسله
اطلعها
الھم
بورش
لفعاليات
احر
يشوفه
عثرة
مالقيته
غابو
هداه
رونالد
استغف
نلبس
لاطاح
حبيبتنا
مجددا
الملكة
انزل
المظاهرة
طريتك
فعلت
والني
##حرون
المقنع
بالارت
تقاطع
راحتهم
زبن
بطلاقة
##ident
لايكات
بيومين
يالغاليه
العزل
اشتعال
لقب
خاطية
##ھى
والقص
يخرجك
سجود
name
بالكتير
جمهو
زملايهم
المضادة
مساري
##ior
بهمة
برحيلك
تعودوا
مستغربين
ايمانهم
الخبل
ياحق
صاح
نحن
ضمانات
الهلال
المروحة
وماهو
مطالبهم
ومازالوا
يخفق
القلعة
جلسته
##كات
نتصور
ونورا
الليلي
للروح
وبكى
الوحش
يحلفون
ايامهم
لتكن
مايفتح
##ذاريب
يقلبها
الرويعي
##صبحت
واسمح
##ko
بعينك
يفتر
الزهر
يازين
وتحرق
للدوام
rolex
ﺑﻚ
مرھ
الوسي
مواقف
وانصح
وصمت
وموت
واراه
خدي
الحويله
اعتذاره
جنودك
الشبهات
##جليزي
sara
ملفات
انطوي
ايست
##ill
يموت
لاشعال
ابحثوا
ﻛ
منظمه
فاجاب
##على
متوقعا
تكلفوهم
ترحيبة
##ﺳﺎ
شيبان
لشوون
لابيه
المناقصات
برب
والمقيمين
يهتف
لبناني
علما
بامكانكم
ماشوفك
سلبية
ادرا
ياجمال
اوف
سالوا
ريفرش
##يدرات
يسلمكم
متردد
حياء
بالشرقية
ﺁﻧ
والزواج
عدت
الطبيه
طيح
جدد
اكرامي
ممحونة
يرو
سلت
ادمنتك
المحمل
##ذوذ
بدالك
##الة
وصدوا
الطويلة
##اياته
وبالاخير
##يبات
##ثون
تفاصيل
الفستان
الدولارات
دورا
##وتك
لے
للهروب
ويعط
هيكل
قولكم
يرمز
##oos
بالحياه
نستغفرك
الموريت
وعشيا
بلباو
مترك
##شوع
فسيكفيك
الخفجي
وزمان
ֆ
نحا
emirates
ذال
موع
اسماءهم
##ilal
ينصرنا
والكار
حفلة
##زرة
ونصيحة
قايل
كفران
ينباس
وحزنها
اشيايك
##بهم
مابقاش
دنانير
واخبر
ﺁﺧﺮ
كيفي
اعصاب
وهوى
وسليم
##6
يجرحك
اتحدث
وتعلمنا
المكاسب
##oa
حيفا
##قالش
امنا
بالى
يقلقني
##طالع
##بلها
هاكل
##شارة
##زيرة
انقضت
الشفافية
الرغم
الفوتوشوب
تزعلني
غيبوبة
فلامن
يقرون
اقسم
والعطف
فهمتوا
المحافظات
اليونان
المطلاع
امنح
برعاية
اليهال
طلاسم
ومنتخب
بحال
ولموتانا
حسابي
هادىء
لولاة
المعلم
الظاهر
حالى
حسيني
##بحب
بتقطع
يتصل
نصين
عافيتها
اضعافه
وعشقا
يسلب
عاصفة
##وشن
محرمه
المجاملات
ويبلغ
سوط
بالكلاس
لاني
ﺃﺑﺪﺍ
##السعادة
مايضيع
فاشلة
##جمعة
همومكم
رييسنا
قتلوه
برف
المستعملة
قالوه
اشاهد
##اتير
عذر
نافلة
##مامه
الهتني
استعبد
##☹
رقب
##فاجيك
##لص
سيرسل
صنعة
طاعته
حسابنا
##يامة
الزملاء
اک
valent
مسافرين
وشيل
##زيدي
بهواك
🔵🔴
نمسي
دمار
قبيلتك
الميد
تخافين
بالرس
بتفكر
تنامين
الارهابيون
بلوحة
##كو
##ريبية
العاقل
كس
المعرفة
نگ
وامامي
##⚘
قرا
الفزعات
يشغ
فاى
والاخبار
فصلوا
كنافة
كنو
بوضع
##بيب
بصحي
##اره
لحي
فوني
##arat
بلووك
للموظف
بساط
اصنع
##شيم
انصره
تحتبس
امكانياته
الدمر
شكى
له
زادك
عاللي
استعجال
سے
شوي
تهدينا
نكهة
🔆
عدنان
الاسراع
فرجتہ
حققه
طايلة
##♦➎
فعاليات
تردين
مطيع
ظالما
##احته
الليبرالية
تصورت
وحياتي
الشنا
وطيران
بانقلاب
sab
راقد
الجوامع
النجمة
تحرى
الخزام
##والع
قرير
علاقتى
الحمقى
وفعلت
النت
والاجهزة
سيرين
المشرفة
اك
انصار
str
حجارة
##ﺎﺋ
سباليتي
هرن
اخدتها
غادرت
##ايه
غرق
وبضحك
الخيريه
🙄😂
اصرارا
وبدو
٨٣
لاشماته
الرايات
يوع
ويسافر
عت
##واليب
انجلط
تاديب
وعدد
وعصابات
ﺗﻜ
الرجوله
##وجي
تحصين
وشكرا
باسيل
وملح
نساعدك
ﻧﺼﻴ
ورفاتا
اﻵخرة
برضوانك
عندالله
ننتفع
الفلاسي
الوتساب
يقط
ساسة
بتلبس
##وراتا
الطاغية
ردة
٠٥٠٢٧٧١٤٤١
عفيفي
تذكريني
😭😭
القافله
فقدا
تكرهو
باكية
سالو
بالاخبار
اعتدت
kills
الخاوية
قنا
##ثلها
##irates
عنادي
##🖤
واياك
##ووط
بالفكر
##لضعف
اتق
نشاطات
العوا
cc
##ماضي
والمغفره
ساح
بوش
##رن
برنابيو
راح
للصيف
##نييا
وجراح
والسبب
🎖
قسم
مايطول
نشاطك
##ارعون
ينصدم
##واصلك
##صلين
لاخط
يامحب
جاهلا
الفاشلة
🐒
كفاية
بہا
تاد
صفة
ووالده
حريق
يتوجه
والحوار
🔥t
لاحسن
##ندسين
ادانة
ذكرياتهم
هتولع
##ﺪﻳﺮ
والرح
يعن
والضلال
امامي
##رفك
الزنزانة
الشعور
##نزف
هينة
بالقروب
نهايتها
بخطا
يسته
بلايك
صدقوني
رجعو
الطفش
حقهم
نثرت
قديرا
معكن
مصاحب
ممالك
معدة
ﺍﻟﺪﻋ
الواس
القرايب
اوبرا
اكتبوا
##emy
كلاام
دروبا
الحبشي
بديتي
##وهبة
تسلي
والاحمق
يشعر
والوعد
المصحف
مبصرا
للسياحه
اشقر
##قدونس
ولسا
##وتيف
ماادري
ستقول
الرفع
باعفاء
ولطفه
ومناطق
بمنا
للكلاب
mir
##وكب
الوثايقي
المدرس
المطبلين
##قطقون
الفساد
يشف
الاداره
لكاذبون
برودك
قرطبة
##ۆق
تدريبه
حضور
السايقين
##الحي
الليو
els
التدريبي
رايه
وقالت
الصبار
##فيرا
فنزل
للتوضيح
ورام
وجمعنا
وتقديم
ومجا
القياس
ٱلد
ﻟﻸ
al
##ھه
##☘
اشوبا
##لذات
تطيح
الامبراط
لبو
تتوكل
البدري
الفاسدين
الثقلين
خصومة
الاخاء
لمسجد
والفتن
##باين
مبرووگ
العشرون
تبذير
واذنابها
تسير
الشاعرة
##ناجر
جير
لقطعت
وديع
ويحبون
وعرضه
الحاني
تفريط
##غيت
##assac
خليجى
ذبي
بالسينما
بالاسحار
ثاني
بفراق
وكلم
😍😍❤❤
منتديات
##ريدات
مناسبه
الاضافية
التعليم
مخصصات
شنق
##گلم
قاعه
وشش
معت
ٱلو
بمواقع
علاجا
تحصر
يختطف
وكله
الغموس
فاتبعوني
ويكرم
نتشرف
##🌹❤
يابلد
التمن
وسند
مسيولي
الجوهره
##4⃣
المصخره
انتحرت
يرثي
تحاس
عازم
167
اشمه
هذاكر
بدعوة
##رامج
تفقدك
يسامحون
##ari
كالقهوة
اتسلى
واظلم
ننتظركم
الغرف
##ﻭﻱ
الرغبات
كفيف
الصيع
##اريج
قبولي
يطيب
الترقية
فارقتني
وانتهينا
علاجات
بعفويتك
اجتهادات
اتقال
انك
ﺍﻟﻠﻰ
خطوتي
تغطي
يحتوى
وقتاله
اخوانا
والاهالي
😐
##ينما
ساما
بالعوا
صحابها
##قاتها
##حبتي
وحكامنا
وملي
مملوء
انفاقه
##بالاة
الاحاديث
تردى
ماحدث
لترى
وشاق
للصابرين
##karayel
##rica
بلاك
يقدره
نصيرا
الموسوعة
action
خفوقك
الرباط
السبا
ونضحك
الرسوم
سنان
حلية
هلت
تعليمي
اندفاع
قرارك
##abbas
##وت
الوحيدة
💢
وهروب
##معن
ونا
##خذل
راحتي
بخطاب
ﻣﻄ
##ﻠﻒ
مجموعة
يسيب
للمليشيات
البوست
اجمد
التعريص
دباب
العريس
مود
معذ
كوهين
##قولك
الاال
bein
##زر
##ﺑﺔ
شلل
السودة
شقوق
cou
كانني
وشعرك
##لاما
وطيبة
ﺇﺣ
وصديقي
استيصال
وشع
حسنى
وتروح
سامي
نرزق
العله
ابكاني
وللاسف
ﻭﻏ
الفاتيكان
لراغ
منازع
بافواه
مضا
مبررووك
##نبض
وكثيرا
تزه
موه
تبرير
لقتلته
اندلاع
لاتغير
بحفرالباطن
اشخاصا
ﺍﻟﺸ
##⚫
العثور
لذنوبهم
يبينا
تمض
يرقص
ماريو
##اييين
يفتقر
تحتل
هتحبك
مطلب
لعق
##عونة
يفوت
الحربي
بالعمل
mic
النجاه
##جرت
##رضاوي
فديو
لمرة
سقا
سنعود
بجسده
نزين
للمواقف
مگتوب
المطرة
##ۊ
محور
##قيقتين
عنوان
احتياجك
##نتصر
استبشر
##قامة
لديہ
انحر
##عران
##اليش
القات
صبااح
اللولو
تفسدوا
##تك
تغييره
والمغفرة
ﺃﺳﺘ
يهجعون
الافري
##ﻭﻟ
الاندلسي
##يبك
الفرن
لعدو
مماتي
يصمت
تقولوا
راحلين
تتذوق
مازق
نابضا
جاءني
الحسن
تستمعون
ايديك
المنحرف
مواك
ارادت
مزه
فترت
يخافك
اعجابك
مزدوج
ثر
##ﺘﻲ
المساحات
اعوذبالله
رها
خوض
حي
تطا
قدروا
##الت
بالثانية
عاطفة
يدوية
وذنبي
مايط
يقلد
الرفاعي
مخلصين
##فيهي
التدقيق
للش
الكري
يتك
خلصو
##alt
وركعتي
ادركته
عامي
##فتاح
##تيجة
للسك
فازرع
الاحتواء
الخجل
بالغل
النايب
##وسفور
تشوفين
ملتحدا
فوض
##غاني
وربكم
arabia
##حرم
##ﻴﺌﺎ
ثيابهم
قولتلك
##ٲ
نكرم
glob
بسعاد
الفقيه
وابوك
##ديمقراطية
بياض
##اما
ويوسف
بندور
والسجن
صدمه
تكي
ستبدو
ارباح
it
توديع
ومزيد
##كتشف
الهري
ابتدايية
حروب
حفظهم
ﻪ
والبيية
العزايم
نكتسبه
##شات
السعي
الغر
کیس
##اكس
بضرب
الاولمبياد
حسايف
فلام
اسويها
ترددها
والرضى
##حياتي
اللعنة
##ولاك
يمي
النشاط
سادسة
مالہ
توفى
سارا
للشرع
♪
##ذي
تالمت
بالريتويت
السبل
التاهل
مرسى
تحبونهم
##140
اوذي
##وازنة
##جعه
هطلع
الايط
والاثام
##ancy
وزوا
سكوتي
حوضه
ثباتي
##لومه
بمبدا
كرشه
cool
الجناسي
جحيم
تدليس
وبشرى
والنفس
الاسرار
الخافي
امنشن
ونزل
واسراف
خوتك
والقر
اياك
النويدرات
هيخسر
نهاري
اتقطع
فشلنا
لنسيان
جني
سبحانگ
لامنياتي
انح
مايبين
الشذوذ
بيفكرني
مجيبا
##لكك
نخلة
سفرك
لفراقهم
اجتماعي
بالطي
الگ
ودير
طلبوا
الاتقان
##زوجه
نظاما
وحلمك
احتضنك
girls
ينصرهم
##قلت
الامريكى
تصفيات
اجوركم
حاسة
والايمان
فجوة
للقران
##ونك
الف
ويخفف
تتنازل
هوساوي
والامان
تبغين
رجاليه
##عيقي
لقبايل
##🎐
يولف
وقف
##يرد
زميله
🌷
تنحي
وعبادك
انياب
فتات
المدينين
للتجارة
جوليانو
الحرا
شرابا
مخلدون
خلينى
##بتي
والجلد
الاستهتار
مبقاش
fast
ومبادي
الحلم
وبج
خفه
المنزلة
والسعودية
محسنا
انتظر
مبينات
الصحوة
ويولمني
ابتها
هيست
الصاروخ
الباكي
لجمال
العبوس
مريض
##ﺩﻱ
انطم
للوسط
##غل
زلاتنا
لامراض
لبسك
الصحافه
💆🏻
تهواك
🇸🇦rolex
اناقة
لهجوم
طعمة
مخبتا
الوقاية
الاسراءquran
علانية
مبارايات
رزقناكم
المربي
ناصرا
[PAD]
وصفاتك
ⓜ➏اضافة
ورافع
تملك
وغيم
st
الملاحظات
السويس
الشتم
حاجز
وابعثه
بتزع
الازلي
جحود
معلقة
ارتبط
معاناتنا
##وهق
❤💭
##غبة
القرع
اشياينا
العروبة
خلونا
رغما
##😷😷
الهجري
عصره
##خيلها
##روعي
اقيموا
##لبيات
فمهما
تضر
جناحا
وفساد
كمثل
تدافع
وبحمده
ﺎلعمر
بوايقه
وبروح
عقلانية
نقاتل
اعمالهم
وساكت
السلمية
للمتصلين
ايعدكم
اليمنين
سباقا
بستر
الاهلي
##✿
ويسخرون
زد
الاستثنايي
kku
دبلة
😂🏃🏻
ويمن
بشره
ضعفت
craz
صفير
احلامه
##board
يعديها
جبرت
الهروب
مماته
زمننا
قايمة
اهن
المندسين
باقل
##▄▄✿
ومت
الهزيمه
دموي
الزاني
يتحالف
اتاخرت
معدنه
نواياه
هاتف
يعيده
وطالما
متق
متيما
باله
math
##دتش
ﺳﻌﺎﺩ
بداء
ويعافيه
بث
للمت
مطرود
امثله
يعلى
##افيك
ينحني
الفطر
##كم
وادفن
لتجهيز
##مد
##شدك
فلاته
##اعية
لبكى
وسحر
##ثيوبيا
للندم
يعتزل
المعطيات
فالسعودية
توبوا
الدعوات
الغبنه
اريدك
النغم
##ﺮﻳﻖ
##ظومة
الساهر
الختامية
ويجيني
لل
يفشلون
مركزية
السكون
بحرق
bama
القبطان
چه
طبيعتها
واردوغان
الصدفه
##بييه
حربنا
معادن
العنف
العراق
تحفز
بوو
جرس
فاين
عقولها
تحص
الابنودي
ننتظرها
المساهمين
##طيع
لاننا
##ختصر
قدس
خبي
تقديس
عس
كوبونات
وتغيرت
عسب
دعاء
يضاعف
العالميين
هوامير
مابعد
طاعتكم
##يص
النزهة
لاتحجب
تذكرك
ويقيم
للمث
تنسين
##ﻬﻤﺎ
لحسابات
يخالفك
##اميرات
يسالونك
##امنه
يعتق
اتحمس
يتملك
العقبات
بالتع
تستحقها
بدهن
##طيهم
كتبهم
البت
للاحلام
##لثم
مايوقف
عروسه
##less
خدرها
ﺣﻘ
##رجى
عملي
صحايفنا
27500
موالي
مطابخ
خواطر11
بنود
واعوانه
بيعدي
##ودين
##تنظيف
المسرات
ومكروبا
الاحترافي
ٱم
هتقولي
الاهلاوي
التعود
فيصيب
وسعادتي
تنشرح
بمجتمعنا
الماضون
91
اده
##باء
انتصرنا
اتخلق
بثي
يزيده
واجهه
عر
حسبى
نہی
تحسبون
##ذاكر
بالعودة
بالاوجاع
الخلفي
بالطايرات
تايمز
اللذان
##وارع
ﺕ
##نوعة
وقتنا
لالتقاط
مثالية
عاقله
لتعطي
##خر
الرسميه
ليدنو
mohamed
وللس
لاتهتم
اثي
تخالف
##43
المميزات
ولهو
شاهدنا
فس
بالاخص
بالولايات
السوريون
راى
##اصة
##ﻮﺍﻟ
نقه
وضيعت
بطبيعتها
خفاف
فبلغ
💎💦╭⇠
ديبورتي
##thing
وارش
داعمة
بحضني
يمثلون
طمعان
##يار
ورونا
##راهم
##ملوا
اشوفه
##عارض
😥
مستوصف
##ديس
التخيل
airport
بيعيد
##عز
الساعي
##زلهم
الفندقية
يحفظ
ممسكا
الابجدية
زبر
يضحكك
ياجدع
شفايف
بيرفع
النجمه
يلدوا
نحمد
ملحوظة
الوحشة
استايل
للحوار
عنوة
للترند
1987
اخلا
منعما
ودول
##فادي
رضاها
بقولهم
تشوف
اتية
##وجود
زجرة
جميعاا
الحكومه
فجريه
بشرب
##اام
نوصل
الزنتان
##اويني
تثمر
##علت
استمروا
##❄
ترتيبها
ينتظر
##حميك
والخسارة
##جلد
##واق
چار
✔رتويت
الصحه
فاتاه
لابد
ساقف
زوجية
نواياهم
ناو
شاغر
سياسى
فالطريق
ﻓﺘ
ياسيدتي
سلاطين
ونش
رفعته
بالملا
تطرق
هجمة
social
##روحات
الانوث
وياحظ
وفرجك
مصلي
ﺗﻠ
بيدنا
##راضي
٢٢٠
اذكروني
الباك
يحذر
تنوي
المواويل
للفساد
ومراكز
مغفل
وبابا
فاستمع
بسيب
ابوداود
معمر
##يعان
وتستاهل
يخي
تستر
ويرت
تدني
قبرا
واستف
بقلبها
جامعيات
##ds
وتعاهد
اخرج
لمعالي
##سبين
يجيبلي
١٩٨
الماما
يستقدمون
خريجين
الاكيد
##ووس
سرو
نيلسون
الويكند
اهبط
##وصلش
وشهبا
لروما
تقربه
مقولات
بالية
ﺃﻣﺮ
##ﻌﻠﻢ
طالبا
نواس
##انيو
الروايه
✔🅱➋ريتويت
البريميرليغ
##لوقية
هذاال
سيحل
الالية
##قولة
اوحى
mer
اﻵن
العاشقين
والعافية
انتخبت
للصورة
##اخ
مفخخة
##ino
المزيف
فارما
بشوش
بركة
خلصي
كيفك
┊┊🌹
ويصرف
بدار
وبركاتك
اشوفها
وتفضل
##نون
##ue
عدالة
خضرا
فرشاة
نصيبهم
ولايات
منتهيه
واقترب
لاتض
##ie
استقلالية
عز
جاكسون
وجعه
وقفتكم
للتعاون
الاوليه
افندي
وقمة
وعافه
الويندوز
واخلاقي
الاوصاف
وننتظر
عبثا
##den
##وق
تنمر
لكونه
بالاحمر
##سام
##جبه
بصدري
صارو
واد
ويبت
وقيامه
شفاءك
del
ﺂللي
اتكلموا
والروا
افيقوا
ورش
خميسكم
friday
وجبة
##صالح
والحقوق
الرقة
رايها
الكبسه
للاشتراك
تاجي
بالعرب
توضع
ملمسها
بالم
يااس
نسمه
سهرانه
جابت
حليما
وتنتهي
الملامح
اظبط
البعيد
لمرحله
الاعتداء
ذلي
##احلى
##جاجا
بحجم
khal
##اعتقد
##unes
نخرج
وكلمة
رس
يستغيثون
هيبتك
باختاكور
##راج
##وحد
##متني
احدثكم
قطبي
🔴للمتواجدين
##ميلح
must
حيره
بعشر
فديتك
ابصارنا
خلطات
لاولا
العرص
##ينك
مثله
##عوذ
تنطبق
##جعو
تداع
بتجيلي
الرصد
##جاع
ويطرد
ندور
ان
الترفيهي
الشطر
ﻋﻴﻦ
افانت
والمنا
العقرب
مليشيات
وزاده
national
اعدام
الاحتجاج
ببط
##وسط
وامته
العبدلي
اشم
لبط
الموتمر
🇲🇦
مضاربه
صدقنى
ضاحية
جاريه
حمدى
انبساط
##عصب
##جاد
##لمش
نظامي
بحكمه
والقسوة
طوط
الاختراعات
فخر
هويته
مۆ
##يزانه
فقدان
تظن
تعتبره
##القنا
بتقولها
خيبة
##فتها
يمنح
جماال
اداره
الغلو
##love
ياوجد
ﻣﺠ
الاختصاص
تبه
قصاص
رغبه
اصفر
##pa
اظهرت
لمريض
العشرة
والموت
لقلوبكم
تجيبين
النهاية
يحزنون
الظاهره
الجود
##بكى
ال١٠٠
وكيلكم
##عشان
ايات
اخبارية
تنسا
استعم
##line
ويستفيد
النزيه
قضايي
💚
ﺣﺎﻟﻚ
بيرنابيو
مااك
للعالمية
نستحق
الجان
##جيله
يمل
ارضاني
اغتال
فاص
للزوج
تصبر
فهمه
مسامعي
##ولتنا
وروع
##عجلون
واطف
وحصن
المرير
ضعنا
قعدة
مجافاة
دنيتي
لحم
وكانو
مااس
##اتن
اجازة
##ken
للطعام
ورزقنيه
المجرمة
الخطط
east
##غلب
يبهت
ماعملت
قسريا
حاكموا
كفيلة
wifi
بجنود
النبوى
الشووق
الانات
الموالي
##اجز
حضرتك
واسعدت
الوقفات
تهاوت
بليا
والناس
تسعد
قرون
بيرفكت
لدوا
مزاجه
موضح
المحص
توز
اشبه
الداخلي
##elw
والسوال
بيحل
بالص
دعوني
♥♡
وتصد
بغاز
اسٺغفر
🌹💐
عاني
##باه
والساعة
بالمس
👦🏻
ادعوا
مايرضيك
##عوف
🎩
صبره
واخطر
اصابع
❤🙏🏻
فوجي
##وفات
##ھے
##وننا
للدراجات
ابهج
الواو
وينتقم
##💜✨
يبيت
ماتزعل
##جعلكم
ياهلالي
رادع
ناشر
##اتين
ahmed
##برير
ببلاء
نسيتها
قياما
رانيا
والصف
قلتي
المحاكم
يعط
وارقد
الميتين
ﺗﺣ
زايف
لحقيقة
فما
المباشرة
وهيبة
##aper
💎💦💖استغفر
الضعوف
الاوفر
عقله
##شمه
تطمين
عاين
ⓜ④
فالحب
لتحليل
##غفلني
المذلة
بھی
لاشقاينا
##❤✨
ودة
##اقبك
سحبت
اسهى
يصع
والضمير
وتسقط
سرب
تفكروا
جبته
تتعرض
تفوت
النيك
قهوه
ديكور
شين
##خور
يستحقني
الكريمه
الاعتزال
منو
lg
twitter
##زيوني
امح
lear
يااق
##الحمد
بالنوم
راكيت
ماجا
مبل
بتصحى
الروم
وقيمه
غلطاتي
ومدن
كيم
بالايفون
تفقه
نطهر
وليتني
الضما
المدربة
جلال
##📣
نطير
واكر
ياسيدي
بتصرفاته
للذ
##ارت
التوفيق
##بطب
##ورتي
وغفل
تلومه
ادلكم
يغتاب
الخرافات
##ذابة
##نوشي
وطبق
الثامنه
##عاث
الفرقة
القبر
الشرب
تخدعك
تک
التاكيد
بالمقابل
بمعناها
وتستمر
هلاليين
ويطلعون
رياء
مايدري
وقصر
تسبق
ااي
احرجه
ذگرگ
شكش
ايواا
سحبوا
تدريبات
تقشف
حبيباتي
فليكن
ياري
شعارها
يفجرون
عاار
تنثر
بنشجع
صراخ
رافعين
##22
تشوه
##٤٩
قرضه
المعبرة
الفرايض
وصورتك
الاولتراس
للمشت
is
يخليهم
##خاذلين
المواثيق
مايقلقني
واغننا
بتشبه
جزم
المعتوه
##طرش
الرمح
مقصرين
##ضحة
دولتك
الدنس
العينين
##ادق
انفصل
الاعدادية
##سك
نحول
##اهدا
زمان
لقمة
تموين
العبث
بمين
نبتة
##لموا
خيرهہ
افا
بيض
dh
الحك
مسكنا
ذكرياتي
الاباح
##صنعت
بانفجار
ومعام
##🇩🇪
ماتست
الكويتي
جريح
وظيفته
فرفعته
الجوده
هيدا
لدراسة
مخاطبة
رديف
ولاتاخذني
نوي
مادامك
وداري
رجى
القضاء
الحزينه
عندها
للسلطان
بكده
يزعجني
ميار
التب
امدح
يتفر
##نر
تلتهم
##وفوا
##يستحق
ماترحم
الريش
خاتم
الڤي
عشيرة
محروق
ومابت
صاحت
##ابخ
فامسيني
moh
مصاعب
افطرت
حصة
نحبها
قاس
ننساه
##ميص
افسر
تبالغ
ادعهن
ليصدق
للزمن
المبني
##فكير
ستانلي
كلما
سول
نفوسهم
😔💔
غفرته
حيث
اللق
نستغني
للمخت
هنروح
بالنظر
والش
باذنك
للعشق
نزوح
وقتها
مسارات
##غيوم
لقنوات
##وة
خطوات
نخضع
الوج
والفقر
جديرة
الشتي
posted
اسعدوني
ولايق
alf
كيليني
##تهون
واخشى
انحط
العت
word
انكشف
وسيله
عونا
بالبحر
##gon
فرت
دکھ
وتركيب
واجبي
##عتا
وماحصل
بالسلامه
معروفة
بني
عدوك
ويحبني
لغفرت
اقزام
داری
بالمعوذات
الصماد
بضبط
طيبتي
والاحداث
انشقاق
سماجه
مباحثات
تفس
##سي
نعود
وصولك
جنسية
ابعدو
ياهلا
يورغن
##ريدي
●الا
مثقل
شامخ
ورحم
الوسط
تزعم
هجوما
ونتجاهل
مطل
ۆان
المثبتة
ﺗﻮ
بداخلهم
تفي
وتشتكي
احساسنا
مضاد
ركع
ﺗﺸﻌﺮ
العملي
ناموس
فوزان
اطاعني
##😂
وتوفى
هيروح
هالح
ضمد
يفقه
##لھہ
يدعك
وتسعين
الشاهدين
ينتحر
##occo
##وتنا
وضحك
بوب
موتهم
للجدل
توح
والحاضر
والشوون
بعاي
ذالك
وصوت
خبيرا
##تناك
زي
وينطق
##دير
ارهقه
تعيشه
ابوعبدالله
جوه
ﺳﺒ
صحت
##كروبا
الغافرين
الهالك
ويو
قيادية
المنامة
ماغرد
وصغير
ومعنويا
هيفضل
دهاليز
ميزانية
عايلية
وليفي
يبتغ
تفاخر
وهكذا
الفلفل
اختارها
وحفظه
لمتابعي
لايطاليا
استبرق
قرات
##دونالدز
مواخذة
##ﻴﻔ
الجنايي
تصنيع
بمشكلة
ﺿﺤﻜ
ومقدر
##para
صهيون
اغتي
صايد
قادما
لزوجها
التحايا
فديتكم
بحاجة
منحوت
تغرق
قطريين
اجعلوا
الالبان
ۈلا
وجريح
منعد
💔💭
##20
كيب
تسته
بالطيران
ياشاعرنا
بالرح
##ﺶ
وعلان
##سافر
تعيينه
بێ
تذل
##متك
☟
##ليه
##ﻮﻳ
##بب
الحديدي
علاقہ
لتسعد
كاسترو
كاخ
يغفرلك
الاهرام
وغبار
بمشيية
العارضة
مرتبط
مخلصا
بالخفى
##وفهم
الصحافي
جعلتني
بلند
متمردة
القرو
للمتزوج
وعليك
تعاقبني
تشيد
##🇬
سعوا
##ﻮﻟﺪ
مفاوضات
خسرتهم
تلاحظون
wine
ولذلك
##لظ
##ﻸ
وضا
بالانستغرام
جنابه
والوسط
تضايقت
لتصحيح
صممت
sl
مورينو
ودكتور
الفله
##فرقنا
##شله
صاحبتك
فاعبده
ارتخت
صرت
doaa
قمح
تبسط
##ستخدم
ليبين
##lace
هبطت
كقلب
حفا
78
اوكيه
خذا
وغضبك
##زانات
سفار
tah
##يركت
مالهوش
سعادهہ
مسوولي
ولدي
madeupword0001
ايريك
##خلها
##ليط
الخدامه
مرفوع
الاوضه
عالمنا
گلما
##لينا
مصدق
##˚
الامتياز
تخصك
المخلصة
للرجل
##خی
يرضيك
لمباراه
فبقلبه
باخد
عرفناه
##ې
ساعته
لامها
ﺃﺷ
منتخ
بالعهد
محبكم
بحنان
لعقلك
دريد
والرابعة
قدركم
يصحيني
ارقاب
cup
فسينفقونها
عاصر
المذكر
🇦🇪
ينقال
التون
عطف
ملياري
خلگ
دوي
بذ
تدفع
استقر
##asi
الضربه
يعترفون
مملكتنا
تفر
ينفخ
يخلونا
face
الصامت
اشك
وبماذا
الغرق
##اهرة
رحلتك
حاولت
ﻧﻓ
##تهج
منطقتك
ومهارات
قوس
الوثيقة
لسنا
عموري
المستديرة
ولاكن
بلاستيك
اطعام
اشتقنا
موسيقية
##ﻋﺪ
الخيالية
##⇣
##ساعة
##فرط
الحمى
تقويك
يعاب
تقسمه
كتابيه
السجين
يتوبوا
بتمديد
##صادف
الفنون
خربين
الاجراءات
##عوضش
ﺪ
##حمد
الديباج
افتتاحه
جواتك
##رامي
ستبكي
##زعلي
مطلع
😄😄
ايلاما
عيت
ستصل
##فتت
وبالفعل
وايفون
الاتقياء
الكنز
اضرك
تخونك
ملابسات
بالجي
روب
عاجز
شرورة
الجد
المتورطين
للهدف
ولاني
مهنية
اصطفى
جناته
يستغني
سيبدا
تكاد
فهذا
عاده
##اراتها
##ريمير
ترم
يتسلل
شخصك
تفلسف
##واخر
ضالا
الاسابيع
##⛈
التظاهرات
بعدسة
وعق
يهز
للسيا
##ﻤﺔ
السعادهه
طفلا
طبعاا
cal
typ
فقبل
وحنين
عقابها
تربوا
عاجله
تثير
الباقين
لاتاتي
##استغفرالله⭕
مصممة
زيارتنا
موبايلي
##جاز
احياها
امتد
##راميط
وعافيه
تقسى
صايمون
بالفديو
##oo
حقيقہ
يگتب
assaf
ندخل
العربيات
تطور
غيير
سنين
دعنا
ﻓﺮﺍ
تسليمه
يوفكون
وانف
يرحمنا
##تبت
ﺍﻟﻤﻮﺕ
لمتبرعين
حجازي
خصومك
عاليا
##ashion
ﺇﻟﻰ
ربيعه
سندوتش
تاريخكم
يسم
تبتلع
متواص
تعاملني
واندم
##روان
فيعطونك
مافاد
منع
طھر
الموديل
##فقدت
##🇪
ﺛ
اصوت
تكفيني
##عتني
بالداخل
مختبرات
تباهى
##ple
بنفسه
طفشنا
جبل
مشاريه
العارية
الحسكة
##اتھ
خريطة
موذن
تمويل
المية
للمياه
استغفرلله
>
والعفو
وكيلا
للرا
##وطن
جاتلي
مودرن
الكيم
##يرون
اوس
سراب
قدرته
ومتحم
الارتفاع
🎉🎊
القديمات
لنكفرن
##متة
surpr
خجولة
التجاري
بتوجيه
لاماكن
كلك
فشلها
يصدقك
اغسله
لنتفايل
احسنها
وشرح
الحو
يشاهد
ﺩﺁ
نجنا
بحيرة
برقر
##بنان
##رث
ﺃﻏ
بفض
والرقم
ياايها
##عوضك
والمنافسة
##قيه
عبيط
##بيلها
##جزات
واهجرهم
بحر
تضره
والصين
رباعية
لهولاء
مادخلت
عظيمه
اﻷول
باركت
سيلت
تساهل
الاحم
غنيت
ناسى
الحفرة
المنص
قسيس
##يلي
المنشن
٩٥
ماشي
الفت
🔃
##fp
رما
وعو
ينساني
ويجى
ظلك
وسماء
موصول
واخلاقه
مرس
##نين
ساعه
فقرر
تفاءل
ولهفة
وادى
مزم
عايزه
کرت
الشطي
للظ
##لوسات
الوسيم
##ميلا
الانتك
ليخ
##زاد
##بيانات
قمطر
##عتي
صدرگ
الخروجة
بالنتايج
حكينا
للبنات
يوص
تعاهدنا
اشهار
العوايق
##alah
ولتعلم
مسكنك
بحقوق
الطباع
##qa
تكره
بجمال
وعمرو
##☝🏼
ونازل
وسمو
واخرتك
غاف
وشفتك
الصم
الساح
پاس
تهتف
وصفتك
عنوانا
دكت
👄
لحقوق
محضرون
ينطرد
ننجح
وجهك
##ins
الجامعه
ابكيتني
طايفتان
قادتنا
حبييت
تيشرت
##زيع
فتجاوز
👇
عاصمه
منهج
الكواكب
بصله
المسار
للموت
فيكون
المهاي
سفرة
ويبتعد
##واطن
ماكانش
مريبة
الطازج
ذراعا
واغض
##🚒
ينتقل
ادعيله
##عااده
بنفسك
العلا
وتحط
##فلين
##261
وازريت
الاحداث
الحذف
ابوسعود
حرمها
قامت
طريف
##علينا
للاثاث
بتبيع
ستقوله
✵
توض
##الدا
بيدها
تاخد
##انيين
##ﺂﺀ
اشتقت
بير
للجسم
اصبح
لٱ
الفنانه
طلبنا
الشنيف
منسية
يستخدمه
وشرف
لعطايك
فعجز
الاتها
النايحة
وحكي
للاخبار
بالعزم
دبليو
ركعه
لتس
##تخر
فنسينا
المستهدف
##ديتكم
##جودة
طبعهم
بغرفة
بالمو
يغفرله
قلقه
واللغة
150
صرحا
لاكن
##ﺎﻟ
بشلل
سماوي
نصرت
##رين
بوعدك
ويرزقه
وبتحب
للتدريبات
تقضيه
##انات
اليامي
لعمرك
سيح
##عتها
##ايبة
خمرة
للمكفوفين
الاعباء
##ﺄﻝ
المسامح
موتاهم
نادر
يسكب
الخصوم
اتعالج
تعذبهم
للامير
المحاولات
دیں
ليضحكك
لثلاثة
بينج
##روفة
كبر
تزامن
##باطا
##غاة
الاهلاوية
تتفق
للمقاولات
لاتصنع
ارحمو
تلفت
بلنتيات
الفلبينية
تبكيني
الجزايرية
##حاف
منتخبات
الرماية
فتر
امعاء
يتراجع
الرياحي
##عضيد
ينكح
اعود
بمقر
وبعض
##لام
المرتبط
ﺎلش
##حباب
##0090
##اه
قريبي
##لادب
السيساوية
العجمي
احفظني
يخصه
ومرة
لافراد
##و9
تثقل
لصحيفة
بالتغ
واحترامه
نوم
فلازم
الكابتن
وابعد
سياسة
معينين
عدهم
تياسير
مانسيتك
وارض
متعبا
اسي
##طرنا
##جملها
البورصة
سيجري
هدبها
تستطيع
اختكم
##المج
كينج
بامر
ميوله
اجمعنا
##باقي
##للعب
تتفاعل
المشاركه
شقية
حماسي
pr
العاثر
بسياره
واحبها
تحبون
##🥰
هيبتها
بدلت
الاثيوبي
مخليني
روني
مبطنة
والقدر
يرقد
يصار
سطيف
##nd
عمرك
تتنزل
يتس
ممكنة
بالذهب
اناقه
جدو
ممرض
واصرخ
##يبها
##سوال
سيرته
لتحميل
والسيتي
تخرج
المهمومين
بنظر
واستكبروا
كتلك
كرامتهم
تقنيات
بالمجمعة
مافكر
نهجر
الخول
قهره
متالق
خصوص
واجمعنا
ranasamahateam
حاضرك
تنتقم
الكرماء
الايمن
بنطلع
صنعتها
برنامجا
غضبا
كلمہ
vers
سعر
واصبحنا
نغمض
ينجز
بلهفه
ولاتا
تهكر
وتتهم
كليات
الرزاق
مايسر
فاعتق
يحرقهم
##بطوا
##لاش
ستدخل
ﻋﻨ
يكوون
الاسراييلي
فليتذكر
وسيبك
👳
مشروعا
دجاج
نصحي
اذنا
مشلول
ملهوش
##ريبه
يخربون
المريخ
ﺭﺑﻨﺎ
##بحرين
الاسك
لاتمام
اكرمك
بالصف
للمناسبات
حاشد
وابشر
ونهارا
احساسى
ياكيف
يطلعلك
المبيعات
سيرفر
دعيته
تقصف
مريحه
stop
ظلم
مدر
الضبط
ez
درك
واذكروني
لبطولة
##56
رابحة
محجورا
المراد
يتحدثون
##يهہ
هيق
##ابير
والدين
المتوسط
##ﺛﺔ
فهي
##رقوا
الاهداب
منتحل
ﺷﺮ
تذكرين
ﮔﻞ
وجعلها
ﻣﻨﺬ
التمديد
##لm
##زوجها
روات
##لاع
بدايية
والامطار
الخفوق
تقدمها
5⃣
الدامي
عسكر
##2015
والاعمال
يسحق
ساجدة
الوكرة
الراحمين
وتدمع
١٩
##ختم
هكون
ﺭﺁ
والاحترام
##يدن
الصبح
market
والفتيات
بالمنطق
المحنه
##ياحي
##ذاكرة
البلك
الساند
##للي
٢٠١
وثقتك
كتبنا
النصيري
وتضحي
بالهوا
المتعلم
واهات
الجوا
مميز
نستاهل
بيانو
احبته
واطيب
رحمان
##رﺿ
الفترات
بملذاتنا
وذريتنا
وترحمنا
واحدة
##ﺧﻞ
كومي
##شيله
مكانتش
عزايكم
المنط
##وقه
ترات
يي
##اوس
وغفرانك
##وفية
ازاد
nour
امورا
لما
بالاهداف
محجوزة
##ستغفر
تجاهلك
امریک
مضرب
بالمبارك
شمس
سطورها
عزاه
##تبرا
يتبرا
غان
مريضهم
هتضيع
استرالية
الزميلة
##rones
رووح
امها
يتدبرون
##للس
يميني
##ilable
فاكرني
كوول
القيادي
التوقيع
بلندن
الاستقالة
ونجح
بالدين
الزاهد
##ولينج
الاضحى
when
المرشحين
وابتغ
والاش
الفط
الجيب
ﺗﻘ
بكيف
الثمان
الداخ
واشغل
##ilabenlachhab
ماتكلمت
##ھا
المحا
##تسويق
##رضة
بسداد
الحمدلله
تحطي
اشكروا
ذكروني
الشايع
فليدع
قديما
المطال
##الام
بيحلم
##شلونه
ياطير
مفرج
وترتيب
السلامه
عمكم
بهديه
تحمس
اسطح
وشموخ
♣
يغنى
نعي
##رايز
الحماد
😍💙💙
تعاسة
والحساب
مزرعة
ويحق
والمره
##ﯾن
تحض
##العربية
ضابط
سييرا
اصبت
رافا
يعمل
بريقها
بنية
يستوعبها
ريوس
##ubarak
للطريق
اد
متن
وحيل
ناروتو
العبيد
##ايبه
الاحفاد
مدهشة
##سهم
##هاب
مقاط
التخلي
فبكى
وشكر
المستن
ملكة
##ماله
وقفى
دٱ
ضحاياه
تخزين
نعليه
اعتذ
عاتق
سحيم
يسسعد
##🍫
وجن
كابي
شكرا
منتجع
##لوب
الكوري
الشمالي
الكيان
اولد
يتنزل
الامطار
يزاح
الكابي
تنسيق
احتواني
منازل
بيقل
##زمي
متحكمش
##اسد
فلبيني
##عوه
وتصلي
##جاوب
##ولات
القحص
شبيحة
##بيع
وهازم
تحرج
وجاوب
السفلى
بنض
عنيك
الشعلان
##💙
##صر
الان⚡
بيحس
هتزيد
##انى
وتدبر
تحشر
بالاهمال
من100
لفته
##لامح
##زلها
ونشهد
نفلسكم
الحار
قعدتي
وتلقاني
بالساق
##القي
يهونها
مودريتش
تله
مايقبل
ﺑﻞ
عوافي
تويتاتك
icc
فكيف
توهم
جيتم
اوراقك
سلاما
##واعش
مكانتنا
الاشكال
درهم
اختتمت
اهدافا
واخرجني
ولح
الكارثة
متفهم
ال؏
ヽ
طرط
تحجي
fran
##ular
الفسيخ
ناصح
المتعددة
##3r
##شيل
وبترجع
سيفعل
##جعت
كذه
لدوري
صبرها
allah
raphaeljabbour
ينزلون
المواصل
للمتواجدين⭕
هنجيب
ﺟﻤ
صير
ومحاربة
ويث
التقليدي
عتابك
يدركون
يحيل
بدقة
حزني
واحاسيس
##اريت
##ړ
ذخرا
الجزيل
اللغو
اعد
الفاول
والاستعداد
ﻳﻠ
لقايمة
شركة
عرسي
الفانز
اخلاقية
متجر
##ارخ
لتصل
صدقته
غيض
وعاملنا
سجدة
المهاد
صياغة
العاجز
مصعب
😂💃💃
مستانسه
حرا
اخطار
خويلد
غفلتك
فاستحق
تحلية
الجماهيرية
لناس
الب
بنلعب
تجنيد
المدارس
ﺎلله
انتكاسة
الصفوة
للعبة
ادركها
##صدقات
سموا
تسون
صلت
واوله
اهلية
بيقولوا
الونسو
اولسان
رفيقة
مجاملة
ستصبح
##وە
##😍😂
ببدء
لتدرك
وقعوا
جرام
تلهكم
يشفيه
بعدد
وبشار
##👥
##ﺪﺙ
##ondon
مجزي
نوته
تعول
حلب
بتسلم
انفولو
تخبرنا
خصر
محاولاتك
المفطر
##ama
لتويتر
ويشعرك
الفرات
فحافظ
المحضرين
##ory
دستورية
##ليك
يفعلوا
سقي
يذمك
##عافر
©
مدفونة
ينساك
بيدرو
محيط
بالملايين
##━━
##ff
نكدا
للنقاش
##لطم
##امين
✨💖
خروف
##sama
تعلو
والتوا
الظهور
😔✋
الماشي
خلقي
حراق
لاستخراج
المقسطين
تقسيط
جميلهہ
مرشحة
صرح
وماس
الجمع
بسمعها
##ﻀﻲ
سمين
بيتكلم
المشاك
منھم
خوف
كعابر
بوخريص
##عوى
##ظافة
مستقبلنا
##29
##ونص
لمبي
بريدة
##ﺮﻱ
مكلف
استطلاع
الاربعه
ضيعته
السباب
##فا
جامعية
زعلنا
ونسيان
##هودا
009705998816
تراخيص
اهاب
ادم
تفله
تبوظ
pink
تعلمت
ماشوفتش
قبلي
السلوك
ترت
معطل
بالسكري
للمواطنين
ذلكم
well
ضحايا
زيارة
يبكيني
سما
وقدوة
سالتك
بالله💛
والمثابرة
التيت
الخل
والله😂😂
تقاسم
الغريف
تخدع
والروس
فاضي
الحقران
اقتربت
والمياه
وقولت
ياعلم
الجرا
😓😓
لذاب
بسببهم
لغته
مكين
سيدخل
حامية
ويخلص
الهايم
مطولة
pro
مغربيه
##ليون
رحمها
احصايية
هرفي
ﻟہ
##اذة
العداوة
انجر
فرج
##غطي
بطولاتكم
الوكاله
الجبري
##😀
واغير
المعتقد
ثانوي
ويعطيها
صادرات
السينمايي
سخافة
##ﺮﻳﺔ
وبيض
قلت
اتخذ
يعرفوا
اعجبني
انتن
وحبهم
هيكلة
للاسلام
راجعت
##دونم
دخلتها
واوق
يذهبكم
بتقلي
هاض
سارع
والقرار
خليجي
copy🇸🇦
المشتبه
##نوك
##الحياة
اوي
شهدا
برونو
ولدكم
وحبيبك
##قرديه
نهايي
##ench
الدراسه
ثاير
جريت
تعين
يسطا
لاتلوم
استحاله
زرد
يضيفونك
واختم
##250
اخدم
وتاتيك
##ياذ
غيرهم
ساخبرك
شهداونا
وغيره
ﺍﻟﺒﻌ
##خافش
بشراء
وبتب
نتاج
السومة
اكسبو
اتحادي
المحترفين
تسبوا
تقومون
البشع
##كالات
يصفقون
دولنا
الاملايية
فزاع
اصحابي
علوية
ﺍﻟﻜ
حفظكم
المطروحه
فحول
غنو
##اباد
يشيله
انسان
١٤٣٨ه
المصد
ad
ساحاول
البرهان
بانها
##ويج
بسجل
بلاده
واعين
اعدايهم
المومن
تحفيزي
يوجه
ميونيخ
الروايي
ومحاولات
تشوفني
1800
وحكمه
لصاحبي
ويحتوي
تعظيم
الساحلية
ونسبه
مذاكره
احضنه
القاء
رييسي
الاحص
##وتوف
بتح
فعليه
واصطفاك
لشخصية
##ind
ومايح
جافة
##👼
رياديون
حوادث
عاهرة
باحترافية
##هہ
تتعمل
كانو
##رص
ثنايي
وتعاليت
يكل
والنبض
دلوع
مكتوبه
خله
صديقنا
والادعاء
التعليميه
٣٦٠
بيصرف
متظاهرين
تحايل
تعزز
توجهات
##atinum
##tor
##داقه
منفصلة
ﻟﺤﻈﺔ
اجابة
ٌ
استضعفوا
الابو
خالتها
يهواك
・
الموضة
قحط
ياط
##ضاش
لاصدار
القناص
ونبتسم
##فايل
اسمگ
اقرت
لمنزل
مبت
اﻟﻋ
للمعرفة
الذيب
و15
سورية
اعقاب
المحشش
مستد
الاوعية
بالعشره
وصدورا
мρ
للتنظيم
للتسويق
هيي
بوط
1985
ستظل
معبود
ينجيكم
واولهم
##ﭘ
كالعادة
وولا
مايستاهلون
تحته
موجهة
ويتجاهل
القادمة
نبيا
سادعو
ووجه
واصبر
وادر
عيالها
تخلون
حرمته
صيحات
تصف
حظى
ينكحها
وكتب
##غرب
تحاسبوا
لمباراة
الانجليز
السنافي
نو
توتوا
لبنا
گريم
🐝
مقضيها
للمخدرات
متقطع
بتتق
حكيها
ﻧﺤﺐ
سجنه
عودك
للاخلاق
المشت
عراقيون
white
موجلة
گت
##morning
وعارفين
يراهن
والشرف
کہا
يامس
وهبه
##ღ
المتعلقة
تربطني
واحاول
مصار
صيانه
والربع
##اصدقاء
القميص
هينفع
صفع
##لست
وسلاح
وراسك
ومثله
عتل
واطلب
بتزود
##ﻠﻬﻢ
الرغيف
بيشارك
الوهميه
وازلفت
قلل
لیکن
##ينيو
كرهك
🔲
##وسات
العنجري
##رسله
علي
وشعور
وزى
بيليه
خذيني
الرفيع
جدولي
##قه
##⌣˘
اييك
للاعلاميين
##قك
المزاح
والم
##بكاء
##مارات
وليعلم
شكله
ضيقك
القفص
الجواب
ودقة
##ٺه
المري
منحك
وط
##نعك
##نگ
امتي
اغلط
الاسماعيلية
التردي
ہے
ومبن
ﻟگ
الخليجين
عالش
ستق
ليغا
اخفاه
ﻭﺍﻧ
وجاهل
##طلت
mobile
حريقه
تدعي
المغري
زعلهم
حناني
لابسة
واحمد
ۆﺂ
تمنيته
بالسم
ديانة
منسيه
وبالقلب
هشاشة
##رافنا
تغض
الضروري
كعود
يفسق
تحسسك
##فاءات
مشاري
واعيه
قنوع
بالاتصال
لتحصل
وتزاحم
ويوذ
💁🏻
الافضلية
##ﺰﻝ
ونقل
##روو
فالناس
تتفتح
##فضي
##يسر
##ضلها
مبن
وعقد
وجما
فتقبله
افراز
طبيب
يتحقق
وادي
باقه
##وركس
بكاس
##ذوب
رمزيات
حاجتك
وقالو
بتحصلي
للذكر
بدين
٢٠٠١
##عوضة
منحني
تمثلنا
السفاح
الباقيه
وشفاء
##طاه
وذوقك
##توس
ليقدم
##سوبي
حقنة
🚀🚀
احترمت
يخسر
شفت
سلوان
طيبة
ومنهج
الطاولة
يمرني
منتقمون
وارجع
لدعواتنا
##ph
والمعاصي
##سله
تهلك
لايعجزونك
الادنى
##ﻠﻤﻮﻥ
اسرافيل
جااي
وكلاهما
برياني
كفاكم
للمساهمة
والانصاف
ملهم
##شي
ﮔ
ولكل
##عيده
هندية
##ورما
المجوسي
نظراتها
الرام
##لويات
eli
المحبين
برده
اعثر
ياتي
اوال
ضرايب
##ikh
ثرثرة
غی
##قالات
عشق
لجدتي
والفجر
الشعري
سرمدي
يتنفض
۰
ظروفه
قلتوا
تفرحوا
دوركم
للبصر
بلقاسم
زولك
overthinking
قرطاج
##لاند
والعام
##🐝
does
بالعوض
الاقرب
هالد
##زيته
##وامر
ارتحت
الخراز
ملكنا
وكشف
##رافيكس
فرخ
لاتع
اطب
بورقيبة
للحصول
للزعل
شمات
للحكي
زمهريرا
شبعت
هيقولوا
والمركز
بالطلاق
نطمين
الاناقة
##نار
يتصد
##والم
ومبرووك
##لاندا
👰
التكفيريين
نزلته
##تحل
تتاكد
تلام
المقيمين
كوش
##ميش
يذيقك
كونتي
##´
شلته
واسعد
الكاتبة
اخبث
المشانق
بحياتنا
عيشه
عيونكك
##ﻠﺐ
ويقدر
بمجمع
ماعمر
##نعني
اصلاح
##علمون
فاب
netflix
لاخطاء
فجاءة
نسل
مبنعرفش
متحسف
نباته
✨⭕➍
لصفوف
سامر
مملة
بيرن
قلتها
وشجاع
جف
يرفضون
معرفش
المتص
وجدها
للبر
يستس
##😑
مناحي
صوركم
##ians
للفايزين
نوى
##اضرة
مثبت
##ﻀ
وتزعل
الادلة
بفرع
ضغطت
##😃😃
موث
ass
##اسيوم
##ليس
كمي
تدمن
اسامينا
فيہ
البلاغات
الشور
حيكون
للشهداء
عزلة
يتفرج
موج
منبعها
والغباء
يدخلني
سامسونغ
نباح
موود
عملناها
ويطمن
للتضحية
هجيب
المناكير
انفعال
┊┊⇣
وللجميع
ولقيتك
وظروفك
مسمى
عبسي
ديارك
الحاس
بكفك
##und
قبالك
تبسم
الفاي
##ستغرام
##حاد
ورايق
##ullah
##arl
يستبعد
الموقت
الخرافي
مشتريات
التحلي
بالهبل
ملاكا
حماقة
يلبس
##لمات
ياعميد
##زج
##ig
داروين
فتندم
هدر
##خلش
فارغب
الزام
سفارة
##ﺎﻳﺎ
يهرم
ينتظركم
يتوقف
##⬇
فراغك
##سوه
عيا
بطنك
صعده
اقضيها
epis
⁉
والاخوة
مايفهم
وشتم
والتفاهم
البصر
السجان
التعابير
ولياليه
جدك
والعيب
مافيش
##سباني
تحتريك
ليضلوا
التستر
بدنياي
ونفسيا
واصعب
##✋🏻
وبيس
والطمانينه
فيمكن
حدهم
تعديها
ﺎلف
قسيمة
رسول
ابتدت
##ياكة
جليس
هاتو
ضاعف
مدخن
وحز
صاير
ادينا
استنز
بالغيرة
بفتره
والاهتمام
للبرازيل
ملابسك
جريء
##ﻤﻚ
200k
ناقش
المحمدية
حريات
سجينا
ﺗﻔﺎ
١٨
مورنينج
يشتريها
وجمعه
##ﻮﻓ
بقلك
ايران
◄
امين
ابعتذر
ياصباح
للدعوات
يتباهى
تعشقني
للدموع
##نيتك
##فاعل
##غطية
خطاياي
منيته
العيناوي
عالى
بذمتي
ومرضا
##resse
نمي
العزيمه
diarioafc
##وانس
ﻃﺎﻟ
عصبت
وجھك
##زلة
##ﺂﺋ
المعطي
##ﻟا
كاملا
مخطي
اسمعك
ولبي
##سامحك
للانضمام
ارتدت
بالاسف
مير
شوكت
##قابض
مسلمي
وصبرا
بالمرصاد
##خطب
فيستجيب
والغش
العفش
##flix
##بدو
##ٱل
##♥
##انے
اجسادنا
يوميات
##اوب
##كك
العناية
👌🏾
بتكون
يطرب
##فقده
العريقة
لاحت
والفرس
قصص
معايه
ينقي
بتشيل
الرويس
التفجير
برلمانية
ولاتم
متحضر
37
الاجزاء
مشغل
ونحلم
شاركك
توجهها
ديرو
##صدره
للشعب
##يميا
➍فولو
للازرق
والور
العالميه
والقت
##وعه
##ساا
##wi
muslim
##600
افوض
وسطا
وغصة
##وليت
اعاده
واللب
ومافيها
تكملة
لشركات
ويمضي
دندن
ييسر
وجهگ
الاعراف
لصغار
لتنال
اا
والط
فاشهد
عوام
حجابها
صادمة
ياسطي
فضفضه
صغ
الحذاء
وبان
انتصروا
وشربت
##الوا
للكبير
الاعلام
لصدري
يجر
يكملوا
بغت
سعيه
غرناطه
الفيصلي
اغسطس
وذهاب
شخبارك
##iri
##👇🏼
زيدان
تيجان
الحكومية
الصديقات
##ﺠﻞ
حرامي
تبكون
باسر
نهايتك
وكشفت
فكتب
احفظ
دفى
😏
سكنية
##istry
استهبل
كلاسيكو
زيارته
##امع
انطباع
nou
بالدولة
##بتعد
بۆ
معناته
احتفالا
ودمار
واخرى
تفتتح
يلح
اختبارات
رباك
المزروع
ودما
ياشيخة
وادخ
فبه
الوصية
تسند
اصلن
ﺳﺒﺤ
الانوثة
واطل
لحب
النه
عبدالجواد
تريقة
نسبة
وشها
امسكوا
اﻟدنيا
كتبي
مايدخل
الراوند
روزفلت
##باغ
##😁
رگ
شاركت
للباح
جوري
الجسمي
نبضها
##ريل
oct
اسبابي
وعافيتك
منوم
##ظل
ومسهلا
النفاق
اخواتي
درى
اثنتين
##صرفات
خوفتني
cour
فحم
يافلان
العالمى
بالتواصل
احسسن
مايطمن
socialmedianight
تحفظها
بيح
٨٢
صاروخ
واشراف
##جراني
عالفيس
يتلقى
المراق
احطها
الثمن
ينتمي
حفظي
hos
بصمت
لغيرهم
##وفاء
بغريب
bama2016platinumedition
فقالوا
فهد
بقالة
هيبعد
الموبقات
##ﻴﺢ
كربنا
شوه
مامضى
اقذف
##اخت
##لميذ
الباطنية
تنسوه
مدارسنا
الدك
الفارو
ثغرة
اوتو
يتزوج
##ثه
وجد
النعناع
دجاجه
باظ
هذان
والحكومه
ابداء
ياحبيبي
تلقايي
للتواصل
القروني
##راب
للتامين
##يفي
افتراضية
لمصلحتك
يطبل
مره
معايش
نتقرب
كرمالك
##قدمه
زنى
يدفعها
##ونيس
##لوبة
وفرق
ابليس
نصايح
طبعت
قايده
للموسسات
ومف
مطرنا
خاصيه
خواف
لحكومة
علق
المقص
🐸
تخبي
##ب
وداخل
حلاتك
بالاصلاح
توديني
##لسى
ويظهر
بلوناهم
##ھم
يطهر
تخس
bank
قديمه
وامنها
سموك
نہ
بحريني
محفل
القرط
يا
تسكنين
##ﻮﺭﻩ
##وازن
عروقه
النظارات
الفاضى
ورود
🎤
ويبحث
##ل؏
##واحش
مشرفا
##ﺒﻴ
مشتري
رسمت
وتحرك
مالطا
ﺃﻧﺎ
قريه
براحتي
##شلونة
توفقني
المواطنيين
نخطي
هالجمله
لاث
يكبرون
الموازين
بشمهندس
لاخوانهم
اللجنه
##نبسط
اعبر
واجهت
الشيخة
مقس
sr
وفيت
استعجل
ويشيل
متكدرا
much
ثا
يوريني
الافك
تفتر
متروك
##سيكو
بمتابعتكم
المطبخ
شهب
ودمعة
الطاقيه
وبيكون
ازعاجك
خا
##قيقية
تضمه
##ظمها
ماخسر
غردي
حلايب
102
صفا
الجهة
مواقيت
وتكسر
بالعق
والامت
الشركاء
غات
دراسية
saadlam
الشعراء
انحنا
مخلد
مخص
ضاضا
لدقايق
دعاوي
الا
##رانا
##الفات
شره
نجاحهم
##💕✨
دونغ
نايت
وعلاء
##وغان
برييس
مطية
افواه
لذه
باطن
اقدامنا
وبسمة
10سنوات
##ليمون
حافظين
ضامنين
حدايق
كوكب
##ﺜ
شتوية
ﻛﻠﻤﺔ
بلير
سايق
مدربهم
ويرزق
ﺍﻟﺨﻴﺮ
التانية
التلفزيون
رهيف
والداه
يبرا
البقدونس
ﮨ
الباجي
##🌼
بالفحشاء
رغبتي
##لاينر
##35
اللحيه
بعطر
غلاگ
##وصخ
قصير
##كرياات
ستتحول
استغناء
صفر
لنحيي
##واره
##وسسات
##♨
كالشمس
الكيوت
انزال
لبلده
رماني
معااه
نسيان
صور
بالوقوف
المديفر
البلاي
منة
مرحوم
الاجسام
يقدرها
مصراتة
التظاهر
متطرف
محرج
##طاها
تران
قفله
تبريه
##ourahla
تخطط
تشتعل
وعيناك
يحاضر
هنعوض
ملييه
الدويش
هيفتح
تعاقد
##ضاء
تعمله
نستطيع
يگ
المفضلة
بنصره
##غلت
كافت
بطيخ
رفاهية
كافية
تصويري
اروقة
وفهمت
▬
غيرت
انغامي
يوي
بهالكون
افتحه
طرطوس
كالورد
عتاب
يدعوه
اجنبى
يحتويك
اقلام
اراكم
##٣
زمرة
😗
لقياه
وعندك
🎁
محافظات
ونفوسنا
تنفذون
مرباط
##➊فرصتك
لقلوبنا
والدكتور
كوم
عليہ
الاستغراب
##ﻱ
برين
كايو
##شف
بھا
قاض
شه
شانت
ابيب
الوهمي
##ٹس
ينقض
ويسكنه
الدستوريه
خريج
لله💙
ويحي
والقضية
ولاحول
##قولون
بيار
ﻳﻤ
الصقري
ثلاثاء
اعيش
ثوانى
وسويت
##░l░l
للعديد
وتيم
يبل
تهاني
##غفرتك
قتي
واست
##💔
جاك
##ﻠﻂ
ﻫﺘ
تكبيرات
وبرج
فيتامينات
private
##ماهير
ء
مابغيت
##ترون
##کار
##بطك
الصيادلة
por
بينك
معركه
السلبيين
المنفى
وماتت
الاستشارات
gn
لايتغير
افلح
##دول
add
مصرح
كسل
المسم
يلهمك
كاز
مااروع
تخلف
مشاعرهم
وتاخر
##ستون
ستموت
اباءنا
للمرء
غزلان
##زهقش
تقليدي
يديمها
370
##يكم
اصرار
ﺡ
وجيب
##خاري
والثلاثاء
منجوك
##لعن
الحمامات
عيشتي
ذكرتك
الفحيحيل
تفضيلا
الندامة
بتجيب
الفرنسي
##عناع
سهولة
بتسكت
مصاد
بالتغريد
هنزل
هدف
🍀
##اهي
##وال
اجترحوا
محيطك
حيلة
الفيصل
اخجل
ماليا
شافي
صوموا
مطالبه
ويقولوا
##للات
مضايا
الصحراء
احتواها
احتاجها
المبدع
طولا
بالغباء
اضاءة
يهرج
ميدي
لاتضيق
نزاهة
وصولا
الكلاام
الكوميديا
جفوني
ابونا
##ستو
والمحبة
اطلاق
تعدون
الشقيري
رجوعه
عنواني
بتتك
الجوه
اعتذارك
لبعضنا
لامبارد
لصالحها
##اهلة
mbc
اوتر
المعرفية
##قابلهم
الخدري
مدحك
انوم
##الذي
وطالع
##سمح
انفض
يالامير
ويعذب
##aking
والمستغفرين
الرية
##اث
تت
خديجة
بجاز
المعبود
##ian
هاليومين
زوجه
لشخصيات
اسكرين
انطفى
بامراض
عودوا
فلسطيني
##ميرات
انتزع
للقتال
فاغفر
مكسيكي
##ﺮﺩ
تغريداتي
ﺃﻧﺖ
مصابا
بالغ
alb
تات
وهتبقي
##ٹ
بمديرية
الحشاش
االا
وظلم
ﺷﻬ
سوايا
المهنيين
ومزوح
وتعطيه
فرجا
اقواما
ويقل
صدقة
##مونت
##نافس
واقبح
th
##54
##ندی
النافلة
احببتم
خبث
رويت
عايزينك
الكذبه
##ﻨﺂ
سنس
رحيق
فغفرلي
##ﺴﺎ
واحاذر
وفاطمة
يلي
اعزمك
لابو
والمعارض
كنفاني
تمار
وتوفيقي
بالشبشب
زيارتهم
رجاينا
والفواد
##لونيا
##ﻣﻲ
سموم
واستلم
ببطي
الاكرم
المخدرات
بيكر
كايرو
كرم
تدوس
احضروا
لمدى
##ميدالية
مكرك
ذراعي
يطالبون
moham
##row
ﺻﺑ
شرايين
جنانه
الكريس
بانجاز
شبة
متبقي
##ولون
خيارك
الحاكمين
تواق
باللغو
وسريعة
يكفيك
whatsapp
اداوم
الصدارة
##حمدي
##امحة
##ape
متعصبة
حرج
قضايه
ريتوي
علب
ﻧ
##طقة
gazaunderattack
كلت
الالكترونيه
معايدة
شقاق
الطايره
لرع
مجاعة
رضاه
هروج
منبوذ
وبابك
##فرحوا
برنام
ماقلتلك
دروس
بثورة
بلقايك
فلوسها
صدور
الكوم
##سيكي
دافي
inter
بلاتر
اكذوبة
التوعوية
رفاعي
atm
ماثر
مستمرة
##اعہ
##تام
##ليل
متفتح
العبيدي
يمحون
غرابيل
نقدية
ومير
ثقي
تخرس
ذريتي
بيرث
رحلتي
😜
ويساعدنا
##يقن
عفاف
اشمعنا
الاسات
مرتو
فخورون
##ﻧﻲ
##عين
تهانينا
##تانو
المجموعات
والرجل
الاجابه
تنباس
حصي
يعملوا
بتريح
خارجة
نطعمكم
ⓜ➐
ipad
وتحبني
الثا
منض
لبغوا
##🧐
الكايدين
بيشتموا
ونحن
تفايل
والشف
استشهاد
الصليبي
وتطبيقات
بالشباب
التوبي
##سيقى
بلل
تعزي
عقلها
##طايرات
##اضيفك
الفري
ناديكم
عكسه
الاستعانة
الاسيله
بلغوا
يظهرون
والاكل
الخلاي
اجرنا
يرتكبون
صوفيا
وبريطانيا
بيتش
فاني
واشترى
السلطة
مجاش
##بيا
التسبيح
بتقولو
الاوض
ضعت
فناان
صاملين
احاط
هولندي
بفرج
بالنعيم
حلمي
مشا
تخلصوا
وبرك
##خلا
والتص
فورد
حدودنا
بالساهل
مبكي
يقدر
##الطات
##رايط
للط
للمباراة
##تكم
ريبة
لمستواه
ضيقتي
يشت
التنك
تحولت
والثمرات
ساخرة
يام
خطوة
وفقها
##rt
☹❤
##حطات
سيغفر
عافيہ
البورد
ينبت
غلطتي
استثمارات
تعري
يوخر
للحزب
واتفق
جراند
ucl
تهيا
مربى
السلع
##فسح
منطقة
الجنازة
لتنام
##عك
ليشعر
برحمتگ
الوافي
وبني
١٨٠
علمتم
صدمات
ماقضيت
ويحل
##اشق
خايفة
بشوون
وفلسطين
يااربي
الاستشارية
تفا
بردو
وحليب
##💎
ٱحد
براءة
سعوديون
يحاكي
الملاهي
مج
وفشلت
جرحتك
يلوم
تذرني
لز
النبيﷺ
اللقافه
مضايق
محب
ويختم
ساعدك
##رتنا
💪❤
##واله
نناشد
طنطا
يدمران
##ل30
المخطوفين
يشتاق
ماروح
ابناءهم
اكلتك
يتفهم
قواما
مابقى
انزلها
محتاجها
حضوركم
امريكا
##ستغ
تحتاج
تحتاجين
الابا
٭
غا
مستقلة
مركزه
استفد
بوكيل
بوينت
##tra
جالسا
لحكمة
حكايات
governorate
##شاكل
خذوني
ﻭﺷ
##ﻮﻙ
والنوم
مذهل
##راعي
##سامہ
بالسناب
افكار
بمفازتهم
السييه
##🇸🇦💚
المقابله
ريحت
ماينفعك
طوى
👆🏻
واكسب
ساكنة
دعم
تضوي
وحلو
تربع
كالكلب
واشنطن
تاسع
عوالم
الطلبات
فتوقع
ياك
ويمدهم
##😧
غبتي
المربر
بامك
جده
الشموس
du
بغيرك
بغافل
السلام
يحسبه
وانصت
البرمجة
لزاما
انظلم
کیليے
بالرسالة
ورابع
##🙄🙄
ننساها
##h
رددو
يحقر
اجامل
ابس
اوجعنا
غيرگ
وضمني
ويحفظوا
وبينك
وبور
التطنيش
سان
عندما
نهايتي
##♈
كرك
اهديها
##يجي
ووالدينا
##ذكرك
يناسبه
مستعده
##للذ
ذمم
والشموخ
قابلوك
عاداهم
خلقني
دفاعنا
🔴عاجل
nik
تمنعوا
ﻣﺮﺓ
حديثة
نشطة
##alla
احتاجك
ارزقنى
والحقني
ات
ماتخلص
واحزان
##لكون
لقياك
لايحق
يعجبني
مغرده
اختارت
##متابع
الاترجة
جاين
رييسية
##قدمين
مركزا
حرثه
##😔❤
يتوافق
الايجا
##يمر
بعوده
مشوه
رزقتنا
خص
##قتها
اتع
الشهي
يرضيه
##رجاع
مشيته
الاستاذة
الولد
##اشات
فتميرات
نقضي
##✌🏼
خاف
وبادر
وطير
توفيت
والبرت
للدرجه
##ﻤﺂ
عاهره
لاتريد
فيسات
يعاود
وصال
بيان
تفتخر
##😍💙
الغاشية
##📢
تحتجز
حالته
##فضه
##كين
واسكنك
طاعتگ
ياحبيب
كرست
فراشه
ﻣﺮ
العشره
وتشهد
والشرعية
يتصور
ازيك
يشككون
وبمحمدا
دخلهم
##abujoda
حساباتنا
##ويرس
لتبقى
نفى
##🎨
تخبروا
اندية
شفرة
يجرون
ليهم
انبيكم
النجس
حملتنا
حاجہ
##رداد
الانظمة
والمشكلة
نروح
وتجيك
##ﺎﺕ
m7
##ady
صبرهم
تحقيقها
##يونيو
يوفون
تدخ
خاصية
انكم
وتوافق
╭━
الدويله
صدوف
iphone7
##ردين
##86
تويتة
وكلامي
وخل
وذنوبي
عسسل
كابيلو
وتعيش
┓━━
لمصر
تعانيه
حطو
socialmed
##شوت
اهلاويه
منحبك
مداهمة
كمه
وضحكتك
لجماهير
##زران
ياقلب
بنغازي
برخص
المعيب
واعتز
🌿
لاتستغرب
##رعات
عزمنا
ويتنا
فويس
وخاتمتي
تستقر
كذابة
والمشركين
رومانس
واصدق
فخرج
##حيز
وانتهى
رفح
##وليد
لزراعة
استهدي
اذقني
##مينان
##اشن
ماطلعت
الروسية
##ﻴﻼ
مجدي
للضر
درسته
سمحوا
تحصد
##اهري
وحشر
يرمون
نظامها
الحلي
فرنسيه
روحة
💔❤
كتابته
سكري
يخرجون
عقبال
##ريبة
الخطورة
##لتزام
##صلوا
##روبات
926
##خلو
بامكانهم
بالقسط
اعذرك
خذينا
notific
وبصراحة
جونا
ۆشگر
تجمعه
لتح
الحضور
صو
##ﻧﻨﺎ
ينسف
نعام
قتلت
اتاك
اكتفى
##فيلة
ادبيات
قشن
##😹
ولهان
معسكرات
تهزمني
روحه
الانانيه
خطرة
النازحين
غيابه
##وزيع
420
##فرحش
صاحين
الاسواق
تاتو
ماحبه
اوكس
تقاليد
قامة
سلف
عودا
يفضي
بالحق
لاينقطع
اضيع
009715
خشب
والغنيمة
ولنبيك
##راعظم
القاها
##صبت
##زويد
ويصور
مريحتين
ﻧﻔﺴ
##زمه
تطلعي
##لتم
ويحبها
واعدل
بالرفيق
ولصديق
اعيد
ماظهر
##صفية
رجالنا
نذهب
بمليار
انظري
واعلام
جديدا
تبرد
صنفان
کرے
خطييته
##ريع
##مغرده
ياشارح
##لوعي
##ختلف
اعداءنا
سعرة
حمده
توثق
لعاد
الوسيعه
النحاس
الكرتون
تفق
قوتها
🌚
المتوفر
قی
بشوك
خيالا
##ﺮﺍ
ثماني
الجيا
وهداها
وعبادة
ولكم
بكوب
يضلون
##قذك
اشق
الشيح
وضواحيها
ماهيب
np
العاملين
الارها
مكاين
الجدد
دولا
##حمل
منافق
للدراسة
##قف
نتايج
والعرق
الشارع
فكلك
توصلت
113
اسلوب
اذاعي
يابوناصر
بالضفة
بطرت
عربا
والاصم
لمني
مجامله
وشعبان
لقيتي
وهارد
يغنينا
همتك
علمها
فروعنا
##ﺴﻮ
مااريد
يلبسون
مابينا
✋🏻✋🏻
وليت
اقلد
##ونن
سامحوني
لارا
والسماء
يتخبط
##عدات
ايميلي
لذ
ﻣﺮﻳ
فظيعه
الملحدين
ونلتقي
الكهربا
الامانة
##هايه
لياليك
وقولي
تدعوا
تنذر
##طفي
ريل
الواتساب
##وتة
اغانيها
ﻣﺎﻫﻮ
🇾🇪
عنخ
يغضوا
تاثيرات
للاخره
ﻭﺃﻋ
كاميرون
تتكلمي
الخاطية
بتبعت
الميدان
فاكرمهم
اسامح
ليبدا
خاطبوا
باسورد
تشيز
##وقنا
باراك
🎗
##دق
ساحر
نبوح
##عوش
طايل
صقورنا
القوه
##لوون
وبركتها
لاتملك
algeria
توكلي
##زحين
ﺑﺄ
الوقوع
والوانكم
اوصفها
علاقتكم
اثبات
اخوف
##بهن
اوحي
مظلومين
خطاها
سيطرته
بفريق
اسواق
يفدا
يروق
حلبة
فالاح
انت
بدونكم
موبيل
واستغفره
جريزمان
واتحمل
تراتيل
المستشفيات
##ريحات
ومريض
##امہ
##جبين
اتف
للارزاق
وراءهم
يوقع
ودعواتنا
##asico
##روبه
##عزم
نوبل
لفهم
والنفاق
ماتعرف
سيستجيب
اتخ
نعيط
##وسية
احقية
بمعني
ليكفر
ملايكه
الدمشقي
وايهاب
خافية
##قلون
لتسالن
﷽
الشيطاني
kenza
متوازن
اراهن
الخيانه
جهال
تقومي
🇭
٢٠١٠
طويلا
منيح
##💛
اصلاحا
تعفوا
##¯
استكشاف
والات
##ذلي
ﺃﺣ
##اجره
صنعا
المحددة
كرهته
تصير
بسرعه
هالمن
عاكس
##jabbour
والفضيلة
الضلالة
سويد
مقدمه
##ٺي
الجرايم
صراعات
للاستثمار
##عاملين
##ونكم
جھ
شرقية
اجرك
الغلب
المحاسبين
##طيب
##رويد
##ﺕ
فمنذ
ضحكتك
##رقل
تخلق
كرتونية
الحقوق
وشوفتك
ماهو
المعلومه
انة
نكك
ﺍﺭ
♤
والصور
للاحداث
ومعلومات
فايز
ﷺ
يالله
القضايي
بخالقك
الناصحين
ورايحة
حفظا
وجامع
عاهر
ضمنهم
ترده
لتصرفات
تجاهله
##قدون
الاخر
وكرر
##ۆد
ويديمك
بضر
ve
الحيض
يحفظني
تتراوح
rip
تفضلي
معدات
افصح
وارتحت
##زوجة
##القلب
سيطر
نعاني
cam
الاسط
بطرف
الوضيع
الشهود
قالك
الجبه
تج
وابحث
تبتغي
فووق
بتحب
وسمعني
سرور
اللخ
للكروب
aug
وجعلك
فش
لعمرو
##روري
ﺎلق
كعادته
##كررة
خاوية
الهداية
تقاضي
وداعم
فرضها
الثلاجة
الرخاء
للمناطق
##ater
وصرتي
نحتاج
ورجايي
نستودعك
##ﻤﺌ
رينا
وانشق
والصغير
المدف
##يرتك
كراهية
اخترنا
##ايدة
سجون
نيتها
quote
الثانوية
بالعمق
##لاصق
يشبهونك
الورد🌹
a3
المعاليق
واسجد
مشكل
##جازي
البارده
تفرطوا
الغربي
الكفوف
مرجع
##تقاد
تقصيرنا
اصم
ويكسب
ضبط
٠٥٠٩
بيسو
واص
##قدمي
💭🌱
ٹھ
طفشان
فعليا
##ﺠﺪ
امى
الجايزة
النصارى
ايضا
تراثنا
health
نستطع
##وصله
التنفس
ﻧﻜ
انھا
علميني
فانفذوا
واغفرلنا
لومي
##🎀
للكذب
بالسماء
ﺂلدنيا
الميتة
ومغرد
اركن
الاستقلال
بونوتشي
المدريدية
tri
ابتسامہ
##ograph
خلقتم
نداره
##بيعك
المزورة
الهال
هيوصل
تهوى
منتجات
مودي
سيبقون
حميدان
يخلفون
ۆال
كل
حيرة
107
فبت
رۆ
تتدخل
الصفي
منش
اشبال
3d
##رے
الطريف
تصورين
السعود
يحمل
بلوت
فضفض
شكواك
سجله
وملق
عاملة
يسوقون
quot
##جار
شرطة
مهذب
اتريق
التري
صدوركم
وامتي
##قرار
مولدي
يسمعك
وندعم
سعوديات
وطيبتك
لحساب
تعتزل
انكساري
اثرا
يتفاخر
كثيير
لحكم
اطيح
تسجد
تمحى
ابعدنا
🔴لزيادة
النبض
##سكريه
السعداء
الناف
الاخرھ
##قادر
مبطي
لتجري
اتجاه
حماق
تاثر
##يروا
لتبادل
الانتقام
طقم
بالوحده
استطعت
##حققت
فكه
admin
دفاعيا
والمسافات
مزي
وحقيقي
اسهال
الصحن
jud
##🔲
الجايزه
ضرب
ليهه
والالم
##allah
واحساسه
كربة
##دوا
امثالك
والمشكله
فكذبوه
يسلي
وكذبوا
العفوو
راكيتيتش
##ﻴﺒ
##ابوس
##ذين
تدهور
##ركوا
الهمم
الغثيان
cry
بتوصف
باذ
وتخصص
##لوحيد
وترح
الحبال
🚶🚶
غلاة
فروخ
شهيا
مركب
عايش
حاجزا
البسوا
المفيد
احفاد
وقني
الاثير
ترفيهية
اثناء
بالحسنة
يغور
😭😭💔
بيعها
اكتب
يسواك
الاصيل
متتكلمش
يوحشك
كربك
ﺃﻫ
وعلينا
##رقون
يبر
عبدالباسط
ازعجني
##عرض
مضح
##بيل
صلات
##اطين
يره
الصال
##ارح
الشافى
الضايعه
##لوح
##نينة
لقوتك
وربك
ارجل
يرجعها
وتكرارا
قناتي
يختار
كلمتنا
غمامة
##واح
ديسك
فاصدق
واللهم
وحمل
المتكامل
بتحبي
وماعاد
حماره
وزود
المذهب
قتالية
مسيرها
بيهزر
حضرت
السباك
##ديو
لغيركم
تحليل
##صلح
قوليله
##قابات
المقبوض
##sl
##ثيث
##ومه
وزاد
130
الفرقان
ماليني
وكب
يقشعر
##jah
##قاات
قوي
##عوده
الراديو
##اخذه
هالحياة
##وفك
افن
ياجامع
##😔💜
##دك
الغباء
##حايا
تستحوذ
لديها
##هورية
##حترمك
##🌟
##واساة
ﻠ
طلب
##ﺟﻪ
فاخذناه
اتا
قضاوك
##م
بقلوبهم
##لجم
زهور
##بالك
يعد
ابرر
مغنية
وغني
يمهد
##🇹🇷
جريمه
ثورية
حبتها
غرفة
##شيء
بزا
##⇢╮
تطبق
صلاتكم
هيفضلوا
جاهلة
المسيح
ايمانه
سعااده
محت
امنياته
متك
يظ
تفارقك
وكدا
##الاهلي
اسراييل
شرقي
يفرق
ﺍﻟﻜﻼﻡ
ايق
##vis
تواجدها
والمحامي
لاتخسر
روافض
كتايب
##تكوا
mm
بلجنة
يتعالج
المفرج
saudia
##اكى
ثوبي
بالصيف
مستقر
عينيك
##تهت
يتقال
تشبه
روم
وحنيني
فرحة
باستهداف
شك
اطلبوا
سكني
تملكونه
الخوف
لياقة
باهمية
تحضيري
وانواع
##🏠
##station
للدي
فجزاوه
فاجعل
فارت
##ﺬ
119
دفاتر
تحريرها
للمحت
وشين
بسويه
الخلافه
⚠
يجود
مقسمة
متاثرة
اللبنانيين
معصيته
احج
الاهم
ولی
برد
##ذبوا
حقيره
بحمل
تتطاول
##غفر
##ﺅ
##تناق
الحرص
سيارتها
zinab
يتب
محسوب
اللو
##۞۩
يشوفونه
where
والمشك
##ايرن
##ﺎء
##ﺒﻌ
لنست
##تكب
والدعم
##64
بطانا
الحوثيين
werejectisis
فتع
اوصيك
الوسام
##اكي
والرجاء
صبرا
ودنياى
بظهور
وتحلم
توقعتها
##زق
عمران
وانهيار
حساس
ﺷﺊ
يزعلك
اللجوء
العرضة
بالشمال
##نازل
تروق
وموسى
اقولك
اليابس
هذي
هدية
hat
##٢٠٠
were
ايحسب
تاثيرك
جدته
##راحه
تحبط
يقرا
للمملكة
##ﷲﭑ
بتف
رفيقك
المستعمر
تزعلي
شيلت
مسلما
البوذي
عف
ويرضى
ميساء
##ug
تلع
عبدالمطلب
لطايرة
اماكن
##غالهم
ملزوم
والاقرب
فالحمدلله
##المه
تتوف
المحيطه
##عمان
ويورث
منغير
جزاوهم
نجهل
نفو
🎷
يابخ
##حساب
اجناد
##خم
والتوفيق
بتوزع
باسمي
##منوه
اردد
اتخنقت
ضهري
ﻣﻊ
فتيات
للمغردين
زحام
تعادل
جاهزين
طفى
المبدعة
دش
ليش
وتعجب
الاسطورة
بتخفيض
ترقياتنا
المستشارين
وجبل
داره
##العدل
للمحتاجين
عالميا
معک
لاتفوتكم
وير
👅
اليتيم
يلام
نزعت
##ربى
##رمة
کاری
تميت
لمض
فكذب
الزعيق
سلامتهم
فيما
♂🤦🏻
النقش
ورضاء
دمج
اشتي
انظمة
ينقضي
وسيدنا
##رضاه
ملازمني
##مايي
بالموعد
وغنيت
بتبقا
رافعة
وانه
واعتزاز
مايفارق
##ذاكرش
بالفرحة
بحدود
##نافسة
تحدى
##قبه
باليمنى
ذلگ
استانس
لامكان
تحصل
king
bbm
##فيض
لهن
المدنيه
العن
للمض
##وبيين
ﯾι
وحالك
##سكين
اخونك
يسكنك
يشفيها
الطغاة
حجازيه
##ذيرا
ليكتب
الجينات
سيلتا
لامطار
فيلانويفا
اتر
##الشي
بحه
##شعب
فهمت
المبهر
##سيط
وابي
الشوكولا
##ارق
##خصه
محتاج
ﻻت
##وزي
عايزاه
حديثك
وشويه
وهوه
العنايه
الخزانة
القطعة
##👊👊
مصنوعة
خصبة
الانش
تهاجر
٧٣
متص
عشنا
قدراته
##وفين
مبعملش
ارتقوا
ツ
التشامبيونز
↓❃ء
فكرتها
بہت
lat
ترسيم
ووطنه
رقصت
ياشيخ
هدفك
##موع
هالان
واسعدني
##كيماويات
مرتبك
الاسطول
good
اوضه
لوجهه
androidapp
##بطاح
مايراه
منك
هالحساب
للصبر
واللا
ايقاظ
لصمتنا
يلعبو
والتوبة
بيعيش
💦💞
الكاس
الدورة
واستيقظت
مايصلح
يحسس
بجبار
تسهيل
عسيتم
والمعنى
naj
انترنت
شمال
سە
##اريه
بالشوك
تبعات
بالحيل
واعطها
ساترة
##ٱح
نرتد
بودن
يكتب
جمعتهم
مافاز
ونست
تحسين
نيلة
ابلش
فاحذ
##طى
لياتي
مانه
اجازته
زعلان
حرير
شاك
يعصه
##ies
وارزقه
نادم
ثوابه
##دار
الدايركت
تيتي
لالقاء
توافد
##فعل
احادثك
حققنا
البصري
الفضيله
##عاند
بالموسم
وسورة
مصليا
اسخف
معلمتي
بنحط
يسعدكك
مدخل
عادلة
ﺃﺣﺪ
##ظاهرين
واشرف
العقيم
ماذكر
ادورها
لہ
لخ
ﺎلس
هالن
بنجيب
ضايعا
علاقات
كاامل
طلبي
ويطيب
وسوو
سكايب
بالبار
عادات
ياست
لجاره
سديم
عذبه
وابدع
حبينا
بالمه
مخط
عشاان
##ﺂﺑ
بوفاة
##نيتي
وترج
ارهابى
باشت
وطلاب
شال
اطلبه
اشبعوا
لاتترك
لورانس
نلمح
يرهقني
##جيرات
القولية
برمجة
زعلا
##ray
خطوتك
بهذا
##🎶❤
ورزقا
السمكية
hard
ارهاق
ومحلات
ﺇﻟ
##هاق
المستثمر
ياخاطري
نقلة
##ذكاء
العاقبة
لمدرسة
برستيج
الاجانب
##اخلاق
##لكا
ي
010
تستصغر
معہ
نتقبل
متميز
اجراس
معرفتي
لخروج
الجزء
يعاير
التهجير
عادى
ماتح
اغادر
ويالله
وعلشان
يال
ارايتكم
مصاحبة
الزرع
بيده
بالكتب
بحور
بلدى
الشوف
اليمنية
التوافق
اعيدوا
يخسرك
مناسبة
الايم
متوفى
##انويه
تعدا
يصرخ
وتفرق
اختج
جح
وسياتي
تصط
شفع
مقفله
النيل
واوسع
ازارو
##بهار
والدينه
رضا
ﺂحد
هتر
اقرءوا
مطلعة
بصنع
tab
اﻻن
باقون
للعين
ڵ
الوت
ورعاية
نبت
الاجناب
شاحب
وللان
وتجاهل
ﾟ
##متين
##جدوا
استرها
omg
وجديدها
والمسي
يحميكم
✨💙
الادارة
بیرون
لاتكن
👨
واهلى
ﺍﻟﻤﺤ
الهو
والاشتياق
##ﺟﻊ
ياق
للسيد
ويضم
ساكته
عفو
توهب
مايخيب
بالحسنات
اة
اللج
ايب
وعند
شاغرة
المزعوم
تذرن
يمسه
##iah
وثقافة
نووي
غلب
القفاري
مريبه
عاقل
##كوني
##للہ
بكدب
فنت
تجيلك
تعض
التجار
قدمو
لوالدتك
##زايري
المقاطعه
بحديثك
حمدلله
ورتويت
##لوں
يضبط
##588
##وبيسات
استشعر
تعتب
web
النخب
تسويه
##باراة
افساد
في٣٠
تتلذذ
اقراء
##جبش
1967
فنع
وماقرب
الحراري
abdelsalamzayed
والرييس
بالمومنين
امهاتكم
ولج
##لابداع
اماراتنا
##لثر
وتعسر
وتبطل
ومقتنع
الاختلاف
سادتي
الموجود
رجالات
ابك
منقدرش
العواصم
يهتدون
الراه
ولندن
اللقطه
تنويع
وحشت
جزاج
##طيق
##عظم
دجال
روخو
المشتاقين
لمق
ومليت
الشوكي
الرشايده
وعدي
للدكتورة
صورت
##raq
وتالت
دورت
مايرجع
##واب
الله✨
ازواج
##عاهم
ﺩﻗ
##ﺭﺍ
الاكواب
قدمت
فقدناك
##اكه
جالي
##ﺎﻭﻝ
الذكي
والشرق
شومان
تبغون
وقيادات
㊗رتويت✔
##اتيك
لاجلي
لييم
وللي
هاهم
فهل
اعترضت
سندوتشات
هوال
الوادعي
##♡ي
التعصب
🚀
لقلبها
الالحان
العجز
##اهر
القلاف
قلبهہ
ناهيك
احتاجلك
واجعلهما
افكاره
نشروا
ثباتا
اهمالك
الجزيره
بالساعات
اقولكوا
اوبريت
بتركيا
تعاملت
اخزيته
الرييسة
##وظيفة
يقيل
سلاسل
البلج
فاكفنا
يحكمون
اكواب
##بهاني
مراجيح
نبض
المنزل
چیزی
وعايزة
هتقعد
يتبارك
المقابيل
##وہ
something
المستحيلات
💉
بكرهها
السياق
##ive
حيا
##طاقة
بتعذيب
الارجاء
ليام
يبلع
ﺗﺤﺐ
لاتصير
يقسم
اخرون
وتعتبر
المباراتين
منعته
كتفك
ليفا
ﻭﺍﻟﺴ
##خذك
خيان
الابره
بقيتي
##تمان
احلامكم
كشوف
كع
رشوة
الديمقراطي
الشرطه
وتمن
##تهر
ماليس
لصي
تهدى
##ذارات
والباقيات
وعام
ماتبين
اختمها
وعشقي
راحتنا
والصرف
المعن
##٩
المناعي
يخدش
والعشاء
🖤
job
لفير
سابع
ابكيك
بالجنوب
هاو
بمعصية
عااش
وقاله
ديناصور
##عليكم
رحمتك
ماوصلت
##😆😆
others
المفسدين
##نوا
تنخاكم
نثمن
القن
##🇸🇩
انطوى
##وسخ
الاقصر
وبقيت
درامي
ياراجل
بوجهها
اثقله
ينتظره
امنواصلواعليه
ويخبرك
والمتوسطة
يتقنه
اليتامى
وصبري
امسكتها
ناظريك
بصفة
مسيرتك
گبر
ﺍﻟﺮﻭﺡ
الفنية
ولاتولينا
جبينك
يعصب
##طفهم
جوارحنا
##صيه
##قنهم
تنصحه
توحد
لاحدهم
سحور
تدبيرهم
سندريلا
فاغفرذنبه
es
بلبن
يضح
تخطي
اسمايهم
جاكرتا
المناسبات
کتاب
تلذذ
ملحا
الغالب
الضراء
عقال
تلاوة
الهندية
ياشر
سعاادة
خونة
امبراطورية
درنة
باهل
للمساجد
والفهم
اصالح
حنفاء
بشير
مدنيا
ويهك
بالقاع
تستوعب
غايم
🏡
القطيعة
##يبهم
have
المعركه
النقب
يتراكم
ضخمة
وغفران
ناظ
الكول
مرونة
most
گانوا
معادلة
ورحي
يثمر
تصاحب
💪
غابوا
##وضوح
فاير
بالنت
باهبري
ﺆ
همین
سمحا
عکس
فاعينوهم
يمنحنا
مافيهاش
تمجيدك
هويتنا
تسد
التوام
##ايلوا
الدوام
للهمم
ليظهره
النفسية
المناقشات
##🌵
فضيع
منهہ
##قور
الصغير
##ردها
وتذكروا
عمرهم
اسماعي
فليمط
اسلفتم
كوميدي
اكاون
ميمون
جبرك
##انيتين
##بيلك
الجلا
والعادات
التالتة
ويبلغكم
عاجبها
##end
##راقبة
بالامان
##صحين
قبورنا
التسريب
##مالي
يالدنيا
معاني
الاشتراك
##read
اولمبي
مجالا
الغ
نظام
صايب
ﺍﻟﺠﻤﺎﻝ
حلاف
##انی
##336
الراتبين
انفاس
بالمط
الامسية
فواصل
تطلبين
وامتداد
##الميه
بدويه
اشباه
المبارة
المنكبين
بالتعبير
جذري
وتشكي
برايفت
الموروث
زويد
البريدي
استنى
شبان
الاجمل
حصار
يسرى
##ﺘﻘ
##ﻘﻲ
الهاب
بالمباراة
جريد
##مكن
غلبة
##یع
قصور
لايليق
لاسعاد
حكرا
الحارس
مكانه
بتخبط
النطق
##سلي
##بابرة
شاركوا
لابراهيم
اعدم
غرك
تسمي
واستجير
بالواقع
يابوي
بالافراج
لتطهير
جمالهم
حسو
لتسليم
ليوسف
طحنا
نبذة
ارهابيا
بابتسامتك
نكرر
وجودك
سلسال
المزاجيه
سلبت
ثقتك
جيعان
et
نظمت
الشماليه
قلمي
##قاء
🤚🏻
الزحام
گانت
وغبي
مورد
mufc
واصلحوا
##ذكره
موكيت
محبوبه
تنزل
هاتريك
مشاوير
وتوجع
شافوك
بعزه
##عجبه
هارديز
هتقوم
عالص
##sam
استهانة
ﺗﺪ
مافينا
وخبرا
##راف
تلاميذ
ترخي
المركزه
وافتكر
الاستخارة
للموسيقى
لحبيبي
الطار
ابوابي
##ﺒﻘﻰ
التفاهم
حكيته
واجله
##تمامه
##زی
##عوث
السومه
فضلا
لايغير
مساكي
الفصل
بجنبي
السفر
هتاخد
استعدوا
بالعطاء
السقوط
##قناش
بمستقبل
##things
بغياب
نبرر
للمحاكم
شفاتي
##ام
مدريد
يتسلط
##سرها
##😨
بايه
##اخره
الانهزام
واقامة
بالمكياج
والعدو
وتسعدهم
معرة
التقى
نفسى
عام
اخط
اكن
راني
juve
ليمن
التمام
معلم
بتربية
🐑
مكسورة
كارثه
هبي
حنجر
عزاي
تصدقني
سامعه
عاشقك
النفاثات
😍❤❤
##غي
تظنه
سيكون
ﻋﺎﻳﺰ
##assacre
##ﺎﺭﺓ
للمرور
700
😂🚶
موفقا
هلاا
امسيت
شل
بثانوية
يشاع
الموادع
قاسي
الثراء
تخرجي
ومتاب
لهيية
##تشف
##طرت
موعود
زو
##ساان
انغام
خاطرة
خفت
تذوق
واجعلنا
تزعلك
المدفوعة
انتشارا
مجتمعة
لعقلي
والقرى
اغرقوا
وخيار
##ايزين
والحصار
هاجر
كذلك
وحاج
بنته
ولانني
لنبيه
يندفن
الهند
ننبسط
وعينيك
استام
مينفعش
ايجابي
💔😩
ديجاو
تض
دماينا
##ربول
بالگ
كلبه
يحترق
يمتحن
ﺗﺠ
ديس
الفلس
والامل
ﻳﺮﻳﺪ
ركعتا
يحملها
يصله
كثيرين
يعطيني
ناديا
وتتعب
اغراض
اصار
الميلاني
##كونات
الحريص
لانسان
تبل
متضام
9200
وصاحبك
ومفكر
وكنت
لاتكون
ذكرهہ
قصيدتي
بمعهد
٨٤
السريعه
خب
حماسك
عون
لشهداء
توا
المينا
##لذاتها
الاولا
##ﺆﺍﻝ
منقطع
المستوطنين
باعمالك
البضان
يقاسمك
ناهض
والرقي
وافرحني
ساقول
##العراق
تلهمنا
##بين
وتامين
المصالحة
يمس
##حيمي
##💦
تحي
فلك
##فاضي
حی
اشباح
##تابة
نينا
mine
##زلفي
نوافذ
##ستني
خايفه
صلاتهم
كومنتات
##وظايف
##العرب
معلمة
لمشاهير
تبكوا
بهية
##ﻐﺎ
ساخر
مساعدات
المتكرره
تراحم
عرشہ
باوند
قحبه
الشاشه
نزلت
برضى
تحوي
رالف
اعرابي
عناد
وجہ
جلسه
عجلوا
خصخصة
الاغلب
بحثي
استحم
مسيح
الحنان
ويحمي
تحتويني
مرير
وحد
ﺍﻟﺠﻨﺔ
##گے
السوجو
##ظفر
عينيكي
##صديق
##دقايق
سلسله
·
ستعرف
الاعدادي
بطولات
ونحتاج
الاشهاد
سنريهم
ميقاتي
يفارق
مهارات
بنحبها
تناوله
صبحكم
والتفاصيل
مسرى
كده😂
ديسمبر
لولاية
سلامتكم
tour
الحرج
##ﺪﻳ
يساعدها
ادبك
طم
##ٱم
😢
خدو
##ديل
الموسسات
##تكلمش
بالاسماء
وموتى
اولادي
##299
فوتو
حكمة
اقص
الحم
ولاخواننا
فقام
يتفرغون
##داق
مغرمة
واهية
مزورة
نزوى
المبا
فيل
تسويق
تتعدى
فيلسوف
للذنوب
اجيبلك
##خرف
ببداية
##اميك
العشرات
الحميداني
عذا
##طرون
ويعز
##لفة
المتوفي
اخوتنا
ملاذا
تقولي
اقواه
##صبي
ولهت
القيس
بابن
المرض
الرياح
السهرانين
ميلادى
##اعي
وبالس
سويتها
ﻛﻲ
لوكا
موقعنا
الع
اوكي
صايع
والصحبة
##qu
ن
المرة
اسطول
والانقلاب
##orrow
لبني
ستايل
نجاحك
العمدة
طازج
وباست
يغازل
البكالوريوس
##ﺑﯾ
الارضين
يشبہ
مايدور
الرخامه
لگن
عفن
وحا
اطقم
##وعلي
##يفان
هنس
نرد
##وي
##anc
تسامحني
وشره
اجتنا
الخايسه
ناحيته
عنكك
beach
ﺗﺄ
غرايب
يعع
##يهما
يشابه
تبعثر
##ندات
##ثما
بزيارتنا
ساعدوك
ﻟﺸ
##700
الفلاني
خاشعة
وتفهم
بلازا
نتحدث
ونومن
وكفيت
تعجبنا
تراويح
##ia
تلفون
سيصلى
ومشرف
حجه
##ابريل
💔😂
التفريق
بتز
سام
طربا
رز
ﺑﻌﺾ
##عنده
للصناعات
##🐸🐸
##عنة
##لبك
تسرون
بالنصيب
العبادي
للاخرة
غبية
##رقية
وكذالك
بطاقة
صباحنا
مرتاحة
شرفتني
وباجر
اود
حصنا
كبديل
الكحل
للتاكيد
ﻣﺂ
##فعو
المتبادل
فاتنه
فقال
اوقح
##شاك
خندق
بزينة
الفدايي
لايمان
واعاد
والسكر
خاليه
##سول
اطعموا
بالهدى
انشروا
اضحكي
بالمطبخ
اويت
صبية
اختناقا
الانتقالي
مابقيت
اصابتك
السند
شوق
قلوبنا
##ﻻل
ﻛﺒﻴﺮ
الموظفة
يحقق
للفضاء
وعادي
انكرت
خرس
رويته
تفشل
والكوت
فزعة
ياررب
تنشد
المهد
ﺟ
##ضره
والتحالف
qat
بدعمكم
الطقط
الانفعال
##ﻨﺪ
##رجمه
لوالدته
توسوس
مشكوور
صدقتي
الوهابي
يلعبوا
lbc
وهبتنا
##افو
اشتراكات
به
اناام
صعيد
مشروط
استرنا
ali
حققتها
قشعر
ادخله
##رتم
اغيب
##نسحاب
##جارة
##طفاك
وضحكتها
الروحاني
##بهات
كنيسة
بيتمنى
دبه
اميركا
##30967858
##ستغرب
المجنونه
والغل
تجاوزات
التكتل
##ريده
##حامات
نعبد
قبعة
حلاوته
يعمهون
وتتناك
قوتك
يابعض
ﺃﺧ
بطلو
يراودني
انكك
اجتمعنا
المغفور
وابن
يهزر
عبيلوو
وازواجنا
وقياس
كوارث
محسسني
ﻣﺨ
لفريقه
عمده
😂😝
الفق
شبع
##ڛ
والنهار
تنتظرنا
جلس
اراد
ذنوبكم
العبيط
شک
قانع
ويبسط
##بطريقة
##ينتوس
تخرجون
##سيارة
##ضرش
🤚
النواقص
الستوري
حاسبين
حلول
المهمل
انطر
عبرتي
ببص
فاوض
تكريم
والمدينة
هده
لغير
اختلا
##صحيح
وهمس
فتبين
العلوقية
id
ﺣﺎﺟﺘﻲ
##ﻴﺖ
##افري
هالبنت
السرية
ابق
##كب
تی
بنحو
الاستجواب
بهالطريقة
يتلاعب
وعرب
##ﺰﻳﺰ
احتجاز
حانون
لبلادي
مفروشات
مبتقفش
الجسدي
##الك
اخذل
يقوم
ويوفقنا
هاق
وكلها
##يع
المسيحي
يبه
ﺨ
للشمس
المنح
جدع
معليش
والراجل
نادية
وبحر
اهز
لفو
اغراب
هنوز
المحتل
مذهله
##ياع
bm
سينمايي
انهار
بدنياه
بسببكم
وتدرب
##بتكم
يتغاضى
عزراييل
المكارم
##يتش
تكبيرة
##رمني
مواجعنا
##ارتين
بالخطر
##اتيجية
وترفض
مايسعدك
ومتابع
بالور
وعلوا
رودجرز
اللذيذ
اجتنب
لحبيبته
مهران
التلم
مسجل
##سبها
جزء
وصرخ
خده
قلبہ
لمبه
وايصال
ببقي
##یمی
اكرمت
للانت
الفوضي
ومنذ
##تمون
💔
الطرفين
الشار
النصفي
انرت
وهاردلك
للمدير
دمتي
الهيلا
رهيبة
اسمايه
يذكرني
souhilabenlachhab
اعطني
للصهاينة
سرقت
هاتفيا
بحيري
1997
عقوبته
##تاق
hadith
ساعيش
##بحه
وحرق
##يمورا
روتانا
##خليني
سلمان
اجمعها
يظلمون
ممنوعة
##ias
ياوجودي
بخاطرنا
والحس
قطار
كسبت
شبر
ﺃﻣﺎ
##ja
##اسب
##ازيتا
سبط
يتكررون
جهلا
##زعلك
لعينك
اقشر
اظاهر
ﻗﺪﺭ
لرويتنا
جهارا
ياريتنا
فاح
74
نوعه
##وتى
زوج
وعكس
يظلمه
ميل
رحمكم
الهيثم
وازاي
##جلون
والجو
عزومة
خضراء
الدوامات
الانج
ايقاف
وامسينا
مايموت
متزعليش
وكا
ادنى
الاسلامية
الخضروات
ستدرك
بنو
##دافك
الاسيوية
لاتكلمني
لاس
لنه
##کم
فليس
قلتم
الابتسامة
بعشرات
معطيه
ويشرفنا
تربة
##ﻴﻨ
وحشتوني
##ﻌﺮﻑ
انشر
تويت
##بتسامہ
فليعزم
انشرو
حلاها
ملهى
##رضون
متغيرتش
ليتوك
للحسن
انصف
الهون
عقبالنا
اسامه
date
بينها
hist
يدقون
الهﻻل
ممثلة
المخاليق
وظيفتي
تالم
لحديث
٤٠٠
والباب
😂🔥
المدثر
ولگ
لوب
اسير
يغيبون
خذلتني
النشاما
ورقها
ﯾﺣ
لايشكر
اخبروني
اديل
##🍰
##المد
احدها
بمعدل
ياجمهور
##اربها
مزمار
يدخلوا
الناحية
الاكياس
##بدء
البقوم
بطلوا
اردتم
عرفوا
واخفض
وتاهيل
##جنة
المنق
والاستغفار
ins
⸀
##☇
chel
صحفيين
وممتع
🕊🌹
##هروا
نتصل
عصي
وغلا
مابعدها
وايلد
نصفها
الجبير
##هولم
مفتوحة
والزن
ومواد
المستهلك
وقدره
💛💙💛💙
##📚
♡♡
يعتذر
✔🅱➊لزيادة
باك✔
المواطنة
##جى
للحكومة
للسيارات
عجبتك
الرملية
سامجه
انارة
شاطرين
لزوجك
اغلا
ولسنا
وليفربول
حصنك
غصه
مسلحة
المناقشة
ٱلف
نفطر
الخناق
وترضاه
سواك
##لفى
ولوالدينا
فصارت
الفاسقون
يفعلون
الهنايي
بذنب
وايوب
تخبره
البلدين
١٨٥
وعيال
مايزعج
وافضح
##£
معيشة
امان
لعلك
ومريضا
شنطه
ۆﺎ
طراق
لتشغيل
بالخدمة
طلقة
تصوير
وعاي
احترت
وتصرفاتك
كفتة
ملح
زانية
العج
للملايكة
يستنكرون
والاتحاد
##وقظ
مابها
المعالم
تسميها
شراي
الشمع
##امعة
جرحها
الوقت
جاريث
night
##👧
اهنيك
بتروج
##توا
وبرده
بريطانية
فله
تجيه
غدار
ماكمل
##اسس
اتصاب
##وكلين
كبل
برضة
كراه
النميمه
##السه
##طلبه
العقار
نركض
وشراء
بمنزل
##سبا
##ml
##ونيا
امتحن
مخالفا
ريقك
عيدميلاد
##لڪ
وبها
احمي
نلقاكم
وابوس
حقيقين
لاستعادة
##غلنا
##زيلها
wal
باپ
ماعلم
والاحلام
دايس
periscope
الضلع
تكاتف
##ume
للار
العراقي
المشكل
##☕
يتقي
##يربي
تكرار
فاتقون
وفرحوا
مانديلا
العواذل
پو
جانبي
minaatt
##صلي
ساحرة
معرفته
اغرق
بيوتك
##بع
انصت
ديمبلي
سوني
ال30
انب
التعاونية
والتحليل
يسب
بريال
شربنا
رصيدك4
##خلفين
شبكة
رغم
دخلت
زواجي
باستا
عينينا
وهميه
##ارقه
يسهر
الحميه
هزيم
##ميمة
عابرة
يطمنا
افلا
للريح
##og
##veg
ولده
##عدا
اكفاء
ہويے
خمول
بقانون
وصولي
عرف
بوسي
دوري
expect
ودينه
نسبه
##زني
للتو
اتنرفز
##حو
وقالها
وتشمل
انهزم
الاني
الرمضاني
جويل
تعرفة
الاك
ضحي
ساكون
اكلت
قسمي
مفكرة
ترجون
يفوتك
اصلحت
سكان
البلوش
لليسرى
يتقدمون
ريجي
تحركت
قراءتها
##قلين
الوقاحة
رسلان
واغسل
الصيانه
بطرس
مفوضية
عسا
واعفوا
يحيط
##ومبي
😂😂👌
لاتغرك
المواليف
هاشتاج
المقاتلين
كنم
الملاح
##جرك
توحشتكم
للفنانة
واصرف
تغريم
وزراء
اتب
خيانه
وعبيد
راوه
##وغل
حافظو
وخصوصا
ستتوقف
الاوطان
ﺎنٺ
فيوخذ
لحد
وراثة
سيجار
لصحابي
والابتكار
الاسلوب
لزين
##لبسه
اولهم
##ابيط
ازواجهم
تقاوم
کرپ
ياسمين
##💭💜
الاعوام
اهلى
تشيرت
الناريه
وحارس
تسليمها
اطمان
ينخر
للجميل
تذكرت
مكاتب
ياكلاب
عرفتي
ابوابها
اجيبوا
##ﻗﺖ
هى
موازين
✰
اليہ
ذاه
وستون
ستشعر
يفهم
موديلات
ابانا
ثابتة
للسيدات
تحث
ليظهر
شهادات
الواطي
وبز
وقوموا
كوادر
داد
نايمة
حضرة
##متوا
##ڈ
نحبكم
بمكانه
وتوجه
##ﺒﻌﺾ
ياتى
gp
عتا
فاصفح
رغبات
الدحيح
بحك
وهيف
وللم
راف
يستاهل
##ildr
المقه
وعيسى
براف
اماء
المستانس
وقب
تدور
براهين
##دولار
##لطف
همسك
اواخر
اﺟﺎﺩﻝ
15pm
اتعملت
##صبر
يرضى
لينك
المنفلوطي
ﺳﻨﺔ
فافضلها
وباسعار
وہی
كرشك
انصروا
مستمرين
والتقدم
انمار
سمات
##🚈
الاولي
انجا
وترتقي
مسجله
السكه
فعال
لمحزون
بالمع
بلباس
♪♡
رافت
نعيمها
المعوذات
لصق
معلقين
المقترح
##الحين
حصينا
وتدبره
لميتكم
##alam
لرفض
والسكون
##░l░l░o░
بهين
##لاسفة
بصفته
خشبية
والمساواة
خذنا
##فنة
ناتجة
يمنية
يزه
##ﺴﻄ
المصرفي
وضحكته
بالبكاء
شوكولاتة
ريهام
##ile
فدا
conf
المحتلة
انجلي
تحتهم
ومعاذ
باحضان
حاجاتك
يوقفه
وقوعه
يراها
##گرا
للنجاح
بالتوفيق
تجسد
والدولية
شاعرك
قسري
##يتت
😂😂لا
الوراق
##لرك
ہوتی
ﺎللہ
الاعداد
اضاعوا
الملكيه
رابطة
ويعطيك
يخبىء
استعاذ
ذري
شاق
همام
الالمانية
ويمسي
افراغ
يابوحمد
اطفالها
السالكين
الفلا
##يفتح
يعوضه
السبعينات
##ﻟﻢ
لمالك
خجلا
والحم
يالها
عيونى
##ناها
خبرته
##udio
منكك
تحاورك
فبعد
مالديه
الموجعة
##ليتي
##حيث
##يبته
ابينا
مويا
وسيم
ﻭﺍﻧﺎ
معنوياتك
##اضر
اوزارها
ووجودك
ابنتك
بطة
فكس
##قابلات
واحينا
تزاعلنا
##ذيعة
الشبان
استكثر
ابتلي
وعالمي
استمرار
دقو
جدتي
للنفوس
وتردد
بيقين
بسافر
سخط
دقيقة
follow
كتابا
لتاكيد
##اكثر
الكمين
بلسانه
الصايمون
بالابيض
😂😂🤦🏻
كملنا
بيبان
والعلم
الرياسه
الكثيره
##قيني
##😄😄
بايديكم
عالنبي
●●
متع
##توں
الظنون
ستعلن
##خيرك
ادريان
افمن
اشتهرت
sweet
##كرم
سجدا
شعبهم
مادر
كافرون
نصح
بالطب
الحاضرة
نسي
العلمية
مجدك
تسمم
ويكفي
كسول
تكريما
الطقم
اﻻنسان
##غلين
٢٥
فرجها
ابديت
ﺣﺒ
سواتر
ويذ
يستغل
مافقد
اخراج
تقابل
فوقت
خشاش
##لمك
القيصر
راحل
ظلام
يقاوم
وتطالب
رط
جرثومة
مواثيق
هجو
وتمتد
اقتناع
وقوع
اتبع
ويسبح
اعداد
الاحباب
فط
##لوبنا
تخصصات
الزعبي
##ناشيد
##حيات
بحرك
ونامي
بالخطا
لامنياتك
ترقى
##ضيحه
ثانيتين
كراس
ينقصنا
المنثور
##رافيا
الامد
انضم
يعقد
مالق
وطر
هودي
بمنتهى
##ه
وجري
الهريفي
رصاصه
خفوا
الرحالة
توجد
غربته
##طايه
ﺍﺷ
رزقناهم
اعرابيا
يخلف
##اخر
للاس
##شوفش
##سرا
##ion
البريك
##عاذ
ذنبي
يبقوا
مازلت
يبري
##يبتي
##play
##عدين
للاجازه
زلة
الايتلاف
مباره
والصدقة
للمش
##ذان
مكرهم
الاشعارات
وصا
##ستغناء
نظره
ومبا
الضالمين
##املها
التابعي
تخرجها
دزيكو
صورتهم
٩١
تلحق
جثه
لسنة
يابن
يرسم
هالمساء
اجابتها
##خهه
بالتسامح
لتختبي
رابطه
احوجنا
وجهلي
قهم
رامي
اغبر
لاعدام
المواجهات
لحالها
تبعك
طلعة
تدخن
والموده
والتزم
الظالمون
السخاء
##يبق
ملوها
اقفل
قاعدا
لايوقف
ترفض
##لالي
##جمه
السعودى
خبزا
تنساني
##😪
والهم
اقصاه
ستعلمك
الكمية
عزت
نس
##حظ
متهور
تمرني
الشفاه
##ميهم
بكلية
㊗➊
##◀
ﻭﺣﺪ
واستش
مخلف
سم
قبايل
ياابي
جذابة
تشاءون
لتعيد
ويوجه
هواا
بعقلي
للمباراه
خبيني
كالريح
والطاعه
الميل
والرب
علاقته
تھا
لياليه
اخفيه
يصنف
الفاحشة
اكفر
والدتي
ملق
ربا
اللحيدان
السقف
وكاف
يشوفو
😍💪
ابيها
فضلك
##ستيان
##📝
الجماهيري
مسااء
شلي
##خاي
ظاهرين
والجماهير
فقيره
نفسيين
وبرحم
التسلل
البغل
مجموعتنا
سرمدا
نصبت
تذگر
واجعلها
نسيتوهم
اليقين
الاسكت
٥٣
ﺑﻤﺎ
##بالاه
##ﺮﻳﻦ
والذكريات
ﺺ
معدلك
##ﻔ
لمحل
جيرانكم
موذيه
بفندق
بالاستماع
##كهة
قذرة
معفنه
عبدالصمد
وعساك
فران
بكاف
عينيا
ينوم
تسام
عقلة
شفايي
شاكرا
الحفر
مايت
النمام
##ics
الشيلات
##15
الغيوم
اتص
ساعدونا
بوم
الكهف
doha
##قلبوا
نج
##خرجه
وبالي
ٱلدنيا
ياحبيبتي
😂😍
راكب
الوجبة
مقي
ادد
اما
##ياده
##ليان
##قيدي
هلا
##وطى
عزاب
لطيب
عرفات
الحضري
💥💥
زاد
فلنحي
5
ذهبيه
تغلق
##هايمر
ارنست
عيدهم
العام
تحسبا
نوادر
اساسها
اليك
واياكم
للاستاذ
قنص
تبث
ابوناصر
الاعصار
اعطاها
##dy
ﺳﻌ
ودروس
مانس
الجدة
بلبس
مخاطبا
الشا
بالشارع
اختك
سمعتي
##new
##🇶
عايشين
للقاضي
يضمن
مساا
كوين
مشغوله
داب
##ادير
ويار
الوحيده
##بطولة
بيجيلك
##ﺘﺐ
يلاق
المراجعة
##🌇
مفاتيحها
سيكل
اهتمامه
##صحى
اضع
حبيتو
يرتل
وادخلهم
##ظلم
بنادول
يكفيهم
يستكبرون
##💢
##جج
حايرا
والذلة
ولايخ
طابت
ﺏ
يثلج
بتلم
الفوتوغرافي
زيارتك
اشوفك
فيدعو
##خذها
بارزاق
لايرحم
ﺻﻔ
ﺻﺎﺭ
زهوقا
فالضعف
المشقة
اتوقف
ورضى
مارفيك
نبرتك
نور💡
لمعنى
والاخطاء
1971
بوسعك
الظاهرة
عجبك
احسن
کند
وافسح
للدين
للحسنة
اصدار
المقفي
حملك
اسعادهم
اتريد
اجتماعية
المتهمين
بتتكلمي
لنعيش
حبايبي
القيراط
##سيد
والوعود
##ابن
##usa
رتويت
توريس
ماعشت
وترامب
ورديه
الزلامي
##ريموت
اليزابيث
ﺍﻟﻌﺎﻟﻢ
فاهيتا
الفقر
المسابقه
والنهاية
ينجيني
بالتويت
احتسب
العمودي
مخلصتش
##ham
ياذي
وخايفه
##رفان
وراه
155
##ﺒﺎ
حموده
##عوثون
بارتكاب
خطاء
انتخابية
١٧٠
ويوز
المفخ
يضعك
الدلو
فمتاع
ﯾﻋ
copy
بفارق
قالته
يسامحكم
تتعامل
يغمرك
##اباتا
والطفل
##vd
مساعدتكم
المذيع
يوفقها
😌❤
المجهول
ومدريد
يحببكم
كتكوت
المسول
##اءة
دواوين
##رافية
الوفود
الافتار
كرو
معن
شخصيتها
بخصم
زیر
##🐪
ρɪc
الريموت
للوزير
رييسه
بحذف
cnbc
نضجت
##وفني
اصفح
وطهر
would
١٥٢
مقولة
واستقراره
لموسسة
##❤💙
ااميين
للديمقراطية
اغش
عناوين
بخطر
مايتكلم
دعوتنا
ابجدي
تفقد
الدهنية
بيتس
النصايح
💜💙
ننصح
وصف
sd
تلاتين
ونوايا
سيرة
ﺣﻴﻦ
واحفظني
کی
##زعلوا
ينابيع
الكوب
طماعه
لعيونها
نمارس
##ler
ريس
للتي
يبعثون
كانكم
sur
ب12
##ناو
فانقلبوا
الاسم
رمز
ياصغير
احبكك
وطيفك
الارا
وزلز
##oon
بالاعمال
وللاخرة
rock
المست
عهدنا
وحرام
وبحبك
فارجو
اسماع
والخدمة
الصهاينة
فانصت
اوول
المدافع
عتمه
الثقافه
وكفى
##قاها
مهماا
نعزي
تشاهدها
وتجيب
تبق
العابرين
ورون
والماشي
اعملي
احتار
الوقاحه
واخويا
##لدون
الصباغ
تلهيهم
عالط
التمهيدي
اظهر
التمسوها
وتطلع
وتمام
ﺎلذ
والاذى
وقفة
٠٠٩
##برش
ﺍﻟﻨﺎ
دعاءك
بنحبه
🍃🌺
##يتم
بسوم
براسه
جيوبك
شقرا
للعاملين
وحكوم
متس
نعصيه
الالف
توقعوا
نصرك
وبعده
الموقف
تسكر
حبيس
اخطيت
مصلحته
تهزر
مساح
لجزء
ﺎلظ
الكذوب
يس
واحاديث
تجمي
han
بسجوده
sil
ثقه
ياعزيز
##ستمر
##سواش
بكلمه
84
المصانع
مونتاري
بحالك
المشافي
##👏👏
مرضه
😂😜
االح
احذري
دخلها
وتف
شارفت
المبار
معترض
اهدافك
الكس
##jabb
لاختي
tb
##وسة
العيدية
عليم
شرفا
عددهم
بتكمل
##قردية
معاناة
مصممه
اسمعهم
الاجتماعيات
طاقات
ماوي
رفعنا
واصر
للارقام
والهدى
يسهم
سرقتها
زاح
##pect
وارتج
تحتي
وباك
وانار
##ااهل
تدعوكم
القرف
سمسم
##هوض
يرعاني
تمريرة
ﻗﻠﻮﺑ
برياسة
اتخان
شارعين
بيمن
واقاموا
اسمعوه
الجهد
مامنه
منافسيه
ماذگره
حصولك
الانجاس
الوسوسة
والدواعش
تكرهك
يولي
وسيرة
وملامح
##ايخ
كعرب
الهرب
وبايرن
اصواتنا
التقيل
##راهة
بيضة
للاعتذار
##رابلس
##لغبط
فكل
بالتحقيق
ووض
استقيل
هرة
قفص
178
##✨❤
مضيعه
التلاجه
بالدقيقة
حبيبه
##عودا
زاده
اجدك
العطلة
خانني
##اريكا
##برز
ايسلندا
🙉
😍❤
وددت
قوت
يبكينا
لمعركة
##660
laith
والمواقف
legend
دواها
ترجمت
ثلثاه
✈
##ence
🌨
الظالم
اخبريني
##ابي
ساعدني
حشود
##داهم
واضيفك
الخرج
الصامتون
پیش
تلمسه
فينبغي
والجمعه
ۆا
تضخم
بالاسباب
##😘
ماضاع
مكرمه
تخدير
امراة
##ذهان
فكي
تركى
##احا
يامسهل
فليتم
عمولة
بسنتي
النفير
زا
يجاهد
وقيامكم
ميعاد
##ola
ابعدك
بصبح
انحدار
ماهوب
ﻭﺃﺻ
ناطحة
المصلح
تبليغ
البطاله
##راحلين
اسكنها
واسرهم
الحشى
الموبد
مجتمعات
افتح
##69
خرطي
ليهو
ركلات
##متالق
ﻳﻘﻮﻝ
ازعج
اثقلہ
تنسى
##لوا
كارتير
يسٺ
ويوخركم
اجيد
بنصيحة
بقاع
##عاطف
لگي
شتوي
وينو
اللهه
mode
واشتراك
اطلقه
اذوب
ﻗﻴ
فص
واهداف
باحث
##١٥٠
اضحگ
تساوي
اقصد
النفيسي
خلصنا
مشتبه
يحي
لمون
متابعينا
##ياطين
مجنونه
ﻗﺪ
السن
##😴
##قارنه
لارواح
##ﺟﺮ
##مهندس
ويبلغنا
سييها
تحلطم
هنفضل
ماط
اتجاهك
##فيقي
واختصر
الراجح
الاياام
##اردو
هحب
گتاب
ومفر
هاهي
بتحط
##ﻐﻴﺮ
ارتكبت
ﻛﺮﺑ
الاصيله
للمصابين
لاتغ
روس
والوقوف
##وودي
الضعيفه
##رشح
##بهان
وايد
عقولنا
🌴استغفرالله
الجايين
قله
وعبروا
لورا
فمد
فسترتني
##ﺒﺤ
ديت
يرجعه
القناة
فردت
عشه
لمو
##قراطي
ابوي
بيعتبر
يوناني
اتسرق
وتجربة
وماعرفت
بالنسبه
التقدمي
بحوله
بهت
لهم
نيللي
تكتم
كرهناه
##لاتنا
ضمان
القويه
حشا
بوسة
##بشرون
وسلطان
##ضاعفة
الغمام
وامددناكم
##ooting
الظلماء
الاخطر
بالمهتدين
##عوهم
راحتها
اخفاق
##صاريف
##ۈ
هزم
سوس
##تت
کرا
الشياطين
التبغ
يفت
حبو
جلاد
جاوزت
كعام
##خلي
الراقيۃ
اعوفك
الفنانين
انشغالي
كانهم
تكسبه
##رافقه
عشيق
وماكان
##غره
##غن
الابتزاز
مقعد
تعاملك
الفقيرة
##ماز
تهذيب
##وفيتش
فكان
واساس
باقالة
لسياسة
ابوكوا
غبن
مكالم
##نجة
##ساني
ماطر
😍🔥
صافيه
تعشقه
امتلاك
ساعة
ابوج
التافهه
لمقتل
الايجار
الملخص
اشتاقوا
فرحمة
والثورة
لقرية
العثرة
وحنان
##حتم
خبرني
مطلقة
تقصر
حكيم
##باهان
فاتحين
نحافظ
الايطالية
بخلص
اتقهوى
بشرتك
47
بعزك
سالنا
##یب
1993
##خربها
استدعى
يرفعان
ﮞ
كيدهن
##crimes
بدنا
٧٩
ومايقرب
لاعلام
القتلة
شيشة
نسميه
اوعي
##ﺪﻭﻥ
ابنايها
ستاير
وتوجيهات
شاء
هہ
##ris
##ابيه
كييب
##💅🏻
تغتفر
بقسم
فاعبدوه
لتنت
تسليح
يتعد
سجاير
المرات
قدامهم
غفير
اوطان
بيفهم
وشبك
عيوبه
👏🏻
ويقوم
يديدة
لاتعليق
افات
ايمانا
اتخيلك
بنذاكر
##دينى
بعزم
##٦٧
اعيت
قصتها
التفويض
##وسف
واولادنا
اضبط
حبوا
دمعي
واستيق
وعجز
فلبينية
فتنة
الميدتيرم
وديما
يجادلون
للاهل
للاتحاد
الوسطية
واخ
والعاشق
##2oll
السوقية
استفسر
##الذين
بنصرك
اصلية
وجسر
ساده
جوعه
عاريه
غايتو
ھیں
✋🏼
وبذلك
واخواتها
القويم
هاللق
اروى
ارجى
##فيها
ناحيه
##🌲
تدش
مته
كنوع
windows
حكيمة
بعدستي
جهازي
ازقة
التنظيمية
ماعليج
واستغرب
فعلي
😍😂😂
##82
وسكر
الثياب
##خاص
لعيونه
المناه
واشهر
يصعد
##زياء
اقارب
##زقني
ويمدد
فبر
##طيه
لحالك
تربية
معلش
الشيخوخة
خيم
برايك
سرقة
المكانه
تعلق
##لتنا
ينتزع
العامل
ماليزيا
نتد
##روات
ويمرح
بملل
المقالات
تحدد
بيش
ﻣﻜﺎﻥ
##gram
الربا
وكار
##خروا
القرضاوي
##بداية
##اتار
كااك
الحضن
يار
غلق
الثبيتي
##ەن
فعلى
الاستشهاد
يتحدث
بالفولو
الموصل
ساحت
قاعد
نفرق
مفيدا
فبالك
صمتك
الدكت
ﻧﺤﻦ
##🙌🏼
سووا
ودان
واناقة
لنفسها
والطغيان
محمد💞💞
الفلتر
اقدارنا
حالف
حجبت
##مان
##ااي
وافترقنا
فكرتني
سجات
زهرة
التونسي
##ستانس
اسوار
دودي
اذاها
والغاز
لامورنا
ضعيفا
يتركون
ﻭﻫ
المبذولة
حاربت
غافلا
بامكانك
##cl
فابحث
والمصيبه
##ole
بنكون
##جاعيد
تاسفن
هشاش
بدخل
ادفع
تسويها
واموات
بالجب
🚑🚒
بقيه
يشاركني
ونخرج
ساهل
حرارتها
ماشفت
الطفل
اسود
بہتر
يلتمس
الطوب
شكرته
روبرتو
٦٥
هالصور
روجر
##اندوز
سباقات
ومسموح
للقاهرة
ويروح
يرمى
وعاملين
##اطس
تفرح
الدرهم
وقفات
ماية
طيفا
##ﻮﺭ
ظاهرك
##تحديد
المكتوبة
افسد
كلمتها
مثوى
بلج
لغتك
##ميت
المترو
دوى
##يابهم
بريطاني
##بتم
عياد
💙❤
هتجيب
استعذ
##معش
احتفال
مكتمل
هذھ
بلام
الاغنياء
##↪
يخالفه
حفنة
##فيين
الراحہ
👌💙
وتضيع
##رمي
##لl
احترا
وضد
امرك
اوخ
##للتي
##منٹ
الفن
مريت
لوهلة
يبتدي
العرايس
نموذج
محترف
مضغة
افعله
##زقه
وتلوم
وعفوك
والسنة
والاهم
بتفاصي
فالينا
شتمك
يذنبون
وتقر
علاه
تسوى
يمسح
##زنته
12
##الز
والمطلوب
نقفل
اثقل
##شوفها
جدكم
القراء
ﺃﻛ
##جته
يعتني
الدافي
شموخي
لظلوم
بعود
ارهابية
ذخيرة
ﺍﺻ
مجرد
خجوله
ﻟﻬﺎ
صلاحيات
حيال
بقدرك
وضحكه
ﺍﺳ
يدمرون
ابوش
والطعن
✨♥
كونى
كتك
الكترونيه
الطراب
or
موظفات
ياليل
≈
شاعرها
ومتابعة
انتاجها
اصلوها
والشوك
يشل
وهمه
نغير
اغلاق
بارخص
للملكة
بفن
والنصف
اليد
##يمات
الحرفي
هالكلمة
##بااء
وامي
اصابعهم
soundcloud
💙👍
ﻓﻠ
هالجو
المهندسة
سيجلب
مجتمعين
سنيين
الاونة
احح
تنازعوا
##80
اخييه
زهري
وازمنة
لطلب
ياصمد
يعتدي
بدعايكم
##az
الفلسطينين
تعزه
سفريات
الفنجال
تعيسه
الديزل
تركتهم
لبق
الاتفاقيات
##يرم
مخرجا
يلفظ
المقسوم
بسمع
نزلها
بعقله
ونشره
بالمغفرة
وضيقة
محرقة
staracarabia
##كتاب
موجعه
تستهدف
بالهزيمة
وازد
بالاسعار
وحجة
مايحب
##ﺒﻮﻥ
وبث
بزحمة
لمب
وحياتنا
اعجبك
كابه
واغيب
😅✋
##💚🇸🇦
مشاركه
قضاء
للاسباب
اخبارك
ونمشي
غلطانين
##حاولش
اعكس
##للطف
تمسي
استهلك
##بدوب
الجاذ
هتفرج
هتفت
هقيت
تامل
جاءهم
وستجد
ارون
اكت
يجمعنا
ويجزيهم
لمع
جزيية
جيتس
##😭😂
ایسی
##elle
لتبعثن
فدمرناها
ترفعك
##خصصه
##طول
واشف
الاسرايي
وعرشه
بالانتقام
يقدمون
حروفه
##ites
السمستر
##😀😀
للمطر
##الباطن
هدفهم
حريتهم
وصدرا
##لاست
انها
بمن
والتزام
تلعبون
الجذاب
##٣٣
وتوفر
##ثرة
فسيرى
النفطية
للعناية
سنابات
لفلسطين
يفقدون
##حملها
شييا
يحسوا
##حكيش
احبت
ذهب
##جبهم
تعودت
وجبر
تعبيرات
لجرح
##فين
يزق
وتقولوا
االه
جامل
##خيت
بتزيد
عملكم
دعايي
نتخرج
هواها
الاتية
تركك
يدلي
وزان
والدستور
معامله
جفاء
##ﻬﺮ
##قضي
بالجد
العقبة
نضحي
تستاهلون
##ﻮﺭﺓ
㊙
البدن
##راط
فتجده
كنزه
يلت
وحاطه
مستمتع
متبرعين
##تمناه
يكلموني
والجودة
##رفزني
وتعاطف
😄😂
مهني
الكووس
فرقه
لار
##ok
##ﺮﻭﺍ
فالعقول
الاخدود
الاستيراد
##اكم
المطرفي
المشاركة
وحتى
التردد
##ضرين
مساج
المحاصر
يقلع
ولقد
##اليب
##ثهم
التحليل
المتعبة
الظريف
وراكي
الكفاية
وليا
##ريعة
واتجاه
اعافر
لايجي
واصطبر
ترق
المبرر
البركة
##👄
##ℓ
عشانها
ضربه
##ارض
قدميك
کیونکہ
والافراد
القديمه
##ضى
صداقتك
يدش
ويسمع
سميته
وصنعت
¯
قراني
##ﻀﺎ
👈🏻
لصح
البنت
مضاربة
جيمين
مغ
هنرتاح
خصايص
عماني
وتغسل
نقود
وسياس
يانجم
مجهولة
الممح
نسايم
مكوة
تق
فلعلك
##رال
ذكرها
ويتعب
😴💭
مواصله
الصيدليه
يقولهم
ﻣﻧ
الازمه
لرضا
نتخلى
لتنفيذ
مشاكلنا
pt
اصبحناا
ينتهى
لتب
سلطانك
يتابعون
وتعديل
فانكم
نشر
روقي
##😱
استاهل
ذل
##ودنا
جيبوا
ووصينا
سيعلم
بكفه
الدموية
مرام
يونيو
زوجتك
##كرهه
الفقهاء
ويسعده
lib
والاصدقاء
يتهرب
6ابريل
##درا
بثواني
كروي
ﺇﻵ
يموتو
يتخطف
المميزين
##aga
##داش
بتقلب
صاار
ye
اخبرني
##ہل
##①
يسالك
واسي
صحيفة
ابتعاث
مختاريان
الغوالي
لناظره
مايية
وجبن
حريتها
##غرها
طايقة
خيريه
ملوما
والطريق
##لاتكم
اذ
بيحبونا
تخوض
◤
تدو
##دات
لف
نمنح
المظلومين
ومحا
ذنبهم
##مدينة
والحكومة
تحذيرات
ونكرر
عدوكم
يراقبك
##ركها
ومبارك
بالافراح
الاسبانية
احتسبوا
اردني
##ment
##ابة
شراء
اجازه
وجدتك
سطحية
يضربها
❋
يهنيون
لايريد
لاتليق
التبانة
حذر
التربوي
والرياضيات
محملا
╭
واحتفظ
بمقولة
صخور
تسامحوا
اطالة
واسبغ
شايلك
بعضو
واللعب
ضاغط
##اخرت
##رحب
اضط
تبداء
وامجاد
عصير
وصلاة
واعتبر
يستخف
للمص
اغضب
مفت
فعو
بحسها
##ﻤﻮﺕ
اصلى
علىى
الھدوء
الاخرى
الانسب
وردك
لتحديد
دورنا
وتويت
نضيفة
ويغفرله
محبتك
##انيوم
اخدت
##جنا
وحاضر
بالشام
㊗لزيادة
الہ
روعتها
اشاعات
والدعوات
بالتعلم
نتش
##غفرة
ﮫ
##🚫
ويحصل
##اردي
يسرنا
الاساسيه
الحسني
يانس
المذهبي
##اينها
فذو
بحبل
باز
كبرا
السريرة
تسلمه
محمد💙
اتمم
لوز
تعسيره
فراغات
تدرس
##دوس
##قدره
##صرخ
ونصفي
لاتشكي
تروي
الخيا
تعجي
##احلة
ابوفهد
المحسوبين
جبلي
##يان
يقرء
💀
للاجيين
يتركم
قبضة
للماء
الحجار
##یق
ويشكر
وحسنت
واحس
وهيت
الجند
##stand
الحافلة
صدوق
وهزلي
وبركه
اعقابكم
الممتازة
##قاوم
وبعيد
التق
وجنة
تذك
سبحا
رويتهم
##متو
اخلاقا
اعله
##لروب
بانفسنا
الفلق
حررت
فتصبحوا
لاعبنا
باعمارهم
اوح
نقموا
والاحاديث
الحادثة
الفاتحين
ww
الاسدي
سيعجب
تبغي
نقترب
والطير
الجفى
الجميلي
باقتحام
نفث
##وور
ووطننا
ياعليم
##قفش
شيعة
وسامحني
اتباعهم
مسان
الكلاسيك
##افه
فضة
##٢٢
حدود
##غريني
اضخم
كتوم
اطفالنا
##ركك
حروفها
##055
سيعرف
اردها
سبر
اكرههم
عودته
السلوم
طهوره
عفويتك
فلياكل
مامي
الشمسيه
نضيق
تصميمك
موفقة
عملاء
والسماوات
تعلى
تضحكي
مابعدك
باقيه
##72
ويحسبون
یاد
##ارتك
الخوار
##ews
مهض
الاكسدة
كفن
موضعه
ويامر
شموخ
لسماعه
بالرحمة
يكف
welcom
خادمات
المعالي
##😳
السرج
امري
ﺂﻟﺂ
وتحافظ
بمخ
😂✋🏻
المسيء
الجبلي
لنن
وانفض
الجليد
يتعلمه
عقبة
يعلقون
خﻻص
وزوج
الزوري
بنعمت
حبتين
بزع
الواق
زمنية
love
ﻭﻓ
وتعت
nass
2018م
الشف
الاسنان
بارز
واقوالك
##ولج
والمحتاجين
نادرون
الاهتمامات
وبفرح
عنترة
رباعي
زف
الوحيدين
بيتصور
مبررات
ميوية
الشخصيه
برھا
تشق
القديح
##صنعه
موجهه
نظل
داومت
علتي
مهبول
##هتمام
##oma
وامام
##عق
الحربش
ليعطيك
الاصعب
ااس
والسعودي
للحوثيين
السابقون
فهكذا
اتلت
ويطلبون
##عيذك
الهدايا
قلط
واحترق
alarabiya
قصدهم
صحتها
لتحفيظ
عايض
القاهرة
eb
الكذابين
##نبوا
##ليله
يثقل
عبدالعزيز
المستقيم
يعده
اليھ
ﮭ
جزاكم
الفريد
البدو
متعاطف
لروحي
##ارضه
الخريجين
بالفر
الحدود
يضحي
##حملون
##وتني
ولقيته
هوايتي
##قيهم
##فرد
كريري
وفولورز
صحتهم
صامتة
ولسة
تقصيرك
الغلطات
ناديك
لعلم
user
ستدان
واسقاط
هالحزة
المراره
فزة
ﺣﯾ
اند
بتفريج
جيم
طهران
صلواتهم
الصحفي
اهلكت
التكيف
##42
ابداعي
##ولاته
الخز
بخطوه
للنجوم
التعذيب
الروايات
انتما
##اضا
اطيقه
باكل
##فرة
ارتج
فلوو
حدثني
وابغى
تتمنون
والصيف
والجبر
وربنا
ومكانة
وشيمه
هواه
##ءء
المستقل
##نزانه
يسمونه
يختارهم
الصده
بفعالية
الماد
بط
كذاك
نزعه
##orld
تنهرهما
فضع
ku
mat
بتدافع
ترضينا
اوجعك
يدعوا
نجمتين
بعظمة
والاقي
وسلوك
اوجاعكم
ومرتب
ومعك
همزه
طلع
سعودة
وابصارنا
شطر
##ﷺﷺ
##ابه
##ينيه
##🚬
توكله
##للط
عساك
صلاحا
يوفر
##فاك
لانتق
صرفت
عبارتين
يضيفكم✔⭕
الوجوه
الجغرافي
بيليتش
يوفنتوس
تامه
##😭😭💔
السافل
القسم
يضيق
فرجة
الكذب
dif
رواية
افاا
يشركون
وخس
نفخر
استنار
تصريفه
الهاربين
ماتوقف
بيدافع
لسقوط
##ودد
السادسه
##حكيه
بادق
خليك
١٩٩٠
بياعين
fajr
فاطر
الصامد
ماتعود
مشاكل
ينتظرني
ب100
ﺇﺟ
ال3
بتعدى
ملينا
cop
وتشكر
ونسب
براكين
لور
ومحب
كنفس
تقله
الهدهد
العاهرة
ممتلكات
ارسمك
جراحه
اذهلت
غصون
زملايي
##180
##نعام
الباري
خيسي
يقهر
والكلمات
مبروكك
يتغمده
سولفوا
المعلمات
ذنبك
##نباء
تنكصون
العاديين
ذنوبه
ﺣﻴﺎﺗﻚ
وكانهم
يحف
##ثنى
وكيلك
يقيمون
سيمون
اخوات
بشده
##ين
سيارة
فكلما
البنادق
قبلت
ارضك
تدخلهم
هناگ
ال11
للنجم
هايبر
ثوب
والصحيح
الكمالي
هادم
بتفرق
ۈا
هنكون
مفضل
##طت
يوفى
صعيب
القريبين
واجركم
عليک
الفرح
##كرت
اللحاف
دراسته
وكلنا
الكاد
خلقگ
مخير
قواد
خلافات
##اش
نياتكم
يجيني
السحابة
الشهادات
##رجانات
ﺑﺘ
##ديدة
المزاد
موجع
بمحت
حلوو
حرامك
الفاظ
ويجب
يمثلها
بقلوبنا
التافهين
الاساتذة
والصواب
ذاتية
ويسال
انتقاء
##ى
بذاته
لنقل
لتشرق
فيران
الجبين
##ورٹ
وعنكم
جانبك
المتالقة
هيقدر
انبوب
برام
جندي
##اعها
يتطهر
##ﺮﻳﺢ
تدري
تفرط
حاضرا
ارضكم
مستبد
همم
والماضي
طبيا
طواه
وفالنا
قصت
وقصة
لاتحرم
٠
يخبرنا
والفال
للانترنت
##ﺮﺍﻥ
الخالصة
رغباتنا
التوطين
ﻛﻦ
يقطر
يدوس
الهاش
المكتبة
🦅
العيشه
صباع
مخرب
طيز
باعمالنا
العجم
شاذ
بانفسكم
العاط
ليعبدوا
هالشخص
الفرحہ
صوتي
##يراد
فبشرهم
البطيخ
بحيا
تفكر
للمتزوجين
الفجاة
اللي
هالصبح
شريك
تملوا
توصلوا
كاتبها
##رفش
اوله
الزكية
الدعوه
##ﺳﺘ
استغفراللہ
حشرة
واصابات
ناهد
خيام
بالعي
ليست
سويدان
الساحة
حا
ﺍﻟﻮ
والرس
ہون
باسباب
تنساك
ماخذ
##طوا
انجبت
للمملكه
##لوبي
الخري
الدري
احتسبت
رهان
مربح
الغالية
مااعظم
madeupword0003
##مدن
ويحفظه
وهدى
داخلهم
متعصبه
عفت
لامواتنا
هنلعب
امانا
##ستر
يافهد
الحيطه
قطر
ويثيب
نتجاهله
النخل
تصنعه
عبدالناصر
غاضبا
الرجل
عادل
حصان
المسبب
مترفيهم
ياسمو
المسيول
قوة
سبعين
واسمع
##حبي
ﺎلم
اهزم
##dc
##ريما
هتلاقيهم
والمعت
##زلين
تقراها
لاء
فضاوة
مدفوع
مليي
🦋
مشاو
والكلمه
##یدی
يحجب
find
بمزاجك
وقبض
ووش
صديقاتك
واجن
استحضار
الرقاد
عرس
وطابت
معذرة
##pop
معاملتهم
وحلفت
##لاية
فاع
بالبراميل
عمون
mn
جمجوم
بالنقل
المقاولين
unfollow
لعيني
❓
لايعلم
للعالم
واوز
العتيم
فف
##غفرت
33
شرايح
الصحرا
الغرفة
شوط
ماهية
رفيعة
وخيره
بتحرك
بالادب
اليونايتد
شورا
التلميذ
الحربيه
بمياه
نطلق
العفه
ينه
افعالنا
اصيل
مانبيه
وتبك
وحضوره
والقادسية
جولة
##خالد
ياهيه
المرشح
والتسبيح
المبذول
الرفاع
مراكب
اشلي
بجبل
حند
يداوم
الصاحب
كندي
مريضه
dna
##حور
بمشاك
يحبوك
لايغيب
فاتحه
##اجب
فاغفرها
التبرج
##world
رديية
للنفط
##اخرش
والكسل
##ربا
الحلبي
٧
بالصبيان
يكفل
اشتهى
الصيدلة
حامدا
والصواريخ
يفوزون
يسرق
الحال
ماردونا
التحضيرية
صغارا
فقدهم
واخرتي
يمين
نظلم
معيد
منتشرة
ثقوب
ويشوف
ريحتكم
تعثرت
ياجعلني
بالموقع
تشيلي
محاولتهم
مدرعم
والانسان
بتدرس
للاستفسار
ابسط
وبت
لتقرا
ماتقدم
##awi
بشرتي
##لوك
##سلمين
والمم
مشتق
حاملين
الباصات
بالكري
هيغواين
##ديات
##نشاق
مايليق
🙈❤
برای
هيما
مقرب
برازيلية
ماذكرت
gust
مشرو
السمنة
##نتون
واعت
##وضيح
زوما
الجوال
لاست
ماجورين
##ضانات
نمارسه
##ضيها
وفين
بتكسر
##روة
##بعيد
اصابعك
يسقيه
يوصي
بصرف
محتلم
ويتمم
السداد
شغفك
ترتديه
الانص
liked
┛
نوفمبر
متواز
١٩٧
غريبين
عشقته
محس
الجذب
اكثر💙
واحترام
الهدي
محادث
ﺟﺎ
امز
تحكم
يعجزونك
وقحا
وتفاني
عرفتوا
وتحصن
وثلاثون
تنشره
تسريبات
غافلين
مرقة
دولهم
##خرو
يشبه
كثيرون
صحابه
##نفوس
زمانك
##غمين
مشاكلهم
صداقة
وغيبتك
ستبحث
تستهينوا
##نور
والقانون
يستمرون
تشيب
اعاننا
ومتعنا
المرشد
وذوي
دينها
50k
٩
الشماتة
بوسطن
الخفاء
قبحا
وتفكيري
استسلمت
احكيلي
گلها
جهدنا
لمقات
##زينا
قاموا
عودتك
بندر
نصيحة
##منوا
##زايد
##يميرو
##ﻼﻣ
عصية
˛
يفاجيني
##فول
عصفور
##اناقه
انهزمت
انتشال
ﻷﻧﻲ
##طيل
🙌🏽
اتجننت
احتيا
الكتل
##ork
بجا
اخطط
ويتكلم
ملتهم
##ﺷر
سعيدا
بانكوك
پہلے
😂💃
حسمت
البنفسج
مدرعة
والثانية
##هدم
وول
والرش
يحبون
نرسل
تبتيس
وتخر
لتنشيط
ساري
##كيج
بنده
تكونى
لتنظيف
ساش
سیاست
جريية
الطواغيت
والاحوال
##حب
##اراتهم
الحاسوب
جوعانه
جوول
##غيثر
##٨٠
##ميشن
تغت
##قح
وجعلناهم
يوحي
امتنان
دوون
نشط
سترفع
السحرية
اباتشي
##ors
وناسة
ﺍﻷقدار
★★
480
حاوية
🙂😂
##عبين
انسدحت
للارتقاء
بالاضافة
ومصاد
التجربه
مشاعرك
اقفالها
يبيلك
تضعونه
rol
الفرز
عازف
اﻟﺤ
الاور
ردوا
معمارية
pm
الرضع
١١٢
يواخذ
ياجعل
الهادية
مثلهم
الرسمي
ال18
وانس
مستقبليه
وا
تلفوني
##قدرة
مركزة
محترمين
##ووك
لايط
##ظى
فه
شقيقي
يتخلص
الامية
الهجومي
معسكر
بالانجليزية
ويزيدهم
ﻛﺘﺐ
مسكنات
وتدفع
الشريك
تمتمات
لقيادة
القطاع
وكيزانه
الشبح
مرشحين
امرا
##ations
بدءا
فرانكو
وشارع
جمه
البوا
چشم
اسيء
سماه
بتحس
انات
##الف
بيجيلي
الشتايم
يضربون
مهو
🇪🇸
الداكنة
تصادم
قياده
فوزهم
وديان
كفانا
يرجعو
اختنا
تخريج
المجزرة
##ايعك
##ﺣد
ابتعد
واغلالا
طعنت
يرجوك
يعنيه
والحمى
وثلث
##اصمة
mina
قومنا
وتظن
##ميه
سيمنحك
##ومنت
المساعده
اصفي
##ﺎﻓ
اسمه
زابط
##حمق
طاريه
##ومتر
الموامرة
ياصديق
##شيلك
ماحكم
##لعوا
الطرقات
والتق
الطبي
خبيثه
فنجان
١١٠
صايبة
سنمضي
مايمدي
##طرس
##فشخ
وصحة
افهمني
الكرامة
يجلسون
ياوحش
سريع
حصلته
##حلها
بالاسم
##ولم
##صدري
صفعة
المعه
تحتقر
##▫
بهجه
قصورا
يابني
##اكولا
يحاكيني
مبكرا
الاموي
##😢😢
بعقولنا
اتفق
كنافه
اصابكم
يهم
محياي
ابيه
سنها
الجابر
ولاتكلني
1600
##واتس
وغياب
التوسع
زاجل
عروسة
رزقه
##اسن
مطي
maroc
عرض
واكثر
مكملة
بية
الحقيبة
عجبي
اتوقعها
##خدامات
الحرك
فوازير
##علوا
ﻭﻋ
##ℓہہ
نفرط
##فورت
ولعلها
المبلغ
الخبرة
وصدقت
جهينه
##تہ
باعلام
فاسد
لعندي
##شعال
ضحكتها
ab
المساعد
الضيق
الكاب
الاصطنا
اساليب
لاله
اليوسفي
##اندة
زعامة
يستجيب
الراحلون
الالات
##وعب
وهمة
فلانه
حالهم
اعطانا
البيرنابيو
##گاه
😑💔
##بول
دمعہ
مبررا
شيرت
بعيب
عدوها
دعني
والريال
شايفين
الشاشة
##لريد
اشكالية
ماانا
نسايهم
الادارات
متجيش
لعقول
ياخخي
ونصبر
اجدادهم
ويتكلمون
البكيرية
لارواحكم
مواعد
العاطفيه
المان
ودى
خلفنا
ومتع
ﺍﻟﻤﺮ
وشرق
الابناء
##112
سلطان
الكواليس
بالسهر
الدفتر
مطلقه
فيحان
غادرهم
##سيك
واخراج
عيشة
مرده
loc
##alahwa
##ناتها
##لم
صحاب
لقدام
المدر
حيط
المسرفين
وابنايها
استثمارية
ومرض
فورمولا
زنجبيل
هدمت
بالدور
اقتصادنا
المجامل
مصيبتك
والخام
بتحبوا
##هايم
سيصدر
احسست
والفعل
##ثات
التحيه
واغليك
ﻣﻨﻲ
تصحح
بشويش
الوظايف
عبرة
بصم
باليد
النصيرية
ابني
لتثبيت
بالمناسبه
والخب
يكرره
##ناب
يحلى
الشريف
##طرا
الدرد
ماجاه
بيديني
يابلادي
مكتبك
جراحات
اٺ
ناس
ميت
ويهتم
ياعسى
mahm
التبيان
ادركه
مسيرتي
مطير
مورينيو
تحترق
وامهات
ﺍﺑ
انصحكم
بعدى
الl
ثمره
##12
لطف
غرامه
تركوه
الظل
ﺇﺳ
ونامت
##كروس
الحقيقه
العفاف
##96
لمنصب
زيهم
بصدقهم
واصلا
ﺱ
بشرنا
بيتفرج
اجلاء
اللوز
للحرم
ﺣﻴﺎ
يثرثر
##ترجع
للجيش
وكلك
كوورة
بعتقد
للاحت
يتوفى
قراء
سلامتها
الاكرام
واختلطت
مسيرة
قاطعا
غاية
14feb
ليغ
والكفر
المتطرفة
نراك
صباحات
##وفق
ﺍﻟﺸﻮﻕ
②
##طنك
ساست
المتوفين
الشهد
الجزية
##ﭠ
بنسيان
الملذات
وحزنك
كلوي
التشريع
##ﻴﻦ
صحى
##كشن
بقدونس
خادمة
نتفق
##كتفاء
يجدر
ووطن
٣٧
حاط
لنصل
##ک
محتاجين
ياال
ماتصلح
الاتليتي
##ﺩﻩ
merc
زملايك
اتابعه
وليد
تماما
وقط
##رشد
##وبات
##ضغط
##ادنا
مراهقين
ينعم
الجامعات
😂😂❤
ﻧﻘ
تمدد
##نقت
زعيما
people
وتفيق
دعى
وسيظل
عبدالعال
##واعلى
باللغ
##🙇
مونسا
العامرية
مشاعري
باكثر
وجوار
فلسطينيون
بلش
نحضر
بطاقه
يتسرب
للترحيب
طفولتها
الطوا
والدواء
بجه
فل
😌😂
الذراع
وخاصه
تقلي
وفرج
نمثل
ﺎس
المخاوف
السخيف
وتساعد
اوصلها
اجتهد
سجوده
مخدرة
استغفار
سمج
للاماكن
وطري
قولي
الثمانية
ياخوي
اجربه
لتميز
دلني
البرية
اووي
##ذاك
والبوح
عادتك
ورده
بفق
الدهون
الشقه
##عاه
بتسم
والطلاقۿہ
قيود
موازي
جابك
المملكه
اعترفت
فشوهته
wa
##امله
٨١
مسوولين
##اذا
تهان
استقامتك
وعاد
وقذف
العنصري
دياب
الباطن
##ٱني
الواقي
قبره
قادة
hah
bb
احميها
مبالي
دماغية
فاقسم
check
وتفريجا
المالديف
يزف
touch
البرنس
الرييس
##خته
مصلوح
العلق
واتساب
علنية
للاب
##💜🌸
سمايي
بذگر
مكث
لاصلاح
##ساك
وارحمهم
##w
فسد
لمعرض
بعشقها
نافعا
اخرتهم
ويرضي
وخساير
کشور
انتش
لامت
اولتراس
يلعنهم
اغثنا
خلوة
ولاعاد
يرضون
لتكتشف
وظيفتها
ﻻﺗ
والقراءة
ونظ
تثلج
انيب
لولوا
وضياء
تاج
الشيعه
وتبر
المتمر
لضحكتك
حاصلة
ترس
المعني
##طك
##elive
يتدخل
الضالين
الزيكاوية
ترزق
حضني
والعار
##می
بيوقع
##㊗
ﺍﻟﻮﺍ
لزيارة
موادع
غيرتك
حكمته
الدرس
مجدى
نسيتم
شعوره
##✏
تعايش
بندق
الكثيرين
nab
السجد
##aku
دحين
تكتفي
جهات
خرافيه
للاعلى
والمقام
##ron
تجعلني
##لبي
والتفكر
سٺ
mam
المشتركة
ياخى
بشفايه
جهزي
مركزي
يريكم
ﺑﺤﺎﺟ
شنبه
ويرفعون
ينزاح
##صدد
لربك
##ربة
##درة
المومنة
والذكرى
ضيعها
منزلش
بهكذا
عاملها
##فظ
💜🕊
والارب
تورد
##رقان
همومها
اطلت
ووتش
مدورة
##وعات
ظبط
السوها
مضايقة
قاط
##فتوح
حلاة
ماعلمتنا
نطقه
بالمنطقه
##يفا
ورانا
حما
بخشوع
صان
لمدريد
##حت
الذاكرة
##برتك
الشيء
ﺗﻐ
##التك
حكموا
مازال
محف
وادرك
المبين
للبشر
التشريق
والك
جلط
وحطي
تعليم
العاطل
tunisia
ويحبس
990
##روك
كهدية
15
##فتحوا
##ﺎﻟﻰ
لابت
هالكون
شقيه
تضايقك
تهمني
مضمونها
سوية
بالف
معتد
اتراه
##سفش
ﻭﻣﻦ
##orm
بتفر
نعوذ
ليغرد
الاندونيسي
##راش
للعب
##فسدين
ﻣﻔﻴﺶ
صرخه
ومان
عادلا
بقوم
لتوزيع
##ملكم
تنل
لاجر
وده
اسقاط
##ڱ
اسمعوا
ﺧﺎﻟ
يدل
فيني
رغي
يانا
والاهل
البايسين
چات
##اءات
قديمة
الاش
وحلق
بسحر
فعلية
مجرم
##ﮬﮬ
بماء
يكملون
واسعدها
افعاله
تاخ
اقدس
افراحنا
الفاروق
قوموا
وباء
اصرف
ارتكبته
يبلانا
##بره
بحري
غي
يع
فاخ
وحبها
هجومي
كثيره
لسلطنة
البلدان
طينة
حفظك
بالسعر
بتيجى
ابصم
##عدون
ماجور
متقدمين
التصويت
##z
لخوض
##عداها
المغلقة
وصديقا
يهلك
الراشدي
المحرمات
وبورما
ومبح
واوي
مدنية
يشجعون
الموجوده
كتابها
نفداك
##ازه
والزمالك
بكندا
اكليل
ﺗﺴﺘ
ۈال
15k
اسلاميات
##زيو
المحامية
##عاود
بجري
سعى
❤✋
التوعية
ينفعكم
يلاحظ
يقرب
بفيديو
نبالغ
السيطرة
انقبض
17
##ee
تبيك
##اييات
زوب
##هزاء
ماسر
رقعة
الحدايق
نادمين
دكتوراة
الباب
والسكينة
والشي
ماتكون
يستقبل
نصمت
##ﺟﻮﺩ
بسييات
انقطاعك
البومة
وخطيي
فابدا
ﻳﺒ
مولمہ
التنظيمات
ﺗﺒﻜﻲ
لايحة
مانشيستر
الجزل
ﻭﺍﻟﻤ
##aa
الممرات
العتق
##نولوجيا
ملكه
ولاتحصى
##جو
بروعة
حبک
لقو
اسقنا
لبلاده
لالعاب
بالفرق
واسقها
يطغيني
واقفيت
🔨
والمجد
لخالد
##ده
بيفور
شواذ
ادرعي
مسجدي
##ابت
الفسوق
تيشيرت
##همر
دونت
##وجات
كاحد
الغموض
تبوك
وجبت
ستدفع
بالتكرار
ونواف
🌹اللهم
✒
##حقه
بتدمير
قراها
للان
ran
للمشتركين
💜🌸
لقرار
كيتا
ونايبه
ونبرا
##اشة
##ﻌﺪ
كتابات
وفقير
##dle
##روون
لفل
وسلس
توجل
هدفا
🏁
البال
بختك
ومحاكم
##ﻤﻲ
american
ونصلي
خرووج
جازهم
التيم
##بير
لاشخاص
اثمرت
الهبد
الوحشي
تجيبي
##لفر
تحليلات
العراقين
باتت
حزبه
لمنا
لنعمل
للست
شات
الفضايح
امنيات
وسيعلم
يشفق
يعقلون
نجيب
##ذهبي
محتله
تجعل
يتشدق
##ومية
تعقل
طالها
عودة
smile
##لاغ
##چر
الدكتوراة
کیوں
حسنا
انعمنا
ابوت
بكثره
غيرو
گا
البركان
عاجبك
اختراق
##فوسنا
ال24
ناط
##✥
التكنولوجيا
سحا
اللطافة
لليبيا
ساع
عاهدت
لروحه
حاطه
الكنت
همجية
اعوان
وتنسيق
تبلغنا
اياتنا
العالمين
مشهورة
بنتفرج
للاجهزة
👐
امواتنا
بتظهر
وبم
والطيبون
##١٥
العصف
مصح
متخيلين
بالغالب
بده
ذهن
قيا
غفيت
الاشجار
اميل
عايزهم
تحاوركما
المهيري
##واتنا
##ج
الدايرة
طب
وكوني
المناسبة
وسنه
تكبرين
يجيلي
الرعية
##ﺪﺁ
قاربت
للثورة
واحلم
السوفي
هناا
الصلاحيات
##ﺂﻧ
الضربات
تجرا
طرش
تيرم
##لاقتنا
ياستي
بيها
تقربني
##يمك
😛😛
لاجية
باحلامي
فبعضهم
##m
الترتيب
##حود
ربگ
yemen
f1
##لهام
بتاعتي
بحزم
والقا
الانتاجية
اسيلة
##طعت
التقدم
الشهية
##فاد
الايلاينر
وعموم
ويرزقني
بالقدس
سوان
اخيك
زيارتي
##عجل
افتقر
المقابل
اغلبها
والبيت
للابتعاث
متابعينكم
وحبنا
##rol
تغييب
يخلقون
tell
الرواس
♥♥
متوحد
معود
##ايجه
منسدح
معترضة
وكبيرنا
التنهيدة
بجمهور
وتخطيط
ملة
مصرى
وﻻ
وخطير
شهادة
والمتابعه
وضايق
رجوله
والموقف
وﺎ
يبق
ضره
قصدته
هتتح
انسي
والتغ
مرجون
فاستجبنا
مجهولا
##زح
العيديه
الخيارات
ابختصر
##جز
##te
رصيدك
تاهله
مضادة
##ولاتك
المرتبات
الناصرية
##رشيح
sad
امنياتي
السابق
وطنهم
باحدى
ﻟﺤﺪ
الوطني88
##اتنا
لحضرتك
هالوقت
مشاركت
وراحت
للتصوير
المظلة
سيشفى
تلخص
##سعاف
##pl
##يدز
تمساح
الزنج
يسحبون
تبونه
المستشارة
هتمشي
حضنك
بحالهم
فحت
ترغب
اللاذ
تتحب
##اثرت
لاتعطي
بقوة
الناقلة
النبوة
##لابية
يتعارض
##خليه
وطولة
گثيرا
الاصد
سبايك
للدواعش
نتوب
قرايبي
##فاوت
الهد
الاطوار
وتبني
##كمله
اربعة
وياتيك
##وضع
##ثيه
شنبك
الجبلين
تطمني
##ظايا
ﻧﺠ
زلاتي
جماعت
وتسليم
معادنا
##🙈❤
بداخل
استخد
منزلتك
ومنت
مسببات
مظالم
##ثلون
لصديقي
صاعد
واعذه
متابعتها
ﺂلح
زوايا
وينفع
وثبتنا
##صاله
##ييا
وظايف
ضيفي
##فه
اوضاع
تعرف
لبدء
##ضها
عضلة
تسقيه
وترس
ويطاف
لردع
ظلت
##اركون
تجي
##نيم
نظراتك
##😢💔
السياسة
فاذكروا
تقود
قفلوا
تسعدني
##74
متفكرش
كيفكم
تصيبوا
ستوريدج
هالمكان
تردد
الجاهز
هندوسي
الصفحه
ولايه
واسبل
امتع
👍🏽
لوجدوا
بديلك
بزهق
جوي
الازهر
ذمته
بشعور
##عملة
تقوده
مواز
##اتهم
##حش
واجرك
محترق
والطا
ﺍﻣﺎ
للدعوة
##بيعي
ويتقه
تموتي
متحبش
##بود
الغربه
ضيفنى
واخبرك
ليتني
حيل
يونان
نصرهم
راسنا
ضمي
##ﻤﺪ
والارزاق
جابتك
يستطيع
ترجمتها
بالحكومة
##💜
يالغالية
كلامج
بجده
بند
درست
الرضي
المنور
وتظل
هالتغريدة
حولت
هيتشول
موست
##نة
وتشي
الابدية
نكاح
انقا
اقوم
قدرتهم
ماتحس
وقانون
بمح
yes
ﻭﺍﻟﺤ
تفنى
##غالين
يقتحمون
بديله
صناعة
الدوحة
جاكم
تسعدهم
🔴
اقاوم
الشيعة
احمدو
عايد
المغت
ﻓﺮﺣ
انصارا
بالبحث
اعلامهم
ينقرض
est
ووفقك
ميلاني
واخت
والبح
ندعو
سلكت
باعد
السباحة
محملة
نفذها
##ليي
ونفكر
تكلموا
صنم
عجوزا
النهاردا
##صرى
الاجتماعيه
##قار
وزوجها
الاولياء
يعذر
الاربش
بابصارهم
الركعة
القبلية
اغراق
باشك
😢❤
اتوب
##عبدالله
مقلوبة
الربيع
المس
علبه
##👬
وهيه
تطوي
##حين
تزايد
شديت
تابعي
الفراغات
سيدفع
😩😂
وشخصية
##قعه
علش
دعايكم
هربوا
باحساسي
وبراءة
اعمدة
كيميا
صادف
موعدي
الفاتح
نهاد
فلا
ٱلح
اليسر
رضينا
المتصدر
لوطني
مباديه
اضافية
بست
الصحراوي
##وانب
##رتاح
##حكو
اليابانيين
اضحي
مهارة
عكسها
بمض
👇😂😂
بصلي
عانقت
ياكر
امتصاص
بانق
منعزل
اجوال
مسند
السرير
التصاريح
البارحه
وانصرني
ساتر
البخور
##فوهم
يغارون
نستمر
شياطين
ولافي
المقاصد
فقيدنا
صيفية
تنطوي
بالفس
الكاريكاتير
مشهود
حمايه
مظ
النقال
##اقها
نرمين
وافلام
فامشوا
تخبرك
قريتها
واهلك
والهوان
وتحديدا
##المر
المقرب
اللاب
acc
##ايمنت
فقراوي
الاية
عظمى
للتد
البلي
حدة
القح
##ايعة
##ۄ
كمع
الهشتاق
قولتها
تجازني
وانقض
ثناء
##علا
للمنافسة
برضوا
الزوق
افتقدها
ابتلا
##isi
ماحسيت
يقولنا
بلديه
##👀
والاربعين
وروا
النصر
💪🏼
إ
بيحط
الاتي
المساج
##ﻤﺖ
القراءات
البايسة
يجرجر
ستحب
ﺇﻟﻪ
باللوم
199
##رجلات
سوداء
مويس
وكلمات
فكلنا
مبلغ
هدانا
بابين
متردش
##عد
السيرة
العني
تعش
##🚗
دے
لفهد
والفرقا
ارهق
وامور
صحتين
##بوت
الانفراد
متعاون
رحيلهم
##غطة
اليما
يامعلم
ضيي
يستغ
مالد
الليبراليون
نوعي
عظيم
كحب
##دقيقة
ابلع
الاسماك
مشاكلي
سمب
##همه
والاصرار
الاقربين
ﺻﺪﻳ
وانهلت
المقاط
حسا
بالحب
لانصار
##اك
سنود
##ﻛﻞ
الاغنام
جمهورنا
الغربيه
طموحنا
وفضلت
الهبلة
وكانما
ۊ
تتفاخر
وتتب
التحريم
وتنفيذ
والاثار
نعلمه
يراض
##ويش
العتقاء
اسعاد
واضحك
حقيق
تلج
ينقش
يستحون
##ثوا
حياتهہ
فوالله
يرتجي
التكفيري
ﻛﻠﻬﺎ
اوز
فنانه
##ﻟﻣ
ووعد
◉
##ﻟﻟي
##هدى
نق
ناصيف
وهبك
ينفث
بعرف
النجم
برهم
تبرعوا
فارسلنا
##🙏🙏
ويسقط
لمزيد
حرزك
ابوصيبع
حمة
ولاه
بمنصب
المند
##ستات
##ﺎﻡ
فجا
الموحدة
0536
بواجب
بجلد
وايقظ
ميد
شيقة
لموسى
دونغهي
##شيستر
تسطر
الكايد
واغث
مفاتن
##راحي
تاكلها
لحماية
بجدد
##👦
الكفن
وفكرة
المستضعفين
لاشهر
متفا
وسوريا
عواض
##نطلون
اوجع
واكتفي
رافض
الدبلوم
استراح
عليھا
##كما
واجتهد
متخلفه
##دادية
معاج
لوسمحتي
تملكها
##داقيه
بوية
🙂💔
يعرفونه
ويجر
نشوفكم
مرعوب
قرح
معنويا
موامرات
##ورم
نيست
وكده
نسمح
يعجبك
نادين
فيين
العندليب
شميت
##hah
ﺭﺑﻲ
اسكني
اعيادكم
كد
وامال
الانك
المزي
##oh
حيلي
رتم
نعدهم
المبررات
برت
وابرز
##sg
##لڤ
مهينا
لااع
بعثت
اعراضهم
السليمان
ساتحدث
جنت
الطبل
لتشكيل
اﻻح
ممطر
وابصارهم
ينمو
بيرق
فسحة
للمصور
يواسيك
##ێک
ازدادوا
بيبقا
بلحن
عيناك
بتلاقي
المرابطون
والقناعه
الجموع
لحماس
امنهم
##نزانة
استماع
مט
يفز
##ثيم
صعوبة
يالا
✌
سوشيال
اسيوي
com
خصله
انجرح
##عادل
تلقاه
ادامه
ظلامه
😱😱
هاد
خط
شفاءا
ويحس
اشتياقك
العالمية
سواتك
##🇦🇪❤
مشاركتكم
اهدى
علمتني
استق
كبس
رفضوا
عرفتها
محلية
فالكون
واتح
فصلي
اوريك
##ورش
##²
وتذكرت
متكلم
السو
نسو
الانوار
خوخ
##شتياق
مهمتك
وكفي
الصحافيين
##ضيني
كاكا
العقارب
كنايس
المليارات
##😇
باغلاق
بالام
تمكث
ex
احرس
ارسلته
اوامره
##ﺣ
ذاتك
محافظه
الثابته
سوزا
1439ه
فسقى
حديثهم
💝
##ﺍﺍ
بلشت
للتعويض
الاسكن
بساطتها
للاشقاء
بالميه
سلعه
يجدد
مثلج
كييبه
الاخطب
علين
دوول
لوالد
تسموا
##ومترات
مونت
سلبيه
تياس
عواقب
##رفزك
##امعات
المعت
الميكاني
للمسلم
للسوال
للتغريدات
##inder
والمراجع
بتبادل
بذاكرتي
##بگ
افطر
##━┅
🌻
وبيتي
القروب
تهاوش
530
يختفون
بالعباد
حسان
اوسع
بوتن
نسترجع
تضا
للعالمي
المخلافي
##رايد
فقدت
كانه
##بيلة
اتعمد
يلفت
بالعشق
المنتظرين
والرياء
ماذ
الشقاء
##or
##كبرين
المتوقع
##واتهم
الحكوميه
قالوله
لحظاته
##لندا
سيسك
البوكس
رمشي
##وديو
وتفضح
متحاولش
##لبريك
اتشقلب
ويام
نستسلم
##الوقت
تتب
احضار
ﺎنت
اطعنا
واليدين
ارقد
##اليوم
😂💪
المعي
باكمله
المفرطه
اجمع
يحدث
يعلق
اتفهم
ماجيتك
الجار
بالالاف
اللقطة
بحبها
[MASK]
ابشرو
حكوميه
لتست
مليت
##وازي
تعيشين
##oll
لااله
ويرحمك
نشتكي
##لرب
ااخر
##كنش
للفريقين
##هرب
طبيعية
وقسوة
🍁
التعجب
وعايشين
ومدينة
وايقنت
كولن
حملت
##ual
والسعة
ﻋﺎ
قمرها
اخوياه
بتسديد
تكبيركم
فارغين
واشتقنا
تواصلكم
شوونهم
دجلة
يبرر
يتيمه
اقله
خاوي
بتحقيق
##رادي
شنطتي
احتياط
ﺍﻟﺮﺟ
ولم
مستحقة
المغني
عنصرا
الصفويين
الشيشاني
١٣٥
متمني
تهادوا
واعلنت
اجرة
المنفذ
ضميني
لاتواخذنا
قصدج
والاموال
بصورتك
رحال
##لv
القصير
##ناوي
بواشنطن
بالاجماع
الليجا
يملكها
السنه
##بيوتر
ومعالجة
متكامل
##جيم
جامعه
##لبا
ويتم
##كوك
خرافي
مكانكم
رقصة
والبنت
##ival
لحك
مشكلتهم
احسبه
فعلنا
رفاقه
تسرفوا
يوثر
الاسباب
الانظمه
كويتيون
##سط
سيضر
السلمي
حساسين
##اعرة
لمونديال
توقن
المزيفة
لاكت
صافيته
##الكريم
متبر
##g
##لمتين
سوالهم
صحيحة
الامها
بمتابعتك
مخبيه
فجعلناه
الحجري
اكسو
عظاما
مخالف
هديت
يثير
الحمي
همومهم
وتاي
بيكفي
اتاه
يلين
الانمي
خفى
##غه
الغوص
وهداف
❗
جفاف
يجتاح
سبحانک
الابراهيمي
وعذاب
بيتر
تقريري
مصابيح
وحصد
الاداة
اررحب
ناقصه
وفيات
بجناتك
النظامية
شهير
##رفت
##اد
نايبة
الرابطه
احرجتني
تدار
مكانته
يجيه
##ien
ستن
مبدعه
##اق
##ﻴﺒﺔ
riy
للاج
بيلم
الساده
نفسيته
فريدا
بصر
شرعه
يعلمون
سهيل
وشغ
القليل
بدايتنا
حرقا
ينفك
مجدد
نحمي
انجي
لتسكنوا
فيوفيهم
اتوا
سلاحا
المحلي
يغدق
والقبض
اجرج
باعت
البوابه
##٣٨
واش
خرابها
##نہ
واسبانيا
art
يقاس
صاحبته
وقاوم
البلاستيكية
اعتادت
قده
👈👈
##زين
بالمنطقة
كلمنا
نظيفة
strong
ﻓﻰ
##الاتك
بطالب
اعو
فدنيا
05300
اهوا
##ل20
ﺣﺎ
##وبى
تاكدوا
والشك
لحاله
مدكر
👇🏽
##بص
اتزان
بالمحبه
نخدم
التحكيمية
انصفوا
ˆ
فدمر
والانتاج
##ووح
الخليفية
دولتكم
ويعتقد
ومطر
بطاق
سبتها
التضامنية
مشاء
نتاع
فالكثير
😠
##حرص
##عدني
كالس
ترتاحوا
التقلبات
😒✋
والحقيقه
الدراسيه
##حاب
جلاله
وصيتي
الادوية
اعذب
واشت
الفجيرة
تنله
اقصي
انقط
يعيشها
فجعل
للعدو
##ربات
بالاط
صابرة
لايحتسب
ماحط
بساعه
الثانويه
لوين
##قبة
خيالهم
الحذر
واحلامك
بكير
##ﺎﺻ
وفشل
يعودوا
مستفزة
بيانيتش
dent
فانتبه
لحاف
رجعني
بالجرح
الشفاف
ارسالها
كز
تصرح
##🇨
القه
دايره
ادام
bet
وشيوخ
منسد
🇪🇬
##بيها
شركات
تنساهم
المنخفضة
يولم
استوى
مجد
هرولة
ويرحمها
exo
للنسيان
تصفو
العبرات
منغ
ﺑﺎﻟﻤ
وصحت
##ﺎﻟﺔ
ليخرجكم
##ذوقوا
موليها
صالحات
باستطاع
نشد
ليذكرك
##🇵
اظلنا
مهازل
لتفعل
هجرا
juventus
يتساهل
ياجماهير
##فايه
الايا
لااخ
التنوير
باحدث
##بابيك
😂😭
يرونك
##للمتواجدين
سرقات
التربية
للنادي
واستقرارها
كثيرر
المتنقل
بحبيبتيه
المحرضين
لتاف
والدعوة
تتالق
152
ملحمه
للفيديو
القرض
فرادى
نساييه
كيذا
شامخه
سنموت
وعاف
ابها
فريقك
الفراخ
للبنت
الكندري
عقدها
يحبس
اتضح
##نديش
واموالهم
محدا
##هاك
تعمى
غوش
##راييلي
ستاخذ
تفه
البز
الملجا
##قدين
يخيل
اعطاني
باج
بمدينة
وديني
لصاحب
تابوا
كوفي
تردي
ايما
ويمكنك
الدوادمي
وممكن
ماقدرت
رجوى
##self
الحجازي
ارحب
الشموخ
غير
يوصلك
مقصد
##pg
احسنوا
صمم
خاص
تداعى
نحوه
⭕⭕
لسيارات
منبه
رايا
بينكما
نصحني
ۈسلم
🎶💙
البدلات
ايڤ
##افظ
##نى
ساخ
اليابانية
للامه
بالاخير
##elsebai
جهنم
مدينتنا
مقتطفات
استمارة
لقاح
ﺍﺑﻦ
بالرتويت✔
مبار
ونجران
ليكذب
##سكم
الطلي
##نبوع
سنه
بمولود
خلقہ
##هرة
الزاهر
البنين
زيه
محرق
نبذه
وارهاق
كتير
والواد
ايس
يتالق
احسنهم
يبطن
وارادة
تعبث
وسيح
شوقنا
نوايب
يلتحق
متض
الظفر
الاجدر
العماله
##زهور
اﻷ
اللحين
برى
ﻣﻤﺎ
والزمان
معز
1234
اجت
الماضيين
وسافر
اشارك
واجهل
المهنه
بذكره
والملايكة
هالارض
فلح
مهمين
فيمن
##لري
الاحترافية
##نانديز
سراح
ونجاح
روف
سيرفع
يتكاسل
يهديك
بالتف
##ﺂﻟﻟھہ
ترتيل
تساله
##طنين
efhmbrjk
الايموجي
للبرد
ديزني
وتذبل
120
وعط
مضطرة
النصح
##المات
ردنا
حسبانا
تفسيرات
##بلو
زعزعة
##باتات
##قطر
حيما
##ضيوف
🎶🎵
che
واثقة
تتركه
ﻋﻨﻚ
##فتحش
المطالب
بيشه
والسي
فتمنوا
وردت
واضمك
واختفى
فتفشلوا
ايمتكم
عدلي
##شرد
نخاف
نبضا
even
فبصرك
ويودي
رشت
تلق
##rahman
استحباب
##╭⇠
العزيزية
شدي
##وخالد
90
العلاجية
رسوم
##urk
وجهها
تسريب
تليف
السودانية
يحبونا
لتشعر
فقرك
لاتب
رغبتنا
ايده
صواريخ
رقيك
##المن
واحبونا
يشوفك
##ﺛر
التمكين
يحذ
طرفة
##طلين
ولل
امريكية
الراش
للمشي
الثريد
الندامه
وسيس
الاز
والابطال
اشطه
كليته
الجلسات
بطء
دموعا
الانتفاضه
يفهموك
ويشت
وعمدنا
##يرتنا
كاتمه
##كلماته
للبناء
معاة
فاجعله
يستعجل
يتمناك
العبارة
سنة
جايے
المراهقين
وتقنع
الثوري
والصد
اطرح
لتقبل
تييب
يبايع
ﺭﺍﺣ
الكلبة
وسهرت
بامكاني
بهدي
كربتي
##ولاه
وتعلن
التس
اكتوبر
ﺗﺆ
والطلاقة
الجنية
##روه
ابايهم
##داوله
بيضل
##حن
##👇🏻
ونعما
وقيادته
الجنفاوي
تحف
##قند
يمكن
هتش
الابهام
اسين
المراه
جهان
الاستاذه
يادين
التدخل
اتعشم
شفتاك
البقية
نوحا
يممه
والعوض
احس
الحرجة
المصدر
نساه
سيوتينا
قم
مبعدون
الاخطار
يدرب
عاملوا
قداش
اصابها
##emen
توظف
المتحضر
بايمان
غيرتني
عالبيت
والتعامل
وعنك
لالت
ﺑﻮ
تحقيقا
الحقني
للبحث
منزلك
الصلح
وتوه
##وسداد
الطرف
وارسلها
طرفها
اشرف
سولك
تربوية
وفاز
##ives
اتعرفت
البلادي
مهاره
احناا
##نموت
انعدام
ارجوا
مودة
الڪ
ماء
##ارد
يعيد
تفاصيلي
##غوط
يزايد
##👇👇
تولاك
تتجافى
البنود
خماسية
وابو
يحبني
بارزة
تسبي
للبرشا
المسموح
يسرا
اذكريني
حوض
الرعد
سواء
فالط
امتنا
show
دربها
الشقرديه
المسلحين
لمج
اتجاهه
الرستاق
العايلية
الدجى
##ﺪﺩ
##♠
ﺎلحب
مالوم
فبشره
يكذبون
يفضفض
الحل
المريب
##قون
افض
اهداه
مستش
جنونك
نخلا
عبدال
##😱😱
ستص
بتتريق
##ت
اصطفاك
ييسوا
##ذاعة
ففرج
الجنوبيات
سخرها
متماسك
افضح
##بعين
شريعتي
##che
لاضقت
ستمر
الكوي
والرف
سيفك
الممن
##فيل
وتثق
خوارج
العاديه
##ration
اغسل
##جح
تلمي
ذريته
الورقه
المهاتما
طرحة
علميهم
بالخي
حقو
َ
ديبورتيفو
بكتير
بذه
بمنشن
السماجة
تعقب
الاسبوع
قمرة
وقضاء
##كاترة
مطوله
والشرطه
لكافة
##afa
الشاهي
##وقت
وبهج
والتسويق
##شاقه
1991
##موعه
##min
بهمك
الرزاز
فجرا
وخروج
لدعاء
🇦🇪❤
champ
ماتستاهل
التايه
تشتهي
سريت
##حمدلله
باخراج
##ظك
arabsgottalent
وتتجاهل
وداعش
فامر
وعزنا
يحطه
##ﻧاس
مقبل
😘😍
##ذاجة
تته
##ضعاف
نبيع
🍀🍀
تص
جنهہ
وخلص
اعمالكم
تنحني
##ow
الاضح
##جمهر
✍🏼
اعجز
عدنا
##ينج
##خيرة
العرفج
حور
خياركم
اذكارالصباح
##وست
دز
وطريقه
تربه
كحه
للمسافرين
بتست
العنقودية
يقع
##ويتين
##سرعة
اخوك
الكا
تجر
اعطيها
امات
غفله
##62
نفوق
شبيها
جسم
##صفى
نوتيلا
ذاتي
قتل
محركات
##allenge
المفدى
يعدى
ﺞ
##🔙للجميع
السر
euro2016
القطا
##ربص
عطيتك
سلامه
توی
##👿
عا
بانتما
ليفهم
مزدحمة
كوكبا
ازرعوا
اتمناها
ينافق
لقيط
وياكل
##حله
مطلق
##✋
اخوانها
تميزه
المفرح
بفتوى
##سيسي
شماليه
╮●╰
cbc
ايالا
كونت
اجندة
لبقية
سده
لحكام
المكتفي
اﻟﻨ
تتعداك
تتحرر
##عتلك
##واجد
💙💜
##طمة
باليس
مديرها
خرجنا
##داويه
اخفيها
۔
يسعون
قوايم
لباريس
ۆٱ
عايلتها
كالا
##زعزع
سير
ميهم
متوسطه
تخصص
جلطه
بالات
خصيم
ple
الصام
صناديق
تمم
techn
فيمص
صراصير
كلامها
شرى
وموس
قايما
مقبلا
كاليفورنيا
تحمست
فشيله
##cd
❁♩
⭕لزيادة
وانصرهم
المنير
ومشاركت
مغلو
##صده
ras
يالقلب
مديره
المبرور
وفنان
تعيي
مترو
استهزاء
##ادرك
المستقبل
##اهدك
جربي
مصالحة
الابيات
الشال
بمرتبة
تلعن
🎨
صاحيه
بانتخابات
بحلها
##ساكم
والغيم
جاتے
##ذال
لمعه
##شيت
اوساط
حاجا
واحبابنا
هاواي
مصورة
غنى
پرس
تعور
متحس
هالاشياء
باالا
صعدت
بسورة
بمثل
واسلموا
##تذكر
الفطرية
الشبكات
للبار
مبعثر
وعقبال
مياة
نجدد
استمتعوا
يامن
بحاجتك
ومنين
وناس
ويسلم
تشويه
##صفاته
اجسامنا
يستحيل
والاستقرار
##all
اﻟله
احتضنوا
الغيور
##رسة
بالارهاب
يقراه
##يلها
الاخون
##وبيات
يحرض
اميزك
اعدد
اوزيل
##سيين
بلعبة
بلادها
180
##ويحبي
🌹🌹
##👭
جمييلة
الزفاف
up
الضوابط
##براطورية
ويم
##ﻠﻊ
##خااص
الصديقه
##خن
##لذاكره
##ﻳر
##ebook
القناعة
##av
شمسا
##الى
##ورى
الدوري
##نهم
قير
اشطر
الشكر
احبيني
انهرده
موتمرات
اسكب
عباده
##لديك
وتصبر
بغيتي
##ستفيد
تفسد
دوش
رکھ
بشوفته
عظيمة
والكرامة
##نصريه
بالاقت
تشا
ابيعك
لمت
نالت
استنكار
بالضغط
##رافيك
دواه
ازالته
##كلمات
##افتها
الغامضة
الكور
بجدية
ﺑﺎﻟﻘ
عقايد
والمعرفة
انجلوس
عتيبه
##غلها
احضنك
يقدم
رووساء
##خسر
ونسيته
اودي
اليمني
مشاركتي
ڤ
##قشك
وحشة
فاغفرلى
ورعايته
##ونات
خالقك
اتكون
ينظرون
وقمت
اجهل
مفاجاة
واتكفل
##2a
قضيتنا
يسليني
والمطالبة
غارسيا
تنتظركم
##ﺪﻱ
##غبون
##شفيات
بتمشى
فوك
الاسوار
والقاري
##واجن
يوماا
التجارة
جتنا
وثبتها
عشرتي
لتبشر
بادعية
قرقاش
يلهم
تاخذنا
ولما
تقربوا
♦
الطالب
وتشتغل
عنامن
المغ
##روفه
اشرك
الكعبي
153
يوفقج
ونظره
العطاس
##fa
##حتو
بصو
لناصر
امرابط
الشفتين
تستسلم
بالظروف
تلتقط
ﻣﺤﺪ
وتكاسلت
ksa
##نوف
ومفتاح
طلة
قواك
##😂💙
اظلمت
ٱت
القصف
##الفت
ضباب
الاهات
والهمنى
محاصرة
##ونہ
الاستط
يخفيه
مراقبين
حلوه
ايصال
التصميم
الحضارة
ولقايه
هدافين
نطر
انزلناه
تصفية
الفيمتو
عذبتني
يمارسون
##تكي
بصمة
صادفك
القاعدة
قديمك
والعصر
تقدس
انحلت
عزم
العاصفة
##ﻳﺎ
باشا
تشرفني
مهمتهم
الحويني
##ضيء
صميم
مدريدي
والارهاق
الدمام
بجدارة
بجرايم
الحياء
محتمل
مختطف
باندا
لرون
الشينه
عض
فعليك
🔙
والنظر
وسيول
##لواح
قبورا
##90
اتزوج
ثمينه
##غبه
اكييد
بعضك
بيفضل
بڑی
وسطه
مدى
لحظاتي
العطف
يزكي
اقار
ونرفع
متدخلش
بتتم
ويتعلم
معني
باصدق
2017
كفتاه
الساحه
مكف
وظيف
la
##زوز
تجني
دراجات
##طوي
السياسات
ولايش
نحصد
فليعمل
الفم
کچھ
ولباس
امست
بالعجز
امسكها
معظم
rec
لماجد
ملج
الفاضلة
فرحوا
الطلعه
فعاقبوا
زند
##یا
خلقت
week
😂🏃
ﺣﻖ
والمعروف
خطييه
رسمتها
بالتراضي
وعقلك
والاستماع
واينما
الزي
##ياغة
يضع
وقبيلة
تاشيرات
##ضبه
ساوث
ويدفع
والرقص
سكوتنا
##ليہ
الاستقامة
sound
بابها
##ri
خذني
انڪ
بيحبني
shar
پن
يبيني
##ستال
ابعثوا
ﻓﺈ
لاتحكم
تعاق
بسيطہ
الخيب
وشه
##جلي
مھما
عبدالخالق
قدرنا
تحاور
فالعيد
##تابعة
ونفور
ابنايهم
حظ
##ﺤ
بنظرات
النفع
24
والغايب
مراحل
تبذ
سيفوز
عاشور
يخطيون
ازيدك
يروحو
##امرون
وذنب
##va
پوری
##قتنا
واللاعب
عزتك
##مست
اوجعت
امن
مفر
##اجرام
واسمه
استقالتك
نيف
##وحشنا
انتظاركم
البحريه
فلسفات
راسخة
يمتص
يێ
شاد
مفردة
اتقنت
للسخرية
مبس
الجاهلين
موف
تحمل
اعتذاري
##نكيل
براون
لطيفا
موقفك
يصل
##ital
ءامنا
148
تهزه
يصرفه
##فوعة
بخيل
السيل
احتلالها
المستويات
اسمى
شقد
لصار
🇮🇶
نبكي
غباء
اذهب
##بسطي
وذويه
بصعوبه
الرابع
##طففين
iran
تياقو
يتصدى
ينشد
اینجا
دانييل
باينه
دعاة
الجنة
🇸🇩
يواجهون
اقتباس
قضايية
تمناك
جمييل
ﺎستغفر
يالغلا
خياطة
وك
وسهر
prof
الشنقيطي
مختفيه
##وتها
اغمرني
للسر
بحقي
ياجدعان
الشقة
😰😰
نبقا
وغلبة
لجات
##ومتعب
##بتغوا
الهلاليه
يماا
اصن
لانتخاب
واتخذ
اصيله
اسكنك
ﺍﻷ
للفواد
الناه
يمليه
🥰
ولاغ
ﺑﻜ
وازدهار
فسبحه
متلذذين
لواحدة
##تهم
بنزين
##جوع
يعطل
العبسي
##💃🏻
فتحت
البرتغالي
وغدا
##2011
لاحول
الزباله
يلاقي
التنموية
دربي
وكفو
بايظة
اتكسرت
بفقدان
عاجزين
وخد
مايكتب
تتوي
going
##adel
غف
يتخذ
معدوم
##ro
وصعبه
تابعوا
بذل
بتعبر
مسن
غيااب
##شقلب
##عهما
بايات
المشير
##زيما
يتمس
##لطيف
للاخرين
يراد
وشعوبها
عصافير
الشغالة
مستواه
مدبره
مايصحش
يرتك
فالكلمات
ماں
بالقطاع
وحيد
اجعلها
تعليمات
الطابور
لكلمة
تنده
سمكة
جاية
باياتنا
ماعرف
دعاءنا
العافيہ
##شرق
يتبدل
##اليها
للدار
المقصد
تخشع
مستاهله
تخفف
##كيل
لديك
##سطح
لتجاوز
لموازرة
##ايس
الاعفاء
الجحش
##زمن
دفعت
t
ترجى
الحقايق
للدفاع
الحاقدون
اليسير
##ila
فارقنا
واشار
##599
نبضات
وادوات
وثبات
زالت
بدمعة
##ة
##orad
يعينج
اكاديمي
مبصرة
ستقام
##راجعون
وكلهم
واتبعتهم
بابتسامه
لختم
بفتاة
للتبرير
العضو
المتظاهرين
الفضيحة
ibrahim
لهدرجه
يسويلي
😁😁
##ضحية
البطي
##لكس
فتعطيني
##79
فاذكرك
بكن
ونجنا
نستغفر
ابطالنا
الابتد
ﻟﺒ
يسمعها
##كمه
##شاوي
غاالي
اخواتنا
اكتشفت
غسالة
للقسم
##که
سابك
الضاحية
تهر
💭💛
افتقد
گر
يشغلنا
تصوروا
##رورا
المنا
بالتعاقد
وواقع
##وبد
اصل
االله
وكالة
شفاه
رافضة
بناء
قدنا
مقطوعه
بيشرح
يناسبني
نووية
مارق
نشاة
مثيرة
##ضح
لاتنشد
الفرع
##ⓜ
ﺈلا
الصدود
الانجيل
حسبة
والمخت
اطمينان
تصدير
ساقت
سلفية
وموثر
حظها
غليل
هولا
والتعاون
##الفجر
عرش
الشجره
اسديت
الجاهليه
الفخامه
ياعم
للاوابين
مفارقة
اركانه
السفيرة
بعته
الجسر
ممس
amer
العبودية
بعرق
بالمدفعية
تيس
افتكرت
تعاقده
الحجاج
ويعمل
متشكرين
##واة
لخبط
بعطي
يستاهلوا
لمناطق
لھ
لباك
👤
ايقظه
شتي
اثارت
وصحابته
ﺍﻟ
تجده
رو
##سبورت
والاحكام
خميني
مستهدف
الطقوس
فضيلة
##ﺮﺣ
القدي
ويشتري
للعم
يحول
مصابنا
##عيين
تحمد
دوران
ﺭﻓ
ﺁﻟﻤ
بحسنة
تقنطوا
##درهم
##♩❋
يرجف
##😄
##عهن
##خدع
مبكرة
مسا
##قااء
ابعدها
٢٠٢٠
قوتنا
😨
العال
العارضه
تذاكر
ː
الصحيه
الزيارة
ولايزال
وتذ
يحرك
انجى
عقوبتك
##ﺚ
ابشري
##🌕
##مسه
افتقدك
زيا
ببجي
لدينك
باللقاء
##عدن
لاستهداف
الورود
بغاها
اوتيتم
خالقها
بدلاء
تعينه
للسلامة
مظهر
رقاد
##eed
##تطبيق
##ﻇ
لنتذكر
##یی
وخفف
والطيب
##┋
##يبا
##ﭑن
فقيل
اتاثر
وتحاول
نومتك
مفبركة
عاليهم
لاتكره
ﻟﻲ
باختياري
تشح
واستع
يتمتع
للعمال
جنده
قلبين
موبايلى
يور
ابش
حيااة
##فوظ
وتحق
الانفيلد
##ﻣﺎ
بالشعور
نواجه
تبتليني
ناسيها
يداويه
بمناسبة
بزود
الممتلية
ذريع
ﻳﺆﻟ
##لمز
لاكبر
الجماعية
بوستات
ريتو
مايتم
بقيادة
يمة
مبالغه
##ظهرك
تزرع
وتسهيل
💭✨
عنزة
للاخير
##حدة
ھۆ
ويجلس
العصفور
لاتست
##عمت
عظييم
ربعي
اليوتيوب
اغلبه
جميعا
##رك
السيء
للشيء
المظاهر
شفتني
الابط
تابع
ظلمتني
بسكوت
شعر
مذاق
المحبه
##ہی
زراعة
باي
##ذيك
فحكمه
##نبله
جنبك
والاولى
مستنيك
المحتجين
ﺦ
##باك
المقوله
رايع
تضعها
وحبه
فاستعن
والحارس
نجح
الابج
الطرح
طالبوا
##ذمر
##ﻴﺌ
بغرض
بالواحد
والطيران
نثبت
الاشاعات
مسيل
للي
اكتشافه
ﺍﻗﻀﻲ
الزفت
قوته
الابتك
الاورام
الرزين
##❄🌷
مسطول
الرمش
لجنودنا
شيبه
الانفص
مكثف
ستجذب
بلاد
سوو
يخذ
كالسيف
واتق
والوقار
يطمين
##ستان
سيصلك
المهمه
قذره
عيسى
اتبعوا
للالتحاق
الاندلس
بران
الجنسيات
ديار
حدثه
معدل
تمهيدا
##سلامة
##والك
الجمرات
اشقاء
بقايد
للملي
تصفع
tdarab
هد
ديجا
لتيم
زادني
استشهاده
##ييه
جنتان
ساعدوني
جيران
انفسكم
المسيب
باخلاقها
وحفظكم
##قلوبنا
شخخص
وعمل
فيا
بنعمته
تاء
مناع
بقيمة
واستوعب
شخصيته
جماد
سبيلي
فحفظهم
يضحون
وزيناها
وجلالك
##زاكر
قبيل
انهوا
ادريس
##اكل
ولانك
ويبعد
وتره
مصدقك
بصلة
لايعني
صفق
##🏃🏽
لكان
بلز
##خذ
مهزلة
يالغ
##حملش
##لير
جلت
العظيمة
##قرات
فنج
يسعدها
نطبق
اشغلنا
##راه
والقي
##واء
جاذبيه
ضغ
ععلى
وتقرر
وتقليل
مدافعين
بالخص
عذرته
وخلو
البار
البندري
كربتنا
😂😂👊
وقاحة
##جلت
انجليزيه
طيبي
تحتاجون
ستشهد
##ara
##ez
##قفل
بة
مداهمات
سكبت
قرارت
وصيانة
والعالم
ولاير
واسرع
مراد
بغيره
واستق
كونيه
##قبلا
وتسوي
ليعت
فيي
ستتح
بتتمنى
ﻟﯾ
##ﻴﺐ
فواته
المقامات
يسرني
تجزي
اكرهه
تعيدك
ehs
##دوفسكي
باحت
وكيله
##قتصاد
عجبه
البراءه
سيتي
اقفي
##ﺜﺮﺓ
شرارة
بنيانها
مامد
حولوا
##راحات
خطب
رسالتي
batt
ذك
مسيار
المقدم
##قس
قز
##🅱
خزينة
المحاضر
معطيات
ارده
ماكتب
الاناء
##فر
واصف
تخطر
##لاوه
بالتمني
اللهو
الهول
بتوفير
التعسف
باللاعب
ونق
##هيان
##طنش
نتقن
مغيب
ﻳﻌﺮﻑ
اجيب
بالكتابه
28
عوار
للقلب
##فل
##نوفمبر
تاخير
بطبيعته
شرورهم
نيكي
تخص
##action
##سابق
ایم
ليسجل
مايحتاج
مطالبات
السمك
##ition
بيستاهل
والامه
حريتي
فيكتب
انقر
الغاليه
فطوم
حاميها
ويفتح
نصيبه
اترجم
اقتربنا
ومري
بالغدو
الكت
يتقرب
##estival
بعالي
بلدان
تعبا
اليقظة
گی
يخون
عطاني
واقعا
مملكتي
تبينه
بالكر
##۱
الاوثان
💭💜
تاكيد
ثوره
سمحتو
تحيط
والوف
##808
ابويه
##imes
ﺩ
شاهدوا
تخيلتك
يستوطنون
الجوازات
نقلب
يطقطق
قطعت
بيقطع
وتوفق
المجره
خشمك
حواجبها
دارين
travel
##١٧
اوو
تكميم
تفاصيله
reformjo
انتقالية
مخلصه
اكتفايي
ta
الكعب
لاهله
التساولات
وتفك
مبسم
ويلهمكم
وصيام
التنبيهات
لايصلح
تلبسون
العقل
تجريبي
اونس
المولود
ﻷﻥ
افتقدنا
##للن
يسكت
انسحبت
اهتمامهم
يقاتلوكم
بالصي
بالموضوع
بموج
##واحيها
مدامك
##osh
لحالنا
ﺎلط
اصحابها
معاشرة
##وهاا
بزنس
كونج
ربيت
الفا
خيوو
##زنك
لجيل
يمتنع
مفضلتي
##صعد
الراية
معتقلي
fant
جرث
الثامن
##ﻩ
الشاع
عايشن
واصحاب
##امير
فضحتونا
##فوني
افرا
لوجدنا
وتكتب
168
##year
لامير
لاحق
وبستانه
الشيباني
##زيز
استص
وتبغى
تبحثون
البل
سخر
جبتوا
للمدى
##علة
زبطت
للقايد
مه
##غاث
ياعراق
الشما
تزور
طلابك
اجمل
معاملتي
ويومك
وتح
راها
الحمقاء
الطوفان
جنبي
##صوت
للتفاول
##amer
والموضوع
ﻭﺃﺣ
بظلم
قصار
##ﻑ
السلطاني
تدخل
معتدلة
انضباط
##رقها
يفش
##خيره
##بش
بكتيير
للعهد
التجاوب
##دريج
الهمج
##vice
والاق
انقى
حنايا
يشيب
تسمعي
فاعل
مذنب
الجمعيات
ﺍﻟﻤﻜ
المتخلف
للانام
بددا
بليزز
ادخل
ويحزن
احييتنا
اخلصوا
مدفع
وسلطانه
##ومنون
العبوا
##ﻛﺮ
يريدونك
سنت
##اثير
ينتخب
واحطها
##وخي
التلاته
##ﻔﺴ
عشرتك
ويبد
والليالي
##لگ
##حترم
للاذى
روضة
الثانية
اجلهم
منطوقك
##ايہ
##ehia
ہو
واكره
انسب
##ناء
##ظير
##alli
bio
ومبس
العلي
##ياا
والوجه
الكارت
تزعجنا
موريت
ياربب
فاد
نحسن
فالنهايه
الواتس
كتبتك
تلده
##ichreif
التاليف
يرانا
المما
ابطى
١٢٥
##فاسك
فهو
السماعات
##وادر
امتلكت
اقضي
##ايكم
ابوابك
model
ماجد
الاحراق
117
##وورد
وافعاله
الكحه
يمحق
يمازح
تكفيك
##تاحت
رضت
برقان
##فقات
وشخص
##شرب
اسرافي
الدلم
التهور
برشلون
##ندى
بالحروف
خليلا
والاداري
بربط
##رينك
واقنع
الكي
ونشعر
ٱلا
يشتغلوا
العقاد
لاضاق
٢٠٣٠
ﺂلناس
المتاس
وصلهم
نونا
مستبعد
ارايتم
تعاند
##وون
##يوب
والامام
##حذ
اتقى
سكرة
التلي
##اهرها
لتاهيل
واكفينا
محرك
الدويلة
والبل
التكريم
حوارك
قادمه
اعقل
مستبشرا
الطلابي
لهيبها
ضهره
مدينه
##شتاغ
ضعوا
قدامك
والنع
وجحد
للاستمتاع
محتشم
وماك
النخبه
كلمي
دياره
تباعدنا
##ﺒﻚ
##فقط
احبہ
كتبوا
مشوارك
ﺑﻠ
لتحسين
يامصر
واحكام
##سرة
البولي
وتمسح
ليمون
استاذي
وە
🍓
اذانهم
##614
##days
رعاة
بھ
ستفرح
ﺎللي
يروا
عزايي
##خلوا
ومبسوطين
ضاوي
##🚶
فرطت
المصرية
##فال
👑👑
لفن
ينطقون
والصاحب
##ديين
ہوگا
قرفان
🌿🌸
خاوى
##عيط
مسيطر
فاهمه
يفشخ
الفقراء
غذايي
استجبته
العار
مرتبطين
##ﻴﺸ
مولمه
ادخلهم
بشجاعة
للصحافة
بالمواد
فاجيني
##ايقت
اردته
ماعمري
كتفيك
لطيران
او
اعانك
ﻛﺮﺑﺘﻲ
لغ
المهني
عاونهم
منسي
وكل
ملتزمة
ﻏﯾ
##اليا
ﻭﺇﻥ
##ﺴﻢ
تتركوا
انفجر
لاهلي
يشره
##وعا
دروع
مدرسة
معقده
واشكروا
نقراها
البريطان
والخراب
##ادع
قراءتك
المانجا
لبنت
يذڪر
##هرون
##رايم
ﺑﺨ
##ذيفة
وصام
##بر
القيروان
واجرنا
برامج
والوں
##ﻟﺖ
والنايب
انصاف
وند
والماء
والمخرج
##وللي
بی
تفجيرات
لايعجز
تتمدد
ضللت
##ﻴﻂ
##ec
لسك
بقربي
لعود
تستطع
واخرة
الجاز
لاخيك
##دري
وفاهم
والبنات
اضلا
ربنا
واتو
وحكومة
والاجرام
##فطر
##ﺨ
##صعب
ولامن
الحقيقى
وامران
##fc
وتسبحوه
لهالدرجة
##وايز
تحافظ
اتجاهها
والمرجله
المحفوظ
##ﻴﺂ
تداولا
يبقى
وقدام
للوقاية
جونز
بعملية
##ack
فرغم
##كروزر
يعرقل
وتراكم
واللام
تكلف
##وقها
ذاكرتها
يلبي
برن
نذاكر
تكالبت
السعادهہ
هاط
ايرانية
تسعا
لحياتنا
ضيوفه
بمرض
ظننا
بليون
يبقو
كافة
بتصوير
##راجات
##☻
وتحققت
منقولة
المختص
##al
##🌤
دراستها
العامله
pin
حييت
وبيتك
🌸💭
وجيشها
ليسهل
لايع
مقبرة
تظهرون
سكود
بحضوركم
💭💕
تبكينا
نضج
حرسا
فايزة
الباتل
ويخليكي
##ركون
اخترق
يمشون
##add
بسلامة
العبار
انطفاء
حثالة
تفج
ﻳﻔ
سنية
جبيل
بنفيكا
بب
فطرت
والفرج
معقود
اشاره
الضم
لكلا
##ندوق
ميديا
ويخوفونك
باللہ
عورته
الانتها
المسيليم
احفظوها
كلمت
حظوظي
الكييبة
اقوال
زاك
وبيننا
بخدمات
معم
ليطمين
منتخبنا
وابكى
الوع
راكان
اخبروه
💯💯ضيفني🔛اضيفك
وحكام
ومس
للاشياء
اسرفوا
النوعية
##جيات
الغبيه
##♚
ورزقكم
عطره
للمقا
الترجيح
نحب
##سوف
وعينك
فرامل
والسوبر
1436ه
عنيفه
وسلب
واتبعوا
لحالات
اواي
##داحة
پنجاب
مشيتي
ژ
الرصاصة
##اعب
افة
سيعت
##وعنا
قلقا
زوود
يلتز
الرياضية
والتسليم
بقايمة
المتقين
الفلسطينيون
رجالها
دشيت
لحيته
بعدك
اللهجات
بصيح
##break
لبناء
لعزته
كثيرا
##ﺎﺩ
يتج
ﺍﻧﻲ
##وانين
کہتے
انفك
##challenge
تجارية
##قطعت
المقفين
##فقونها
شاالله
ﺗﻜﻦ
##خصصي
اركان
وتس
ورقص
ظننت
اهمك
بتهزر
مامن
لمره
##جمعات
وحزين
فانصرنا
اقدامكم
والتبريكات
العياده
بضي
يشربن
جنديا
شاهدا
حطيتي
يستحقها
سوالفك
وهنا
كلش
وبهم
الارضيه
~
جيهان
منطقه
سهي
سومر
مسووليتك
الرمضانية
##طعم
التسوق
تجب
المراقب
ومعانا
ثغرها
وضجيج
مدنيين
بعذابكم
حمله
ﺇﻧﻚ
اكرهني
للذات
فز
نسخه
مويدا
للهند
واللي
سيحدث
طنطاوي
##وجب
##ves
ونزول
متسامحا
نطلب
للجد
المتاعب
الجوهري
خطباء
لاتقرب
⤵⤵
للحملة
والذين
##نتينو
اللامبالاه
ومازال
##وادم
ياشيخنا
مساحتها
بعنوان
صايره
ياربااه
صغرنا
بريية
غيابات
سكوب
خالى
التمس
ليص
والبحث
وزر
##وسسة
متناكة
يسعفك
بعث
فيراتي
القانون
✨⭕➊
##اعطني
الريحان
الرسمى
لضع
ﻳﻄ
يواخذكم
وخلاني
ثمين
الثمرة
bre
افترى
تضيفني👏
يحققها
##ويے
ياكلو
كاشفة
عالن
ويرحمنا
☄
##لاتة
نتعايش
المواعين
ابتسامتكم
وموسس
١١
باعمال
مسح
ينصف
اشتهيت
الاشد
يملون
لمنع
التقاعد
تفسيرها
لمعت
بنظ
الحوار
وزنوا
وﺈ
##لنتي
يمسكها
العيدين
وبفضلك
احاكيه
يابنى
بتحبنى
تسالين
يطرد
##غناء
الزجاجة
تتناسب
باكت
ﻣι
وزاري
ووضوح
##🐎
قراند
تفارقه
الطور
دوق
ذخر
وكيل
❤✌
الايف
تظاهر
وحسب
والصحة
##agram
##يفور
المصدقين
تنعم
##🔑
شبابها
سعدون
والهموم
رابعا
الانساني
تنهد
البرادعى
dec
فلووس
يسجل
لنبدا
تبهر
##سابه
##ﻚ
واقتصادي
العلمي
النمط
لايحب
##نزل
##وشي
الحريري
لاعبه
التسول
البساطة
التوت
ماعجز
انشراحا
##هامات
سيروا
وتوج
؏
احسها
العاز
الشن
اهناك
ونهض
😂😌
السراء
عباد
رويتنا
##صلش
##ﻫﻢ
ضيع
وعمدي
وصفا
##تابي
العبقري
ارادتي
مارلين
يدمع
تجرحني
##ذرع
خالصة
للمرحله
ناشطون
##ﻨﺔ
راقصة
المتنبي
الناشطين
بيغيب
##ھو
بس
المتابعة
استلم
وبما
hear
وسخة
ياوليد
الزاد
لحرب
الاستهلاكية
##دموع
والعسر
عيوني
جهودك
انهو
لليلة
ومطالبات
زاحم
احلامك
تقصي
مواق
السنغال
الاحنف
شج
خروجك
معرفتنا
30م
شهاده
اخطاوك
موتة
##طنطين
قصادي
انفسنا
سوالفنا
اشباههم
##ولني
فجي
يصاحب
##vel
تقولى
##ياكه
تتضامن
مسنا
لھہ
الكتمان
##ﻳﻚ
##بعد
اسرفت
اوب
متحمل
بشعبها
بدنه
ph
الاردنية
##شاره
وامريكا
عهدك
نتجنب
والخلي
قولت
اجتهاد
##تز
التهم
لااه
تضيعه
تاليفه
وكملت
الصلابة
غدوة
سيي
الدينار
النكاح
##ارنة
##خية
المزارع
وبلاء
اصداء
تفريج
والحق
الامازي
نيہ
##ﻭﻥ
نسيم
يامولاي
الشرطة
بدعوه
وحدو
a5
خراف
ديمقراطي
التضام
بوحك
قاتلا
le
تمزح
##فضلة
خضم
ضيفو
بردات
افخم
التذكار
عاطل
360
خويك
يعافي
يافرح
مسجدنا
يهر
مختصر
##غرام
ماسجل
٦٢
وتقنية
##💙💛
لتغفر
الوفا
يتن
ارهقها
يحضن
يطبلون
يحله
تمتع
المبادره
يشين
مستفيد
والعلانية
دواعي
##وطات
وجيري
##ستا
يفقهون
ضبحا
رياض
##ract
حمااس
قراراتي
تستغفر
🐣
وتلاعب
سلع
للمحكمة
ينسينا
ماسا
ويعا
والاقتصادية
ﭑﻟ
لماا
التلاتة
اونلاين
التاشيرة
ننع
##لكو
رشيدي
اولوياته
##ايتك
وينسون
ابدء
وابيك
مراه
لغوب
يخش
وتنساني
##صاء
ray
يحاصرون
السخط
الحز
جبال
لمة
المريضه
المتخلفين
كوكو
المقطوعة
وترضى
الرغبه
مايمر
الازمات
##فيك
ايفرتون
##ﺪﻳﺚ
##✔✔
الاخونجيه
بكاميرا
هقوة
##جرد
وروحه
الميلا
ريف
##ience
##لنے
🔪🔪
الخلابة
المطلوبه
مبتدي
افقر
##داء
deep
134
مايي
تكبد
لعايلتي
فرحتها
للزي
تحويلات
100ريال
واك
الخاس
##شخاص
خم
اجعلنى
يانفسي
وصلتي
ودفع
مايلتزم
لسانك
موق
##والف
الشفوي
نفديك
الهييه
تشاب
عصريه
وزمي
استجير
##ﺻﯾ
هيل
ضاف
اجتنابه
معارضة
حكمها
قسوتك
arch
##راحا
القاره
##واته
فورتويتو
##همات
البيشمركة
##ليته
ممتليه
كالغيث
لمرشح
ووعدك
##غاه
بكوا
فقدانهم
ابه
ايموشن
ﺿﻌ
فولو🔙للجميع
يشتكي
تباشير
اتقاكم
بناصيتها
##بحار
واسلوبي
##زونا
##الغة
وعملاء
الازمنة
بيبعد
ﺅ
فولفسبورغ
المتواجد
انتظره
حسنه
لزملايي
ﺷﻔ
ربه
مرنا
##😁😂
الضلمة
وخطي
ظنه
ياتيكم
هدو
##est
ب10
التشغيل
المنى
بصالة
سيخبرك
تشاكا
انوثتي
البطار
حب
فکر
##خرج
تعلمتها
ينفذ
وللك
يافه
##زموا
بانف
سنب
ارقي
المتن
للمكان
يقصفون
الادمان
نفسكم
دفن
منبر
المحافل
لحاقه
##iful
درب
ماتس
البشارات
##صحة
##😤
ضاحكا
واشق
يتغ
الجهر
##ظره
🚫
##انكم
بزوال
حتا
ثروت
افعلها
ﺍﻟﻄ
تدفعني
ويوقف
بكامل
استعانتك
انتظرت
يرف
الفارس
ﻧﺤ
📹
المستوطنات
##لولا
لايك
رءوس
بروفايل
واتينا
ﮯ
الرووف
جلاجل
##✾
نظاره
الكابيتانو
متديش
##ساتين
##داعي
باستعمال
داسيلفا
جنات
بيكون
now
خۆ
سكرت
للخريجين
بتعجبني
ينته
مظاهرات
وصباحكم
تيسيرا
قطعوا
والديهم
##كلني
فيينا
محرض
ياس
اتسخ
٤٦
فاستجبها
قاتله
الاحت
يوفق
دجى
الحلية
الرشيدي
نهر
غمض
بارض
حذو
##oop
كانتي
المجتمع
بتحبيني
##👏🏻
لقمع
##😭💔
لاتسمع
محنك
##طاليا
مروري
لخد
متجددة
بالجبيل
ﻊ
اراضيه
دموعك
افشاء
وسكون
##نقة
اعم
##قتم
ضدكم
مواطنا
##ﺴﺎﻥ
لكلامك
لليل
تستبدل
الموثوق
المشامة
وليومنوا
چون
بغتة
ومالي
🇧
##وراما
##لايية
رمضان
الجاه
ممل
مشايخ
الشقى
تنهون
##ott
بييجي
شخصيه
الغار
هرجه
عااد
اداء
يمديك
تعان
39
رجعه
بالاجازه
بووم
التوم
سخيفه
##جهه
يتفطرن
huawe
##ماهيره
بكري
ملكهم
خد
يهديكم
وافطارا
للابل
وزلزلوا
##جية
البرلم
رابعة
العطاء
morning
##فرن
##⏰
التهاب
برجا
البث
سياسي
xbox
وكبار
##ايله
ياحبني
النخوة
ديكارت
مختلفين
مغترب
ادبارهم
حطيته
وهمومها
الراح
متجد
##ﻳﺪ
##ﻴﻨﺎ
للمخاليق
وتفض
الهندسي
والظ
ياخوانا
احلاها
اعتقالهم
عطونا
وفق
السكس
##واجهات
مبرروك
شبابك
لنهدينهم
يخلي
اختها
تاخيرة
ونعمه
الحايط
اراضينا
وصدقه
##ليني
مفاصل
العمود
يطا
يخسف
الشام
الحاصلة
مث
##ارهه
الدفعات
☘
رازفان
واوفوا
منخفض
##خش
حركت
يضعف
سجودك
محنا
السفلي
اجسادا
موشرات
وماء
##ايدي
ثار
##لونيس
خي
واقفى
سخونة
ودعني
للماضي
والايجابية
##ابني
وروعة
##ذهبه
##ضيقه
ﺂﻟﻟہ
يتغنون
افت
يدير
خجلت
ونحس
حملته
وجودكم
ستاره
##خلون
النيجيري
##وءة
ch
جايبها
مرايه
اقداره
الوصايا
##جعلني
##رجال
##orn
تصريحاته
بمحاربة
تولمهم
للنازحين
اناب
بالحرام
موثوق
الولاده
بفعله
حرصه
تخيس
غم
##☝🏻
وميتا
وراسي
بالمناطق
باخرة
وباذن
##رايي
لسنه
استبد
mad
معجبة
وتكر
مبارة
الهجران
المقدسه
الدبوس
عنيفة
هتفهم
مضي
كنتو
فهمهم
ترويها
بتوقف
نبغي
حلاته
تبدو
الدس
##🙌
فقيرة
##زازة
تفريجا
صنف
للحظات
النابلسي
انحاش
ببعض
التطور
ببت
1441ه
المزمن
لمسه
😭😂
الواجهه
تملكه
بالعتاب
##دية
الكهرب
الزايد
مذي
اياهم
والتوجه
وماراح
تبعثون
ماقالوا
متعلم
مقز
يقفل
والاسماء
🌙✨
اهديته
تول
مصرع
ﺍﻟﻨﻔﺲ
رنو
جارك
وتاييد
تميزت
تركونا
تجاعيد
##💪🏻
استرعور
##amakhoul
##طري
ريحتها
والدم
لاعيش
انهاء
##شاركة
والسيد
الانجليزي
اسدى
الباحة
الهيا
المقف
برا
##عبدال
القادة
##لدهم
بيذاكر
⌚
##لويه
يابوم
لسما
سمعهم
مزعجة
تجعلهم
وفتحت
بض
الراوتر
##والها
الشروق
##85
ولابه
بناها
##لادش
توتر
##الحك
##رعاه
فيزيد
بتعشق
بالهد
لاازم
جنى
ﻃﺮﻳ
سقيا
يخرس
➊فولو
##قالة
لقيتها
لابتي
واني
💣
اليووم
بمحل
مالهمش
بسعادة
فخوره
ونحتفل
مطبوع
نفسكك
المشاوير
شهوة
باسماء
ريي
العفوية
نساله
##➋
##غسون
قلن
يدعيلي
الدرعية
بيقرب
fairouz
الكابت
بادروا
##وضوء
اعمق
لمشار
متزوجة
شاغل
gameofthrones
##فقد
رجم
قصد
##ﺎﻝ
ضيفنا
والمترجلات
##بيس
عات
game
سيارتهم
hd2
وبس
وطاح
للظالمين
##ابرات
بلسانك
مسلمون
بغد
ومريح
جمهورية
المحمود
فرنسيس
واملا
السور
السبع
اطلبها
##ااه
ناش
##ﯿ
♚
سالي
لقوي
الخفا
تطلق
ماتطلع
##هي
واا
والغم
تبريد
عشيري
بخروج
الثامنة
وجمهور
السعوديون
السوبرماركت
ابيهم
واحمر
احدهم
حلط
تيمور
بيرد
يالطيب
##فاتن
مضلة
لسة
الامتحان
بتدي
بهالد
اوبشن
##عامه
##تبي
معك
##شرت
تحفظ
مواجهه
🌤
مسخرات
ياخيي
##لات
للرب
##اييا
29
الاميره
ادور
المواضيع
جابته
تكلنا
قوافل
والكاتب
دوستويفسكي
##ﻠﻮﻥ
الهاء
##ضيت
as
الخايفين
ابلغوا
المولم
اشترك
الحروب
ضهر
جاكيت
يسيرا
##300
توییتر
اشوه
بالصدقة
تسونامي
##كرسي
الطاري
##واقي
الرص
والحمدلله
فهنا
بالارض
الاجل
##tv
##ebai
قتلي
##ٺنا
ﺃﺣﺐ
انفصال
مستقيم
don
حايل
الابت
وعميل
يسفر
وتنعله
والنسايي
الفواصل
للاختبار
للفتنة
بصيرة
اخذك
الفنا
##لفية
رهن
لاعبيه
صيدلة
رای
##طبق
فگ
تجاه
##دهور
حبان
##صيان
##ink
الجوارح
##سنس
اخبرنا
الوهن
علاقاتي
سكوتك
##set
ﺑﻠﻐ
مارت
للحدث
##ودة
تبص
دعايه
الغامدي
##قبى
بريي
رايدة
سكنوا
احتياجي
مادري
نكه
للفخر
112
تغلبني
هقفل
عامل
التيسير
واعلامي
قارن
عاشقين
ضرس
الشناوى
ب3
##🔊
والستر
استغفارك
الجنايز
عرضة
##لامي
احزانهم
اطف
قبرك
##🌹🌹
اجرم
ميقدرش
نوڤمبر
بصحه
بالرسايل
وفرجا
فق
لتنمية
الودية
##البات
والانجازات
يكفرون
المتعلق
فتويته
الخ
9053
##شرف
##ايفيه
بدى
عقاري
##ركان
تعصف
بماضي
الحمدين
تقديم
euro
الجانبين
مهم
شھ
دشمن
بعتلك
تنز
ينوصف
تحترمني
والثالثة
##abuj
المجر
التعويض
دعوھ
##2⃣
##ونهم
امریکا
غافي
امنو
برواز
اللح
##عمك
اهدكم
وفرنسا
فبم
قصة
نخجل
للبطولات
اكو
عنقه
غرور
القادسيه
سيل
للكافر
والسياحة
المبد
بوكيمون
ضح
##لايي
مجادي
الگثير
##شينا
جن
خذوه
وراضي
الاديب
اغفرلهم
قلعة
ونسوا
شايله
الكامب
##ريوا
الحنابلة
حدوتة
تسكن
فترضى
مبعد
٠١١
##سمس
نارا
clip
شوفته
ملقى
##خستان
معرو
لتجد
بامكان
القاموس
الصادق
افهمك
والاستبداد
وبردو
##وحش
##اهية
ﺗﺬﻛﺮ
وفضلك
ﺣﻜ
واور
جربوا
بانضمام
الجنوبية
التاكسي
اكملت
##لرض
valentine
المحراب
الاعلامي
شهرزاد
مايسترو
المواليد
يخذلني
وتعالي
رفيقتي
تشاوون
لايو
الحداد
مشهدهم
ﻳﻘﻮﻟ
واشرقت
قوات
البلطجة
لغفار
مشروعه
بفراغ
اصلا
والفرق
##eek
كاريك
المارة
بشارة
لانفسهم
كنتش
بتعلم
يصدقها
##يتد
جارا
لمط
لسعيه
ماتمت
##❤✋
اسيادهم
##فلوا
اشربها
ملوث
كماان
مداه
افس
بدع
##رافك
نمتلك
دقيقه
dz
جورج
##ﺴﻦ
واهلهم
##حته
استغفارا
اغنام
الاخلاق
وفاك
يتواجد
بالحلا
معزة
ترعى
بوده
تمنياتي
##ourn
صرلي
منزلة
للقب
الطغيان
ستسمع
ساحبه
##فسدوا
##واوي
بجنب
ويعطينا
الهرم
##يرنا
العنيف
المسل
حرو
موحد
##عون
النهج
كنوزك
اعشق
👋👋
##♡♡
لمدينة
پاک
متاع
اخذته
والثاني
حكايتك
بالتنا
06
تترجم
مشد
لامرك
تنجح
قفز
تراه
كاريلو
التنم
them
##😲
بالفطرة
الكريهة
##⌣
نفخ
##بيله
وضغط
تحبهم
واهلنا
##وغات
##اسبني
العلاوه
واستغفرك
فسوق
##فلورز
##خوه
بحمدك
##وامير
##ذيب
فسال
تقصيره
الصالة
المزيفه
##العالم
لاہور
رايو
بتثبت
وترض
عميقا
العظمي
اتاسف
##شعر
محظوظة
مسيولين
والموقع
تخفض
وتحا
نضرة
شماتة
update
للاسف
ومغ
abc
لمم
متمسكين
ونن
وطلعوا
وتول
اليا
تبسطه
فاخذه
زوجا
بالفلو
سمح
##✒
بقاا
##رهه
تدقق
مضحكة
وقدمت
والخطايا
👇👇
##رجس
ولايته
ﺃﻧ
اخسرها
المنصورة
هالليل
##ٱن
خطبته
جاتی
بحوث
تقنعك
شكرت
اخترعت
وابين
لطفلة
يضايقني
صواديف
الضارة
المخد
للارواح
الكث
الايموشن
خطين
تنزي
##اجم
تذكير
##ﻴﻊ
وطنك
وخلاف
مسيولا
##دريب
للوحدة
تخشي
بنص
بقلة
قلبكك
##غاريد
بالهاتف
##انيك
اللامحدود
##موه
نيوم
واسكنهم
ودني
حفظ
200
بالحديث
التطرف
بمحطة
##ats
وحشانى
دغيم
كبرها
بمقاطعة
الله💕
يعتمد
مرور
1983
محبوس
🕊💙
الايران
باننا
سخرلي
للتن
حاض
يغلبك
عبدالفتاح
بالوان
التط
امراء
##يم
als
عقلت
غيران
قهرني
##ادتها
والسماح
##√
ماشفتك
برقي
تحيل
يشهد
الطيار
اخطايه
جنبها
خلاني
عليي
##وسو
بيبقى
الافكار
بالانف
ﻭﺍﺭ
يرغب
لنصبر
✨استغفرالله
الظلام
الون
المفرق
١٢٠
sm
الايرادات
متوسط
##بية
se
نض
عرفة
##icial
##ۆح
لغد
##وحة
كورسات
ﺎلحمدللہ
مقطوع
تهمس
الحقي
بتاثير
تزورني
يسلمو
احاسيسك
حمد
للمدارس
ستاربكس
مهووس
الاخره
ھذ
الحرامي
بالطول
الفصايل
##عمى
##نيجي
يتهنى
بيوتا
محاور
والمستفيد
ت
ومعروف
بانا
يقودون
##لسان
تتخذ
غاندي
سينما
محافظتي
وتنذر
والحلول
غفى
##تمام
##ﻨﺴ
يقولونها
عزوم
ﻭﻓﻲ
ليع
يااخي
احلق
🌑
الابواب
##جرام
##irst
##تيهم
##رصاد
مجتمعية
##تمعو
صايرة
اقتحمت
##فاجي
cat
نصرنا
يصبحوا
والسيا
ستفقد
فبادر
اسب
##ear
😂🔫
ادارة
صفحت
لتحمل
معذرتي
عطس
##تی
المبادرة
ختي
بيعود
##ناطي
##اليون
معدنهم
ﺗﺠﺪ
ﺇﻟﻴ
السادس
الشنيعة
##ارسيا
♥في
زهره
برض
##دى
##اطية
وصلي
ادمين
النادي
##قصي
والاعتزاز
تصلهم
والثقه
اللوك
اموالهم
استمتعت
القاسي
الحالي
مخلفات
غانما
بشفاء
وتعيشها
ميركل
كالبنيان
هيعملوا
البذ
##םבﷺ
##نطلق
وخيب
بالنص
تحديات
##③
ادايهم
المرسلين
بجديد
الجلسة
يسجدون
تغني
بموقع
المعمري
اللابتوب
ويكفيني
وتقضي
😂🤦
اعملها
بالصورة
الجيل
نقاوم
مروع
الطفلة
ويغنيك
الكواري
##اعري
ﻗﻟ
الجواهري
انتحارية
الوساخة
توجر
##arm
##نوي
المخجل
لنفسنا
يويدون
ﺑﺸﺮ
الكترونية
الادب
بالخيبة
واطفالها
مقلق
الضايع
الفلاحين
99
اعتدال
منتقم
غصبن
فكرو
ذنبها
باعوا
منک
الڤار
##غها
##عافيہ
اعطوها
فخذ
واعلم
جوانب
ولتجري
احترامهم
وعدو
تقيلة
للصدقة
شتت
##فارد
اقعد
خانته
##ﺄﺱ
يعرضون
وفقك
بالست
حسابها
والفكرة
##احك
تعرضها
وتظهر
قصدها
تتركني
054
بلجيكا
معسل
capt
الاصم
##واجدين
قايد
باكم
فجز
العكايشي
الاعمي
بالموتمر
ضحك
بنجاحك
##ربته
واذكار
❌
ضجر
video
##عابي
اثارها
الرييسيه
الاسره
عبدنا
المرج
##وجع
كرواتيا
ولنجزين
بيكدب
##ways
مواطن
متبلد
ورضوان
يتساءلون
##شرا
بدنى
العظماء
ينقصني
تعلمني
ويهه
مااي
مجاهدي
الته
نضيفه
بعضها
بهل
احقد
جيوغ
يبعتلك
مبتلى
واخته
فتعالى
اجبرتني
اجاد
للاتفاق
الدود
ونزه
متقلبة
بسلاح
بالكون
اسامة
##تميز
##افيا
تكساس
لمبات
يسعدني
منج
شرايكم
دامها
واحيان
للشتاء
الضماير
علیکم
كسوة
يسبقك
حملي
زوين
نظريا
بشنو
شفيعا
بتنفيذ
يخو
ihab
استرني
فوج
##ورها
للمخ
ملگ
يخال
جوست
اعددنا
مااقدر
ب2
واسطه
والافعال
هشه
اكلك
الوسخه
اراضيهم
القران
كفوفك
تنازلت
يهمونك
تحم
مكتوبة
مطانيخ
وخاطرك
اسمحولي
تابى
المسج
اسانا
الملاذ
##لايين
كمان
مرضى
لقيام
عكر
شقتين
شتاتي
بمول
الذبح
الحسرات
بدوام
ﻓﻘﺎﻝ
العزيزه
نذق
للكعبة
▪قال
العلاء
الهوية
عاجزا
ومقام
وننسى
##ايبك
بالي
ﺻﻠ
مجنونا
متمس
لنصر
عشقنا
خروجات
بناص
##iaworld
والاياب
تحرير
للذاكرة
واصل
الحساسية
kurtlarvadisip
##ﺟﻌﻞ
مايعرفوش
الكيوي
التزمت
prom
لاتضيع
تقدرون
##صال
nar
هالاشكال
قدساوي
الشقاق
اصبحتم
كفرا
هبقى
بعديها
قايله
شحاتة
##ﻣر
بشن
اذيه
وتعمد
##ريقه
سويس
بوعبدالله
وضعفي
اشته
1982
للمسافر
العجايز
الداشر
🙊😂
تقدمه
لوو
تركيبة
الغالبية
فوجدته
يحصل
##طل
يتربع
هالصوت
الاستمتاع
رفاعة
وقولك
كوف
عمهم
الايتام
##حمر
امثالي
وطبيعي
مضطرين
مغلفة
لحسين
##يقظ
سيعوض
شبيت
تنبع
يقربه
حلفا
للدستور
خسارتها
انجليزى
تجنبها
لتاجير
##םבםבﷺ🌰
اجتماعه
الجيزة
يضيفك⛔✅
اعماقهم
##ااح
يعض
المغاليق
ويعترف
بامل
وارت
##ں
##قاضي
شوفوني
قطاعات
يهنيك
للوا
553
فخور
شبل
فابتسمت
وخميس
وجزاء
برمي
يخوانا
رجعي
قدها
مروي
ابوعلي
##نابلة
نفسسي
حاول
الهمني
بودي
العوازم
مملو
اديله
والعد
للتنس
لاجات
تروج
😿💔
عمانيون
##راحہ
##غتصب
##📸
الاصطناعي
التيمن
😂🙊
شيلي
درع
الليم
موت
العلمانيين
تراضيني
الخروج
بالماضي
استم
نبي
الجاسوس
يسيي
واحتمال
وكس
الشريرة
تنسيك
سوسن
مايصح
المهمات
ولاق
بفطر
##عونا
ابتسامته
الطقطقة
توارت
مليان
يجينا
عري
##لايكة
للمدرب
عيشو
وتفسيره
سريعة
✌🏽
مجتمعاتنا
صريحا
الفلوجه
لاتضايق
##غلبون
فساهم
داش
##مبروك
بمكه
الصيد
الضيوف
##افحه
بصواريخ
ديان
الرحيمة
##تهيه
ويعتمد
واطلع
لمفعو
يحرر
مدرك
اسرتي
##kar
اقسي
##ﻃﻦ
⭕➰⭕
توصية
قيمتها
ايدهم
تهنية
👆
##حم
دفاعي
تكلني
ياوجه
الخاين
میڈیا
اللبان
بناتها
نتهاوش
الدوران
كرويا
منعه
يبهر
للنجاة
ومساعدة
بوبو
حصريات
لعص
حاجات
والمعلمة
##inee
وشفيعا
برايهم
قهوتك
للمظلوم
مزيون
ra
غرته
واسماعيل
2006
الانز
##باطي
ازعاج
يمرض
مواجهة
الزعتر
الش
##ظاهر
٤٣
حابة
الانث
الماع
تحصيل
مفكرين
شانهم
##سكوب
دينك
اساءه
بدمه
ومته
الصمان
سعادتك
الاخوانية
الرقبة
العافية
فرجاني
وتعذيب
##الموت
وباكستان
حنوا
ضيوف
وتتاثر
وشرك
##yan
ناوى
مديرة
تعرفك
##ثيق
اللين
للجميع✔
المنوره
اذبح
النازل
قابلك
والعدد
العروس
الفضلاء
ترجو
الطبيعى
♂🤦
متزوجين
مدمرة
هاتولي
والشكوى
بكاني
##راع
حسيت
حگ
مزامير
لقسم
حديثي
تهديه
بيوم
وترفع
اخوانى
ﻋﺎﺩ
وﺗ
لياخذ
صحفى
فالدوري
وغيابك
دنقل
افرق
بالواجب
##s
استبدله
وطع
وضباط
##مية
يبدل
اتنيل
سلبيا
عقارب
محتاجه
يلدغ
##ذيه
تشغلها
كلامو
نقدمها
جعلناهم
##ﻳﻪ
وافكاري
تكفى
وايا
ٱ
##ديب
نازل
سويف
تلملم
##خبز
مسست
اوص
اشكالنا
حصد
اشواقه
##زود
مادمتم
الزن
هاجسي
يختفي
##ل٣
والمرة
##arash
واحفظهم
همووت
واستجابة
تابعا
كتلة
الفريقين
اولويات
ﮐﻮ
للخونة
فاهلك
يفطر
##خبنا
نادى
والجماعه
وباس
تحمي
ترابها
0100
##ملنا
صنعته
ھذا
يدشن
وشغل
تنخفض
##ﯿﺮ
وراقي
##ms
مذموم
مشهودا
الصورة
اﻷشياء
خاصه
سياتي
وافريقيا
علاقاتنا
صوابي
سلفي
الشوون
ولاة
الارسنال
انييستا
##ليب
استطاعوا
بالرجوع
ابرهيم
نبقي
تغيري
الاعرج
##ستيا
تعتزم
اجل
سماء
اوانه
وضرب
خاطري
واخذت
بكليته
شقه
اذيت
ماقام
ماخد
##idol
المساجين
الطلبه
ابنايكم
دفاع
اتمام
##😢❤
##١١
ويدري
مخها
##تهاش
فاعني
##ەم
يرسلون
هبد
ﺍﻟﺒﻌﺾ
وهجوم
فاستر
مجلس
دمكم
غنوة
مصلح
👑
الاقليمي
اتوجع
رجاي
والمواد
عيلتك
النصاب
##raf
الجندل
وفر
التركمان
مركبه
الوقوف
تمادى
##mal
المثق
ضروره
##⠀
لترامب
واولياء
غثا
هاام
##💭
كجم
السبت
##it
مادو
بالسالفه
تجلى
وادعوك
اردنا
والكاظمين
جلبريك
سارح
بعناق
يرجموكم
##شوفه
نبلغ
المماطلة
جل
راسا
ترديد
ملكش
رافق
##iya
يغلبني
مصخت
🌸🌿
فاعفو
##راث
عنيزة
وسمع
الرايه
صايمه
مترجمة
اسط
بمزح
ورطة
##ريحه
لموت
وخبث
رماك
##سد
تكفينا
اجزم
الفهد
تونسي
الظلمه
ومتب
##ﻨﺎﺕ
اذكى
احينا
##وانة
##ومنين
واتخاذ
ينذر
العلاق
##لازل
المحايد
التم
عاونه
وبيرجع
حيم
اهيم
الاصبع
والاستمتاع
شوبنهاور
بتشوفه
ايتو
##وارها
ركبة
الاقتص
هرب
يطريك
الطلق
التجا
الاجتهاد
بسعة
الغفله
album
خرساء
الخامسه
صعدة
استبعد
ﷺ💞
عيب
اشوفگ
المعونة
تناقض
##رايح
داعى
بتبرير
شحنة
اهر
تاس
ويوقع
ببعد
##بشرا
يذكروا
الخليج
نخطط
ياكبير
مجوهرات
mon
حرقة
والمف
حيلهم
وقوته
طرفين
رداه
بميدان
يفرحنا
##رون
لترزق
قولك
يشدد
##ֆ
تعنا
الاساءه
احجز
جثمان
بدقيقه
واليا
لترفع
انتهيت
بفي
عقبك
يجيبو
تيجو
ﻣ
المونديالي
عقيدتهم
الحارث
متعرفيش
لروح
سوالفهم
لياتين
هوندا
ومنه
##😉
دقوا
بساطه
المزاج
😮
دموعي
يفر
مناسبات
زام
فرفقا
ياذا
ﺈﻟ
فيرو
المجهولة
ضيقہ
##حمت
سبونج
وهذ
الجوادي
شوكا
ارحام
بعش
تحرمني
رفا
حصيلة
العزيزة
السوني
العناد
الساد
تسكنه
المغريات
##ﻬﻮ
حصرى
نفلس
##ﻮﻩ
قرى
تتنفس
نظرتها
سافر
تفو
جزمه
ﺗﻐﻴﺮ
واجبرني
العس
السعوديه
متناقض
روايي
البطا
حمال
اختياراتي
شعاع
بالك
الباسورد
anisb
انريكي
اواسي
##اسبنا
شالوا
بتركيب
##وتكم
ميجا
اعزك
قق
##ﻻي
##صلية
ملو
سندا
##ثرت
فاسكنه
وامسك
منبو
⭕➏اضافة
القيت
عبدالغني
كتابتك
التفكر
دايمه
ماكين
اذكرها
سيوتي
اكونت
ara
وعزايم
ادعيتكم
احتاجه
جنرال
نعمتان
راقب
العطية
##رهق
عمت
##💁🏻
ماهي
واجلس
تنقي
قاد
تروح
كتي
الانسجام
فمر
##بيلان
لتاخذ
##درالية
ajagaza
واملنا
سيظهر
لجمالها
ابتلينا
##غتسل
باليمين
لهالد
##ايفية
مريضة
❤😍
قادره
مغاربة
للامراض
استطاعت
وابتدي
##ثماري
ماحك
جاهم
يفقدنا
اۆ
كرمت
والافت
sit
الاستغباء
تملكين
للاحبة
٣٣
يهاجمون
##وحشنى
الجريدة
تسعين
ﻞ
مغبون
##😦
الوديعة
البوابات
اثلج
علیه
مشمش
تنبض
##ور
موسس
اقنعني
بحلق
❁
والصداقه
ويثبت
هادي
وروسيا
احدن
المشجع
الجهل
الالماني
ولاهي
ينزلو
تصوت
والغني
هتسقط
سلوفاك
واصطفى
لبلدية
ونكون
الامجاد
قار
شعار
تزد
لحمة
طويلة
ﺷﻲﺀ
والمناسبات
حكى
دقة
يشيلك
تخجل
الدوره
ويصد
ويقف
تنحسب
##هجة
وايس
##اليق
محمد🌿
##حلم
بمباركة
ونبرة
##بيحته
تسرب
الحسي
تمثلني
التنس
وامورهم
خج
البركه
واشكرك
بجناح
لينت
الصلاه
سوالفها
حصله
##60
يخلينى
والتربية
راضيه
مجالسة
باسمايهم
مزوح
##لما
بشفاع
اراقبه
منصة
الاطعمة
بستني
يكش
مدارك
هبطل
بغني
بكثر
فعاش
##خذلني
مهداة
ولاتنسى
نراكم
##🙂
للمهتمين
ارن
عودتهم
##ملكت
الحجارة
##ثاق
فاذكر
الموه
كبدك
تبغاني
اثيوبيا
ﺍﻟﺒﻨﺖ
خفيفا
متبرع
بتجمع
##صت
sky
بالانا
ركوع
ينكت
خمور
بحبكم
ﺄن
##طار
اقتراحات
##انته
شاغ
مايفرق
اجبرك
جرجير
اعلا
شوربة
موذ
قمه
الهاشم
##جتنا
يرج
تتحمل
##ذية
قبورهم
ذمتي
بزياره
😞
قيامها
والجامعات
روسكم
النشامى
ﻣﺮﺗ
ميادين
حاسدا
حدك
فاغتن
##ميزة
فمك
يوجعنا
اوقاتها
##جنب
عرفتهم
للمغرب
والعملاء
وقيم
الاهداء
عمانتل
##وقع
##نوں
وترحل
وبص
##╮╭
ميزانيه
يخلص
اشتراكي
ترتكب
بالاستقامة
##فعي
اابي
بفقر
hell
اسعدني
selfie
##ربيه
فتس
ياتري
يتشرف
والجهل
واقوى
ﯿ
كاين
##🍃🌸
بسلطان
عملتها
عقليته
جهرا
مستنيها
الزراعة
وادعو
لمدير
بمحطات
عشواييا
الشريفين
الايب
خناقة
للظروف
الكش
بعزيمة
فالض
ووسايل
نبع
القصوى
بعلم
واستعداد
افتار
xl
حبيتهم
الاستفهام
وقبي
بالاعدام
يسليك
تحبين
ملوخية
بتفقد
للولايات
الواحد
ﺩﺍ
اليمة
فاول
المدعومة
😬
راقبوا
الضر
##شيع
عالس
العدد
اء
احساسا
بمعاناة
المنديل
والوكيل
مسلحين
كف
مالقيت
وجامعة
عالك
تلطف
ملازم
حقود
كتاف
جيشها
لتبرير
والفشل
مصدر
بلدكم
##هاء
واروح
##دراليه
بعقل
وغيرت
##خفش
الخامسة
بدران
رقابنا
اسرية
🙏🏼❤
بزمن
وتدم
ورايته
سرعتها
##ميع
المغيب
مثاليه
والنبي
متخلفة
الهواوي
##عوري
##وايية
انشي
تحاليل
◾
الحاي
يخليها
مروح
عوازل
اعجبتني
صوم
عالمك
##😂😍
بالليغا
ويعلن
الصغيرة
هسمع
مودتي
اوطانهم
الشياب
توقع
وولاة
بتشرب
alre
number
سادعم
٢
##ﻨﻰ
والقطاع
وليال
##وفيه
عارفك
سجلو
##pr
يوتيه
وجودي
بقالها
طررب
گي
واطيعوا
نضعف
هاك
الفضالة
##وجان
##😝😝
##ody
اشكو
منشني
اكبر🌴
معتز
خیلی
باحس
نقرا
الصبا
لحفل
الانفاق
وحي
السفارات
##مران
الصفقات
الحيله
↓˓❁
خانتني
وقناة
الخلاصة
الزبيدي
اغبي
بالبشر
نزيل
المسميات
لوبيز
اليكي
وريحه
تتوق
ويزدكم
سبحانك
علاقة
معجبه
اسدد
والاعلامي
الشخ
newprofile
سيودي
ماركا
tal
ونصرا
الشاطر
میرے
اللمه
يبنى
خصيصا
هاوس
تجعلها
اولوياتي
تبروهم
لفك
دانيلو
والاتصال
الحين
تتصاعد
اعص
موخرة
ال4
مبصرون
والطاعة
╭━🌹
تبلع
تعليقاتكم
عشها
تشريح
##زحه
بالاق
غوري
سبور
باصله
بتدريب
حكومتنا
ماينقص
##مكين
وتبلغ
ريا
حينا
##شارك
الزهق
##ﷲ
نستيقظ
عرين
فهذي
وشعرت
لفريقك
طريقة
نهايى
ليسو
بادر
المستبد
لوقت
متحدون
اﻧﺎ
##وزر
شفيهم
الاشراف
للمال
العامرة
وفلورز
##عيه
بطولاته
الهواء
##حتاج
اغر
ماتجي
وبشر
المتر
✋😌
تاجر
مشرفه
minaattaking
زيف
سابه
الانقراض
الملكه
انتظارا
انقلعي
عشواي
تدابروا
وتبون
انتخابات
شهرها
غذايية
الجندي
لمرسي
استهدفت
البلاغة
والابيض
يجنن
يهان
تبعدك
يرددون
متنقلة
##لتهاش
لانملك
##خرا
هبل
الاكشن
لاعبين
باخواننا
هالشي
طبت
والقمع
لارض
amazing
يمحى
##تكاب
ياشباب
مزع
ترونها
شمسه
تفتكري
مند
لاندية
مكفي
الححب
الصوم
الامم
الاخوان
صاله
والراس
تتخيل
للشاعر
##خنق
ناشب
تستقطب
الخبيثه
العاطفه
ريتويت✔
plz
تعارف
اهديتني
عمال
سرا
بدكم
المركزية
تقيم
##دادي
تقابلها
بغية
##لنر
شمري
عاشقي
المشكلة
##ايدين
بعرفك
170
مردش
كاعد
فتهجد
تسيير
يكشفون
بالعمى
الذى
##reif
سايبين
##مات
دخلك
الاعا
##ome
مااد
باان
ارجاء
موقعة
##تيتي
يشوفون
بالنتيجة
فرن
التقي
##اريها
ريو2016
عطتني
حضورنا
سعيها
لاصدقايك
باعنا
fam
للهيية
بس😂
ذرفت
وبب
الخلان
##ربيات
جامد
لكم
ناطر
##¸
الدوسري
ﺍﻟﻈ
##تدي
ويعيش
الكندي
الروساء
الخارجي
بماله
بوابات
elieel
beauty
للاصدقاء
##ٱ
معتدل
متابعه
1434ه
رقمها
##خفض
جوازه
والرسول
نتنازل
الاستفسار
##هانات
##fe
تاخذك
للفصل
يهد
المستشفي
نيوكاسل
اشرار
ومها
واصفح
مهلكات
يسعد
خريبين
الميدا
كبري
تمسح
الطبيعيه
غيرر
##ظليل
لصرف
حراري
زملايه
اعلن
فورتنايت
طريفة
الدقم
سيراميك
فكرت
ذنبی
متقوليش
وااض
##عجبك
ايدنا
الميزان
شلونج
ينام
##عاطفين
يومها
واستحقاق
ويتعد
صفى
##تكف
فوقهم
بتميز
جاهدة
تضمك
صلواعليه
##سلون
احضانك
تعامل
ارددها
طبوع
همیشه
تاما
كعبة
##يرت
##😓
عاشها
المرحوم
والمعلمين
المريضة
179
لسانا
وسالت
نطيق
مباشر
عدوه
مفكر
جسار
ضن
قراءه
والعشره
نسوق
تهج
مطبل
بمالك
قتيبة
مبيت
##👌❤
محبتكم
المملوح
وبرا
صرحت
لبكره
فصيله
وتك
بالبلاد
sex
زانت
ㅤ
نفض
بالاد
##فور
ولوكان
قطاع
نير
يتعلموا
اهميتك
داحنا
ندوش
اضايق
النعمان
بالبخل
محظور
واسيا
للنص
يرسله
##3
المشبوهة
غربي
انطق
خربوا
المحروسة
حسسني
طموحاتنا
روقان
##ہر
هيحط
والامور
التار
سقم
معرفة
##فتون
##نان
اسمايہ
للعالميه
لحكيم
بانصاف
learn
السدود
بتلاقى
اعتناق
التغيرات
تقرين
التدمير
بالشهاده
منكرات
زدني
العايلة
يتجمع
خسرته
تذكرة
هالموقف
التاخير
التحديث
تتمسك
موثق
##لڤي
الجنۃ
المباراة
مستهدفة
يلقاه
وتزيد
ياحلوة
##اويات
حجمه
تسخر
فرش
همش
قاضى
بحبي
ساكتفي
شاتمه
##عات
##غردين
الاندية
يشوبه
واستر
لاذ
تتفرج
بورا
تشكي
لهو
دعايهم
الطرحه
قاحلة
الفية
خساير
لذوق
يجمعك
##رابعة
كترت
خزا
مستاهلة
حاقه
تنموية
الابية
اخد
شاطي
تاليها
مرن
ماقال
وخلونا
والعاديات
الالفاظ
كلينكس
بيموت
تسال
الارتقاء
اننى
لاسقيناهم
فالبيت
واتذكرك
تنصرون
والموات
وجمع
تكونوا
خطواتك
حطي
##ترات
الصابرين
يصافح
امير
اصلاحات
صادقا
##صادية
ارفعي
##نتاج
##اللهم
رايح
للموا
والزعل
##ﺘﻘﺪ
التوك
لانفسنا
تحذف
مناسبا
يورد
براجع
نخط
الخض
الاعادة
46
##راعات
##جرز
لكده
وظروف
معاد
يشعل
يمسني
##┈┈
##شتا
يحفظنا
##😂😂✋
دكتات
##💦💦
##بابوي
غليظ
##قنا
الهاتريك
وجعنا
برفق
مديدا
واقف
والارت
زنج
باحلى
جماهيري
لاتعد
التعبية
1438
تنعى
اهتمامها
انطونيو
وحدد
##ב
انفر
السيريا
تدفعك
ننتقد
زناد
بالمستشفيات
احاس
شبهة
يعلمنا
شرياني
بضربة
بتصل
عزانا
##هدت
##يقول
ماكنه
کرتا
رموز
##رهان
فنسالك
باطفال
اذاه
تحوجني
سطا
█
الحشد
لكنزة
حني
##فقود
اتاحة
استمعت
نبضي
هضا
تفضى
وقوله
المغم
وبا
شاليه
تتصرف
osama
عاق
لشرك
يرتب
huawei
ملاذي
التحض
النفي
وخلا
##ﻧي
##ربان
ريجيك
تنوم
خيالك
فن
اكلها
ابوء
##جوزي
الفف
والشعر
بخيرر
##طيح
##ﻋﻪ
الناظرين
قاعدتك
##ريك
بدعايك
مزا
ارسلنا
باصوات
ثارنا
وعز
يغيرون
وينزل
كوكا
الحيوانات
شعرها
شبي
افرح
جميلہ
الافغاني
##يتة
سدي
وحديثي
سن
تم😍هت
ﻣﻌﺎ
وصحيح
ارادها
يحلا
مر
المنزلين
لقا
الاحوا
ذكرني
الخوازيق
شراميط
##والق
##جوهرات
مں
بديوان
لادخل
تتص
##تويت
##٩٠
هادف
تحبها
turkey
كوابيس
يفس
وسيف
بالنسبالهم
تلتقي
##وانات
تخفيف
day
لمعة
مرشحكم
والامن
فاغ
شايفاه
لی
والعي
يالم
الامس
تلة
العامرات
تتظاهر
حشاك
لدى
##لها
سترحل
اغفرلنا
بمنطق
بايجابية
مفتقد
مااج
اومتيتي
ﻫﺎ
##ﺣﻣد
وض
بيبر
المشارق
بيتهم
صا
ثرى
خوالي
101
##ذف
وهعمل
🔫
two
عدوى
العادة
مكسبا
##♛
##وقفني
سكين
تشجع
👌❤
##تنيش
صهيب
العاطلين
المجيد
##روءة
معس
شنت
والتد
تدخلك
لحرية
عبود
##اويه
انثي
وتجديد
وغلبت
يستمد
توقعات
##وبك
طيوف
كتيره
مداوي
قصيرة
اكتافهم
😊👌
تستعجل
##یتے
cas
موباي
aa
والدنيا
تجتاح
تصبحي
ينبح
المركب
ذاتيا
##ذاره
ونفتك
نخليه
مرقده
##تيبي
لنها
يخصك
عافنا
##نيع
تبوح
##صرها
لابوها
لشعر
فبركة
ضربته
ﻋﻴﻨﻲ
جبد
هبت
ليتحدث
##کت
جحش
لذكر
ثمينا
##فيره
الغامض
رويدا
فااشل
والزراعة
هعملها
العجاف
بذبح
ورجالها
كاهل
انے
اهواءهم
hay
لكر
المسط
##سترول
اسمي
للمحب
ااش
موقعهم
نغيب
##ﺘﻌ
ماقلته
الھ
لاصحابها
##عاة
لايغادر
مستحقات
سهوله
منہ
##حار
الفاكهة
##اصدق
يتاجرون
يعدلون
جروبات
جاله
غروري
رحلته
واشكالك
شلون
مالى
##دم
يااهلي
ادورك
##تحذير
pray
ينج
حاب
##نابيو
مصحف
##داب
تذ
سوزان
نهني
كسوت
ماتفرق
لگا
اعطيتني
بتحل
مبادر
الهويه
الهدافين
تاملوا
الرخص
وتيسر
وذكرت
للصدور
##فرجي
ولامفقودين
توذيه
خواتمها
وامد
ويستحيل
ايرباص
المبتغى
يكسرني
105
مصايب
##يفه
عالجميع
يااما
ماعم
تتصدق
سلاح
مضجع
تالته
ضيفني
الرصيف
تالتة
بحث
جرحك
اعيادي
هضم
سايقي
ازاي
##ather
سيلفي
ۆلا
بزاز
##⚪
##288
nas
##119
المسخره
سنحيا
الملاك
لريال
يفهمنا
مقتنعه
##ball
تهت
لاتجامل
براية
وتردنا
##ali
يشق
تعملو
النها
صديقين
طعامك
وتحدي
وبقول
انذروا
تطلبون
بدوون
فريق
للامة
##لرام
ويتجاوز
##عيذ
سرها
اريج
رضاگ
المنهج
المحاوله
ﺂنا
الضيم
تجري
المنكسر
مليحة
camp
سراجا
ابنتها
انسرق
تفرقنا
والفايزين
##ﮪہ
##نكه
##صحه
صامل
وذكرى
موتور
الهلاك
اهرب
##بدا
اوساخ
fcblive
سبي
واسكب
##رنا
البصق
بالديره
ارادك
##ﻤﻨﻰ
تسالوني
رومنسي
املهم
حيين
نابلس
##وثيقة
عملتو
تزف
##جاج
##بيان
شرايها
يدلني
بالهنا
لاتفه
البيانات
##🇼
كرامة
دكتور
سعاد
الحطب
يستوون
والاست
قربي
طمس
##ريہ
النجمات
حلوات
الله❤
تهديد
النقاد
المنازعات
الذوق
##نبذ
وادا
وييع
الدقة
بايخه
والجامعة
##لتو
خلاصه
🌍
للحفل
##حمس
تخضع
لوطن
معتبر
واحشنى
##alm
٢٠١٣
اسلمت
اتض
الخفيفه
برك
بالملل
نجاحه
بنون
ايدير
يقبلني
##مسة
ﺳﺌ
همسة
وقواعد
بكك
سيكتب
مكانتهم
دويتو
مليونيه
مهملة
ذكوري
معاملات
اعبدوا
الاكتاف
نامت
المسووليه
يدرك
ﺃﺳ
##وقظك
زوله
المطففين
امشى
بلاا
وبدات
دنیا
##ناندو
والتطرف
السبكي
بيحبوك
ربيع
ﻃﻴﺐ
ولوكا
تيق
جينا
##روعه
هارون
نانا
تهنوا
جسور
صراف
تتصالح
التحركات
يزعل
مساف
ﺍﻟﻠ
بالبطولات
فحاس
الرسمة
قت
fifa
وعالم
##تاما
يتسلم
کرنا
الدكة
##لتگ
العبادات
انجازاتهم
ويستطيع
لانف
ظلمك
حكايته
المحاسبه
تقولها
##ﻣﻧ
سكروا
##iran
بالشراكة
حبيبها
واشترك
ويستهام
##🔐
##اناة
تحفظك
قزح
ایک
لعبادي
تفادي
chem
حرقه
##لوف
عقود
كاوراق
كدب
هديہ
صديق
كرهتني
تقتل
فالدعاء
كلمته
الامرين
واعذر
مارادونا
➎
للحسين
لجماعة
والمعلومات
لهيك
١
##عوة
الخمر
وبط
سيسى
الرجلين
غضبهم
نحاس
ويقوله
بروتين
واشك
يمرر
بان
كرد
١٦٠
للمطار
والصباح
قراب
##23
mecca
كويز
شيفو
الحسنه
ماتمشي
١٩٦
پی
وزلفا
وفرجه
ينكرون
##لرو
الطرد
عيناوي
موظ
##🎷
وشوي
النرجس
##اعطيني
الكلام
وماذا
المات
احتياجاتهم
لمين
ويبتسم
العابرة
غتر
ايتان
للدنيا
الزنجبيل
##ارده
احصي
للشام
جبه
منعها
لمتابع
##لوبك
احسنت
نلقاه
ارتقت
اخوته
والولد
وصفي
وخليتني
تركع
ندفن
##حيا
متسابق
دنياه
##صلهم
بالدماء
ابعاد
وبطاعتك
انهارده
شاهين
هلوسات
والبخل
المناصب
سمحتي
مجتمع
تنجز
مساواة
خيارا
حرفك
ويبعث
نجى
ولينعلهما
ﺣﺒﻴﺒ
راسب
تلاتة
مستيق
ونكد
صلاه
فتويتر
يامد
##ضعيف
تگ
pap
مصيبته
مقاصد
لسن
المنشا
صلا
وكرا
الاشجع
ويسامح
##يفال
اخسر
لشديد
النبات
التسلي
ارحل
فتصيبنا
شیخ
##ﻤﻰ
ياجبار
حضن
سمايه
نبعد
الداعيه
##صنة
مظلمه
استودعك
الحسينيات
وعراقي
ياشعب
الاشواق
✔⭕تابع
زكريات
تزيدنا
البقعة
الشناوي
يدون
🇺🇦
صنا
واقعيا
القيامة
تاليه
##٦٥
غاب
مربر
يستحق
فالحزن
والاكتياب
والقوه
راكي
##زعها
تحيي
وجوامعه
يستند
رژیم
تكفون
قفلة
اربا
المساس
فاتوا
الاجابات
بيتزوج
ايجابية
تسليط
ﺂﻟﻟ
بعدني
بلغاريا
##اتة
sultan
بحصنك
اهجر
والطيبه
فهمتك
والديكم
المتجددة
##ﻦ
تستضيف
مقرا
اوراقي
والخذلان
##حلين
ملحوق
ادافع
##ونيسيا
وحنية
البيهقي
فاغفره
##نيء
اين
ولاهنت
محسوم
البكال
ناداه
جلطة
واقولها
تجمعوا
خذو
##خليك
تفرقوا
لعدة
والمخدرات
فيكك
الرحيلي
هالب
بالفساد
وبيطلع
الشروط
##ورون
##قشه
🤣
يتذكرون
واسيب
اختلفوا
حسناتي
وتطرد
يزيدون
يزل
متظ
فياريت
ذكرياتنا
##واتيم
تباه
السينمايية
ريما
بالفت
المقاطع
انتهاكات
وتخبط
المتف
متحر
وندخل
حلال
##تانامو
##صرن
افرحي
حلووة
عطل
ايسكو
وراجع
وخشعت
##انه
اسجدوا
##هلها
الرشيدة
ونعطي
بختصار
ويغ
واجملها
##سلين
الجاية
##لقة
انوه
للدرجادي
اصلع
عفوت
مصلحتي
##اءه
جنسي
ظلمها
بالدم
برغبة
السويسري
جامعاتنا
لقال
واعرف
كص
بالسعاده
يترنح
تنه
🇫🇷
غيركك
هاتها
طايقك
تلاته
الغياب
كالغ
الحاج
خربانه
يبكيك
بشري
الوله
وبعت
عنتر
نكتم
المغاربة
قاما
نسوي
متخفش
والبادي
وطف
مواد
اتكلمت
الالهية
برياض
تشويش
عالسلامة
حزنها
القاط
الامال
واثق
امريكي
المصاحبة
الاهداف
ويكس
##bs
بجانبه
تزيدني
وتواصل
وفج
اللاجيين
لوايح
بيستف
تراني
ايماننا
مفعولها
لذكري
يناهز
المعو
##گذا
##ولاتة
والجسد
##كنا
##ud
فيحدث
##تيس
ليفر
رجوت
💓
الخزي
##لدك
وشعبها
شفاع
##لتين
##نے
فماذا
##صمة
هيريرا
##لطمون
ناجى
التنويه
person
العشر
جمر
1⃣
رامزي
لطرح
وتضم
سرع
كفيله
لوقف
نمور
المك
اعنف
فانساهم
يمارسه
عرضا
اجبلك
متخصصين
رطبه
##ناقض
الفكه
بتمناه
البلية
لغيرك
انفا
بغزارة
اكرمته
خمسين
وواصل
التام
تومرون
الدواير
نترجاكم
وشخصيات
هاللحظه
للفشل
##بل
خطييتك
تسديدات
اشت
الحساوي
##قاعدين
بالصحه
كلمنى
¸¸
جمهور
فسترى
##موحك
وبرامج
سمايل
١٠٠
يجزي
الفيصلية
شوايب
وتكتشف
يحبه
اخوانهم
##قين
ومشيت
بانج
بتصحي
تقريب
بيلي
كويسين
##ارتي
طلبو
تمتاز
القريات
##البحرين
صوتيات
مقاد
ابلغ
يستقبلون
السرم
بالاستغفار
للصم
وطا
كير
وامانا
لسي
##ae
ويخرج
تاكلون
الاستثمار
قلقي
واساء
متواضعه
##♥♥
بيغير
تتوضا
##ing
##6⃣
تهنيه
يرتكبها
السنادي
بنتظر
×
ثرثر
بره
طردت
صلاحي
تع
طامع
##دافع
تماام
شاركونا
لمشاهدة
بلادك
mb
اللفظ
هذااليوم
صدورها
##ليمية
##زاقا
##امد
ممكنه
˺
الجهرا
هتكتشف
باداء
الكليات
الكينج
عندى
والدلع
الولاد
داام
متعودة
افريقي
وترد
يادوري
لنصرة
##فات
بالكراهية
الغيااب
##ﺮﺍﺋ
المعارضين
##load
##قيات
حبه
##199
وارنا
تعسف
ماكنت
قبض
لقياد
وتبادل
اها
عمدا
المشتركين
kenzamorsli
##ope
وثابت
##ليمة
مدي
##ماال
الرجولة
بالمعلومات
🙀
التعا
⭕➊
والمج
اشتعل
واجتها
##وغاد
رونالدينهو
بالقرعة
الاقصى
بفرحه
لخرج
##فاعي
تصمد
اجز
زحمه
بالتفكير
٥٤
##ﺍﻥ
التيمية
تثاءب
تولستوي
##ٺگ
نشامى
##افين
طبعنا
للبعض
##بتهم
بتعامل
##اعمل
تعهد
🍷
ينقصها
النشيج
بالشين
اهوى
التوثيق
##شمركة
الكشك
محفظ
شوو
اليو
البسمة
لواحد
ﺧﻼ
اعادت
فثق
هالق
##قيقه
##قوا
واعتدنا
😍😘
مفعل
التى
شرفك
كوتينهو
كمد
نتعب
لااح
##یکی
وذنوب
ذباح
الفصيح
##هدلة
لتحقيقها
شاكي
الدبابات
واكس
والجواب
##كارم
ضحت
بنوك
فنانين
##يتر
تنشط
لاار
مزايا
كوثر
👏🏽
للبشرة
تيفو
تفاعلا
خالطت
يلحس
لنكن
يمزقها
تخلو
وازعج
يتكون
تحويله
الفها
##رمضان
فرغت
##😏
بتفاصيلها
اولت
##ﻔﻰ
تتوعد
نترقب
hal
كالش
ويخليك
انحاء
هلكوني
##فارقه
بريحة
مقول
دكتورتنا
وتسحب
الشيك
خلالها
فيخرج
وخلصت
ماليش
التلقاي
░
##ﺔ
لعيونكم
بمطار
موزون
اسعدهم
ولينع
##خاف
رقاصة
يوفقك
نيلها
تطري
اغضبتك
اقدمها
والقى
مصابك
اطفالك
مجرب
كلمن
الغاز
ترض
الثلاثة
ينم
مشرقه
معتم
👥
يثمن
تبرز
قسوت
اتممت
##سار
المعمول
الاض
قيامه
مشاع
واصحابه
ياحب
حلق
##الكه
يقومون
😭😭😂😂
همون
الفواتير
اسحب
ببحر
المد
ليما
الزيات
ساجد
طريقا
##حيحة
بورن
مروقه
يعرفونك
تعلي
##السعودي
😤😤
العواطف
العمالقة
ويعلم
##قذ
متقد
تمرضه
ويعرض
خلى
مخول
##ﻠﻬﺎ
##ريجات
واكلها
للوقت
ﻘ
جانب
علط
مبهجة
باسعار
تهمنا
وللص
اغنياء
هييه
وسناب
كوبليه
##ust
لاينام
معديه
##ﻴﻨﻲ
تعصب
متعنا
حفظنا
ومالى
الشمري
سالها
✔
تسولف
رجال
ﺭ
والبقية
الاخوين
】
مجربه
يمتزج
رايعين
تلزم
##خاصمين
التجديد
الاعراس
ببور
بدونك
ورجاء
كاتب
الترقيات
بقض
##ڑ
جراحك
تصلح
معوضين
الكيميا
الطوال
الهلا
الدكاترة
##فاض
➍
##بيرغ
المسر
البخل
تحشرون
بجواز
##برتو
وافخر
الخايس
دید
باللعب
جيلنا
هلس
belie
تحارب
مشكلة
نصحى
هوما
دقني
اﻷس
زواجه
ياخسارة
وماهي
فاستبشر
الشاط
يناديكم
ريتك
كوب
##اهلو
الجدل
يتكرر
♡♪
😂😂🌚
الغيط
##نعا
وترسم
يزرني
بھايی
##راد
وامورك
شدد
واخواننا
اخلف
حرقت
الحاح
لاقال
park
يعتلي
كراش
سيسجل
تشيلسى
الاذا
##دنيا
بتنا
وراف
پشت
اثيوبيه
اسافر
مصيبتي
خبيلان
ومبدا
موظف
ببذل
بالسجون
الفلبيني
باستثناء
مناورة
المزح
##جن
لولدها
وينهي
يدعوك
متابعيني
حنة
ضمنت
حزنك
يااح
##ι
وانتقاد
وعبير
##➐الي
ليعزم
للميت
##et
##للة
استفادة
والحياة
اترابا
والموعد
عشانك
##ريجي
العرعور
الملل
والشيوخ
وسرها
لاول
قراية
المنيا
وهادي
معبد
##غفرين
تركز
مليون
بلوغه
يجتمعان
##ظة
##شراف
تجبره
##وقراطي
كامب
ونفرح
يخربي
سيبحث
اصدقايك
##بقوا
رجعت
بتحلم
##تج
##فاءلوا
والوجوه
تجمد
ناار
واوري
واقام
٢٠١٧م
بندخل
واكفني
العمالية
وانظر
لبري
حواري
جلدة
الكدب
فالمس
صوتى
عينيها
ربانيه
vs
مسالم
المستيقظ
الموشر
التمتع
نكسب
ونيل
كورتوا
الشيله
مستشار
اقوي
لابرا
لاطول
واسحب
الاطلال
##ضال
تقولون
استقامت
وقطعة
مارتن
rob
صوب
اليوفنتوس
##وطة
الصفا
##🇲
بضمان
كتابة
للمعوذات
والضيقه
##موذج
وعدنا
ايقنت
مااقول
والذاكر
واستخدام
رضوانك
ال100
هالليلة
الرخام
اراضيك
ونسكت
ترشحه
##ﻴﺎﺀ
##②
القسى
النصراوي
ﮐﺮ
يصبه
هون
##kat
visit
فالقلوب
العماره
♀🤦🏻
اعتراض
الحسبان
الديم
ماظن
نصيبنا
1437ه
##iam
الجوى
ﺭﺩ
جيدة
واعتذر
الوفيات
التفاحة
تعجل
##ہے
##هدي
منقلبا
معطر
lebanon
وعدتك
الاهبل
عيطت
وتقبلهم
اجلد
كامو
##حول
متطوعين
jan
وحمدا
ماصدق
حدثوا
يتكلمو
يزعجه
حطه
وخ
##لندية
قرانى
الزاير
##اسات
قربنا
##ضييق
official
ﺍﻟﻨﺎﺱ
المحتمل
نيابه
اشهد
سابعة
المصافحة
يرجو
مبهجه
بريم
امينا
للعلم
##ﻜﻴﺮ
بمه
##لسوف
تتناثر
هتنام
قراءة
##ققه
ﺳﻨ
##ﮭﺎ
موص
الغزيرة
🏿
افكاري
الاقتصادي
##ارب
فرحي
انفو
الرقمي
فيقول
وتقت
ماعلينا
وخطيب
##ثاله
ﻛﻤﺎ
تشل
امنه
فھم
المحياني
يستحسرون
##final
جزار
وطوا
توكيل
##ێکی
السكين
##فادة
وزدهم
الكريم
حسوفه
لانهاء
فست
ﺃﻛﺜﺮ
المحلات
😚
##اسى
وموقف
مايتمناه
ساقتك
فوات
وابنا
الانتحارية
لامتحان
نوايا
الكتابہ
##نانير
المنطلق
##ip
ولحن
وتاريخه
عنا
بحكمتك
صومالي
يتساقطون
شغلها
##سابقات
##گس
##ﺗﻨﺎ
نقصك
الابل
##لتي
وتجري
🎇
يتعين
تشييع
##عدهم
اكتبي
ديالو
صراحة
محرم
بحش
##وامي
دكتوره
##لبان
وشذا
ومكنتش
بقالي
ومستودعها
منحها
والود
سقراط
الدوون
خو
المنصب
وذوق
الليام
ايعقل
##ﺪﻗ
للخبر
واكتبنا
للتر
مكناش
والبصير
بالرحمات
الدعارة
halamadrid
تعطيه
لحادثة
ﻣﻨﻪ
##get
الشراري
عليہا
##بايا
طناخه
الصحبة
56
لتامين
ولاشي
وار
النسمات
يظلمني
وبالف
الممشى
وراقب
الاصدار
سودانية
فسنيسره
الاكلة
منذر
##لكني
ايقظني
##جبتك
㊙فلو
حضرتي
افتقدت
بيفرق
اباه
خلاف
يرفعوا
للتوعية
##جاهل
خدك
يدوم
يونس
هكلمك
مناجاة
للجمهور
معاي
بتسبيحة
قولولي
ناديته
البولندي
##لفل
الدكتوره
استحمل
سلمية
تغير
ببكي
##هاشتاق
الجاسم
اق
##والح
باق
##😜😂
ونصبح
ب
نبضاتي
للبرو
بعرس
للمنطقة
##درز
##عونه
للاهلا
واعداد
٥٥
لعام
عقبه
ببلاش
صاف
##ستهلك
دینے
٩٠
04
مختارة
يشتري
وﺍﻧس
واصله
يت
##شيلة
اهلكم
ظلالك
ويط
واشفه
الحلى
##😂🏃
قحاب
عقلية
tomorrow
بكلمات
اختم
##ياان
لشبكة
برتويت
##ﻠﻴﻚ
##لوق
المفرطة
غلطت
ومخا
صارله
الموسيقار
للرك
نشاء
##لبية
الاتراك
النواب
انعدم
قاصد
لايدرك
##قاتلون
تحملهم
انسانيتنا
يستريح
وذاب
وامكر
السود
بطلنا
لمهرجان
##130
النمس
بذمتك
اعترف
يعيبه
##ودوا
ياذوق
كيكه
##ندما
##خالق
##الكل
واخرج
والصلاح
##4479
مالت
ديره
بجنه
##ذع
قلايل
##نسل
ستيوارت
مدفوعة
ونيت
تمنحنا
خمسه
zd
اجمالي
الابد
😂😭😭
بشغل
درجه
##لريق
واستحي
##اريد
شتايم
ذم
لنفسه
مگان
اكبر💜
اجيبها
القذره
ﺟﻬ
سوات
وحدوده
منار
يشبهه
معهن
نتحد
تعذ
##رشحين
الملحد
احمقا
let
وارواحنا
##ﻨﻊ
##ابوا
ﻧﻔﺲ
جولته
والتمر
الحضانة
ليسوا
مصغرة
عكس
ننوي
bro
[UNK]
اليكس
مانتمناه
باردين
##لذين
يقنطون
المستمرة
قولته
فاسقون
##وغه
٢٨
يهوديا
باقيين
##🌺
وحضرتك
##port
اعتمدت
بامتياز
رياسية
بسوال
##فيع
بريقه
کرنے
مفترس
##30يونيو
ابته
الاختيارات
mark
والتميز
فاستمعوا
طيبا
نضر
امرهم
القري
مستغفرا
طيبك
الصغيرين
##جعون
وبد
تنط
لصناعة
يكتسح
يعجبكم
islam
قدمي
دردشة
هيكسب
دهر
مريحة
تحلم
متابعين
وضل
الاستش
ابتسامتي
الخبراء
الاضواء
اخبر
القطط
الاسبوعين
المتخ
فقلنا
خطية
بكتيريا
موقعك
تسي
يحرم
مشرد
تتحدث
عندمات
كارثية
ستين
بالغرام
لكوني
روياك
المكافاة
عط
##اعه
دبي
##لاعلام
®
الحيااه
العرج
mis
بقصف
يسهلك
ضربات
##ﺑ
للمصلين
اكتبلك
جهلته
العمامة
عاج
عنن
تصنف
التعزيز
وصوفك
september
حقت
ياخذنا
والشهادة
حصى
##ندور
ونسمات
جنو
نوعين
اباينا
يعص
##ثي
##فارقة
انتوا
وسددني
💙💛
📱
اجسادهم
الزويهري
لتحويل
طغي
##صمون
كهربا
بحي
do
السجدتين
تحصلها
الاميري
ذهابه
##شترك
والانفاق
وبهذه
##زينة
بردانه
بتاعنا
تقولو
قاوي
الموسمية
يونسني
لمسافة
المسايية
وماحد
الهوم
منهك
لاتبخل
##حشاء
ابواق
تجدها
اغمض
ويمكرون
متخاذل
وتكريم
واوراق
##lin
التقدير
نادره
المرجع
زلم
اعطيت
under
بيشجع
🏹
يباس
فرصتك
الخرط
الص
اكشف
منورين
بالمركز
للحين
217
##🇳
نوماس
يستهبل
يالف
##وقراط
##ished
تلت
اللهہ
متيجي
متناه
يعيش
##نفسي
وابقي
جميرا
وتعزيز
تصغي
ليح
ﺃ
لگ
الشيخ
تستيقظ
يارب
والدراسات
وفنادق
ندوس
##ثمن
احت
موهبتي
##💔🚶
للمرا
تلاشى
مٺ
##˺
انجلش
اقدارك
ماسكيرانو
✌❤
##وسيع
معجم
اولادك
##سرار
عيشنا
تغمه
بصحى
تقولك
شغب
وقلوبنا
ارنولد
وتند
سوينا
النفقة
فسلم
بدلوا
##ural
لافت
ياخلي
هالبيت
التاش
الطال
##صم
يصارع
انساان
السنابس
حقايق
الاضطراب
ماسمع
فيلايني
##gp
پر
بتخلص
تتغير
وجزاهم
فیصل
زوجتي
ولوا
حصول
اوجاعه
اعتبارا
بعبارة
inn
لايشعر
ﮐﯽ
مغامرة
الافريقية
بمش
مرهف
🍂
المقدس
التقارب
##🎯
ماركو
والثواب
اسالگ
اهلكنا
وجزء
dist
🍔
٩٨
المقداد
فريش
الرباعي
خورخي
الفشار
##ﺂﻓ
المصريين
##ure
مدرارا
نظامهم
دره
الملامه
الكراهية
بشرف
مافيها
تعظيما
شانها
سلفا
ملعقه
صحفيا
يتحول
الجماال
مسابقه
شكلها
طلعه
##لبيا
ستارك
##فيان
##افعي
لهمومنا
مغشوش
باشد
طيحة
وموب
احزاننا
التعاون
يوذ
اليابان
لهاد
تعاطف
السكشن
فلانة
ومرا
ابحاث
تستهين
جلباب
مفاجي
##بلوم
شهري
##متعون
الرافضه
ﻣﺎﻳ
جزاك
##ثاوب
ضي
##١٢
والمقت
للقايك
وانعدام
ماانت
فيرمين
السهرة
ماشوف
1980
دح
ثالثه
للترفيه
يطالبك
ومحدش
😃
ونايف
مستغف
##طريق
الغفل
حولى
انسانة
ونس
عسكريا
ذكريني
والصفاء
الضباع
وصيا
باحثا
شماله
يومى
لقادة
فافعلوا
هالناس
##💪💪
انتظرها
فقات
｀
الثغور
neg
يقاط
توقيت
يواجهه
اخوانه
والملح
##oney
الفايض
رفث
kenz
غالين
شاعرنا
لقايك
المت
😥💔
وغي
ضللنا
المواجع
بايمانهم
الاستلام
المبتسمين
الحلوو
الرويشد
ابطل
يتفق
بيشتغل
ياوا
حولها
الوظيفة
ننظر
تعطل
لتفهم
لانى
طرحها
للزملاء
وخساره
ابرام
◆
صدقتك
العدالة
الانسانيه
بونيودكور
القمصان
ونصره
نصيف
فتلك
والجي
لبار
واربعين
يلاا
وجدتي
والهمنا
دناءة
نصري
وجايب
تجاهك
يعبرون
تصاب
##لاك
يتقبلك
حسوات
الاكس
للملاعب
##¤
مجان
السحور
كسالى
بكينا
بالنهار
##واخ
جماجم
##ثا
ينكر
بتبدا
رباه
البعوض
سانتوس
ظنونهم
وعون
الان
تملكون
تومر
##المومنين
قدام
عايقا
باسمى
معتمر
السعاده
لشرب
وابتسامة
قريبه
##فيلد
عممري
الاعتراض
💐💐
مقزز
##kt
الداعشي
واتركها
صصباح
ﺇﻳ
قلق
يصنعها
بيقولك
ونيتك
##س
سي
940
حانت
وبلي
المقبله
##sf
وبيعمل
كيفنا
عاود
الاقفال
حلقه
عجبكم
rm4a
وداعه
الدرة
ﺻﻐﻴﺮ
الفصول
التمادي
دماج
يتخذون
فيتوريا
🎶
للجمال
##gs
قلبهم
الميدالية
اتركوها
اينعت
الكويتين
الخاي
معرفي
غطا
والتابعين
نفترق
باحتلال
بحاح
نعنب
سنينا
تتعالى
##وميديا
تناديه
الاخونجية
مسندم
##waniyah
say
لاتتحدث
##خسرش
تطيع
برفع
بالوجوه
رمضاان
بالنهايي
ايفون
انوثتها
ناقصني
الاقلية
كلفني
##والذي
نبدل
توقعنا
هامات
مدبلج
حمزاوي
ياثر
المعماري
المايل
بشم
وتغ
الفتاح
الشبكة
هلف
عدني
غنت
قسسم
##لانة
ﻓﺄﻳﻘ
الجزايي
الاعب
هانت
مثنين
كثيراا
والانثى
الدايمة
القادر
مجبورين
بتدبر
##ﻘﻠﺐ
بتكليف
بالشتاء
ﺧﻟ
مخك
ولينا
بخواتيمها
##ber
ومكانه
المهارة
وتكبير
والفرص
خنشوف
راسكم
يغفر
سلبا
##وتينهو
##😜
الاستر
تضرعا
جواز
لافتة
المجهود
ﻄ
سلط
علاقتها
مذموما
واستثمر
صلاة
ⓜ➍
مهيا
━
هض
منح
يحمى
واسلوبه
شيق
انتظرنا
##ومي
##reet
ثلثين
تحكيها
fav
##ﺮﺕ
لقطر
كلفت
استثقلته
##هنا
تهليل
فهود
##براني
قاسم
الموارد
خلية
فاران
##ﻂ
مررت
دونها
الردة
شعبان
بتساعد
کہ
الفصيلة
##المنا
برنامجها
قصفه
مكفيه
خطاياه
##فسور
المواطنون
نهضة
##روهم
المطاف
##احف
##بدال
يزيد
عزمك
##ﻫﺐ
مبادرات
ويسد
حتفهم
bey2ollak
side
جلا
يظنها
للسوبر
◦
الامثال
يااختي
حقكم
💙🌹
ستوب
ولازلت
بنيانهم
سدرة
تالمون
مادامت
قلبة
ヽ｀
وتونس
المسجل
الدريهم
ليبهرك
بتشوفها
المتناقض
اعج
نتن
دعموا
##الط
##as
ومبي
ﻀ
##ٱت
الاحتياجات
##بلاء
فاجبته
٧٤
بهالت
الالقاب
##امب
الجميلہ
نغادر
##رل
##راءته
فرنسي
وجعتني
اليهم
اشتر
يشوفوك
عشقه
0550
الكر
استخبار
رستم
ناخذها
اخرب
المخلو
المعاني
محلك
##رشا
تخسى
عيناها
متفكر
وخرجت
يكلمنى
كرانة
تمكنوا
مساي
تواجدكم
تغطيات
ﺹ
قلتلها
افتتحت
##وعية
تستحم
##حققه
press
تبذله
بسماء
الغذ
فريدة
لاتستهين
بحياته
نفتكر
بسنة
الفعايل
بخفة
الاحاسيس
##ghts
تيا
عميق
يبشه
‼
فيرى
بوسا
محليه
##اضي
يوافي
وحتي
##حها
ادخلو
وكلاب
منعنا
##rael
الحامدون
المقبلين
جنبيه
وكرة
امل
كامي
وخمسة
السايق
##امات
بفستان
وطعن
خوة
تسديد
محبوبتي
بكذا
جنود
دقيقہ
##جيلا
وحشتي
لايتجاوز
##فضيل
يقوى
تراودني
بنام
##جاني
المصور
يريحه
بلوم
فلاا
غيثا
موظفو
فكلوا
##ﺘ
هتد
بروح
جينات
تخبط
الخجول
##راقص
جذورها
حبال
يتدرب
الخاسر
##مسك
السابعة
وفارق
التشهد
ماتش
تتدفق
شهوات
ويقب
عرج
الجيران
تخل
##تبع
للفنون
شافه
##تبقى
والحافظ
##سلام
بيكتبوا
طفران
كذبت
##زمك
##💻
يهمني
هتبطل
اجبروا
لدم
##😂😂💔
ضحا
بالرجل
##جرات
وحياتك
سجناء
العيص
##con
🐥
##ضحك
يني
مواصيل
واجز
هذولا
يمسسك
الظهران
##فعين
الصحابه
متسالش
علطول
الممد
سنوي
وملايكته
يك
واكمل
##زقين
مابداخله
انظر
وجلالي
والبت
##📞
لصور
##سامحة
اغتس
يسان
ووالدتي
نخوه
اسواء
وظنوا
البداية
السياسي
ماتوا
صبار
٢٠٩
بخيالي
مابال
عابره
التسعينات
توصلون
جميلين
ﻣﺴﺎ
الاذواق
سرقه
لبي
صديقات
الاقيه
##سيما
يابعدي
دورك
##نياء
ﻣﻌﻚ
غيوم
الكسندر
##come
وتصف
لعملك
##ثلة
بسمتك
ste
##ﻋد
##💍
لامرتهم
للشي
كفيه
النرويج
طيفك
تركنا
قرة
خطره
•
ﻣﺜﻞ
والمعافاة
وتكاس
##di
صفاته
##سكع
فكما
يقعدوا
##هيدي
العصاير
شورى
اسنانه
جميلك
listen
بيتن
وخلوا
اخاء
عتت
تغيبي
يحطم
اسمحلي
بغا
احساسهم
هتست
##ضيفه
الثمار
حطها
استنفذ
⠀ㅤ
خالية
يغنيها
رب
محاطة
فلبين
يبعثهم
بساعتين
هامبورغ
##رنت
الفه
رتوت
شريحه
للجامعة
لامال
يربي
محشش
##ربون
##البة
توو
[SEP]
طواريه
المعارك
وسبحان
##يبش
المحاور
دنياي
##بدعة
الخرة
الاوهام
لاحظت
جديا
والاطفال
##ﻬ
الحوثية
##ﻮﻗ
السنتكم
ودموعي
٧٠
اوقاته
ويسالك
##بيعة
بوكا
همو
وعاوز
بناته
مطروح
راجع
بالافضل
سخرية
خاطيه
تشم
تفرغ
علمتك
مارد
تستوحش
يهبك
کرپشن
8⃣
كوستا
ويلتقي
وشهاد
بڪ
يسرح
##امينات
مدن
مملك
حاولو
الدخل
تقطيع
جريمة
##الحمدللہ
نويت
مرض
تقرف
نزداد
##قی
##زنها
ستنتهي
الثقال
الاضافات
بيريرا
بيتكرر
فانهن
الممت
ستخ
تعطي
مكتشف
وتصدر
دعان
##باگ
محو
ونستغفر
تكفي
خذها
ﻋﻨﻪ
##قية
طوفان
انز
للقبور
عدن
الاجرامية
يفاجيك
بنشاط
للخ
علامه
وحرقة
##لاحيين
ليعيش
اوصيكم
⭐
صني
الغام
ليله
لونا
ابوب
قصيمي
##طمه
##علوميه
تبغا
تكمن
يسهلها
وتنمية
##ﻤﻌﺔ
الحرث
##ل8
ونوره
دوبي
طلبتي
وشا
وصدي
الجنهہ
واليقين
نصراويه
يرحمكم
شقيقه
وتوجد
##ييل
وابر
الاقامة
##amad
مبتغا
يفسدونه
حذرك
معلوماتك
وتفصيلا
مظفر
الاعزاء
الداعشية
كفل
لاننسى
انفجارات
##ﺮﺁﻥ
وبيجي
بمو
الكويسه
☑
##وجة
تعبية
واجبك
هيون
##قبلكم
سيرد
مغردة
##awy
##ong
حرها
بالمناسبة
ليحكم
##ادوا
داء
اح
تهين
متدين
افلم
احاسيسنا
بعثة
بمزاجه
اياما
للطيبين
الفيروس
##وريين
افيه
المنت
الحساس
العمق
غبيا
تهمل
ياتين
قصيدة
لاباينا
مرتفع
بروجا
ونضع
للامم
تعالی
الرش
مستهد
روح
##ﻠﮧ
تريدهم
ويقينا
الخداع
تكسرها
ملحمة
حبيبى
الموعود
الروحانية
مطحون
ولدوا
##روقه
الزراعية
ذبحنا
مساله
يشكر
باسره
مصداقيه
قناعة
##ەر
صديقتها
##وهرة
ﻳﺤ
##داة
لتترك
بالحيرة
##لي
وحدك
الح
وامانة
##لونزا
##اميه
وتوظيف
##بيته
السهو
يتغير
تنصحني
و8
واخطات
مقيمين
تكتسي
احسنو
انسداد
واعاده
330
خواتك
ميسرة
وشابات
تتحم
الحية
للايام
اغيره
الشاملة
وشخصيتك
بتفكيرك
لشوفك
واوا
الشرعية
ضخم
بحياتها
واستبد
##ذرب
نظرتنا
##ضان
مظلة
##خفف
سهر
قدسي
##لنج
##ﺠﺄ
يتلاشى
تبت
##فزة
وتنسي
صحافة
##بته
بالعاصمة
يبغضك
الخلق
##😘😘
##😣
احققها
دبره
الظاهري
سيد
البشرية
نسوا
هاشتاقات
بيري
فتوح
يتقبلها
##اتيين
تطمح
⠀
عيبي
المصطلحات
لقر
بخلوا
المرم
لاثارة
وفرص
توف
##شنز
واهله
بتبص
عجايب
ممول
العضلات
##ﺟﻌ
خاش
##ذبهم
تتمادى
enough
منصف
عانق
##نصرك
تشهير
افرحنا
للمح
يبيعه
علوم
بالوطنية
يالشيخ
بيغنوا
فعبر
لاخوف
تريدها
المغفلين
##عارة
##ولهاش
شنسوي
سعة
cv
يجو
تشغله
حركة
غل
بالتلفزيون
##ڑا
والكمال
لحارس
نت
وتدعي
##نهام
بخجل
اكتفوا
مشاك
تتفلسف
توكلنا
##لخبط
##ماسية
سبوح
كبيره
قيمته
امنت
يراوغ
##➐
لقيت
##زاني
كباب
خصمك
شغلانة
القروي
ترمس
لروية
النظرات
##ميزانية
الخطي
ماعرفها
زيارتها
مسمعش
عمرهما
لاتنس
بالانترنت
مخيب
##لانتين
رقمي
دراسات
##بعيه
##😭💔💔
عقوق
سريرك
##ﯾق
برنارد
نايمين
مودبه
اخته
مكرمة
لسامي
##زيون
##روبي
شكراا
##كمل
ويصبر
خات
##يط
144
كسرك
ھ
نصبح
##واز
بمعافاتك
كلبي
تخلط
لصحتك
لبابا
وانشد
٨٠٠
##يرها
لاسر
ابراء
سطرا
قولتلي
##😅
کراچی
يشمل
متضايقه
وات
##💙❤
رشفة
يتوسل
##علمش
يشا
اختياري
يازمن
##ذكرها
رضوا
وسنق
وسلام
وعثمان
جرج
والمص
رشاقة
حبيبك
بوابه
تطر
للانتخابات
عيناي
تفصيل
براق
عيش
بخار
وكبرت
يصدح
بالاهتمام
بالانت
₎
ونجعلهم
بعذاب
اسماينا
يوشك
يتفقون
ضبطت
جامعة
عرسها
##كملت
تحفة
حقيقتنا
##36
😊✋
دلوقتى
راتبها
خوفنا
تكرارها
الثنيان
dont
سيما
كفوا
يايمه
الرحله
متفايلا
دمياط
الميما
يضيع
يتفلس
دعيتها
يكن
##🙈🙈
##فرق
حبيبة
التلاعب
يومية
التقينا
والوفا
بتجنن
ﺍﻟﺤﻘﻴﻘ
اخرت
حسبي
ودك
تمشون
ٺع
هتحس
لميتون
ورعاكم
السماعة
مواجه
ومستوى
حركاتك
انشات
يرضينا
سيهون
اعينهم
التقويم
##گان
فيد
اﻟلہ
اسالو
اعرفي
حااجه
الخنز
قعدنا
وحرص
تطوير
كثرة
ولصق
تتخ
تلاقيني
02
مابا
يعيدنا
ضيقي
كوري
##معناها
ontvlive
جمالية
تصريح
الحضارم
وحياته
بنظره
##صخ
##ﻋل
وانيبوا
##قولو
الجاي
بتقرب
والغفران
ممتازين
ﺇﺫﺍ
##➰
املاه
لمكانه
عتقايك
خاشع
ببق
تستعد
ومحمد
الشاغل
صدري
خطابه
ترسم
الطحين
ێ
والتحريض
سجلت
الاستف
تصرخ
تطيعه
الذك
باعتما
##ثيير
فيليكس
الولادة
الحارثي
اشركوا
قلها
ايز
والرزق
احلامنا
سواحل
راجعون
لقناة
##اسمه
اختباراتي
##👋🏻
البيك
نكر
وبمع
يعطيج
تنتظر
واجلال
الزبال
##اعا
واضحين
##فرج
ينطح
وسعيرا
مريم
وحزنا
بتك
لنصرنا
ﺫﻟﻚ
ريتني
هلاقي
لنص
##صفها
لتتعلم
جاسر
بزبط
ياجميل
هجرني
المضاجع
انتحاري
العازمي
قرضا
فلوباك
الميزانيه
جلالته
والمرت
وسيات
يتميزون
الرابح
##ﺎﻫ
ولتعلن
باخر
الماديات
للترويج
دفة
##عط
فجرها
وحاجات
مقيدة
السلمان
بلم
بلدك
##واجهه
##زقتني
للكتابة
بلوك
فالله
متعرج
##مروا
الخلي
جلب
شقي
۩حساب
المسايل
القضايا
ثقيل
ويعطي
انقض
فعاليه
الرسول
بالصور
##55
متضرر
دراهم
بمواقف
افراحكم
كتب
متاخ
##لچ
بالمظاهر
افعالك
والعه
الجزمه
لاعلاقة
وصافي
واسرافنا
וﻟ
🌰
الكشافة
بويول
الاحزاب
وجزاك
بتسافر
الجفري
المجند
😂❤❤
فينغر
للغرب
الشرفي
داني
لبسهم
والز
ماعلى
الحلول
والمساعدة
مرفوض
سبرايز
النسر
الجلاله
الداهوم
##ساح
نصف
سموح
علية
متقلق
لاد
ضايعين
##ell
بارق
ينهك
الاذنين
الماليزية
مايمنع
فيغ
وبدت
لتفجير
خافه
اجلي
دبرة
##لصي
مجته
##♢
الغرام
جر
مهاي
ببقاء
الالوف
##كرهك
وشنا
الشيب
لقروب
احزنك
جفاك
بمس
الامك
البلنتي
جروحنا
بيروحوا
جبير
التبرعات
كلبوها
للالعاب
يومم
##ركي
##الين
راه
💁
##نانة
##لعنون
manag
المتوكل
البخيتي
##مرته
الابداعية
استشعار
تصحو
معق
باء
والاقوال
يعجز
لاقام
مسووليته
ﻋلى
يستفيد
والرجلين
ويقولي
لوحه
بالابتدايي
معكم
الاعتياد
البدايات
الغارسين
درس
حسناته
كراما
##لاهلي
بتنام
نضحك
تصرفك
بتفتح
ترويض
ﻫﻬﻬﻪ
وعلما
وتضيق
وتطمين
##حتي
العراقية
العمري
وجنته
##wait
العزوم
میکنن
ياشافي
مهر
باحلامك
والخبث
وافتراء
وفال
وتحسين
استراليا
##لفها
ذراعك
starac24
انهن
ﻳﺘ
للث
##ﺣﻣ
وسيكون
✅♦
الجامعيات
بالوتي
##ild
ﻭﻟﻮ
نخبة
وسنن
الحالية
اللطيفه
educ
يلتقون
يعاتب
يوجل
واحلام
يضيف
السله
تدرج
لوحات
اطاع
احمد
الاسبوعي
المقر
الند
##نتها
مطبات
##افير
بالعرس
بنتها
بيفهموا
اكابر
الاقلاع
ميدتيرم
لعينه
kim
لحرق
وشبه
ووين
بشرا
نمر
العاطفة
علقوا
شماعة
ﺎلحياه
لذم
دعونا
وستين
اليف
تتوقعون
بجيب
بدعاء
تفريق
مقالا
تنها
تنج
يجي
##افل
اغس
وخدم
يعيني
انفتح
السخيفه
الطبعة
##السيوم
تفكير
والتفوق
الساسة
بسيطة
يتيم
مااحب
مغر
الاداب
مافتحت
قلا
##بيدات
##نهاور
الاولاني
الاساءة
نطقها
حراج
لذكرى
الهاوية
🕊❤
انتفض
فايبر
زواجها
ابتسامتهم
##🤭
الرفي
العتمه
صحاري
##ينكسر
الشلوي
عدد
##ستريونايتد
ﻭﺳﻠﻢ
##داومين
pay
مسرف
حرف
كسرى
##كت
ماخذين
نادرا
موامرة
ذكر
سيتخلى
##ﺒﻊ
قاريء
يرزقها
فيلا
لاخوان
غما
وشوارع
ستغير
الشاكرين
قبيلة
😃😃
منتسبي
كادوا
واحسانك
بتد
اعصار
##ضايا
ختاما
وينسى
مايغيب
اشوى
جموع
ضحكها
لاولي
وايم
للغلا
مسبار
عزمي
الموازي
عايدون
الحكايا
عونه
ظهورنا
##فقر
تسلمى
النضوج
##جعنا
قلبها
عتو
تقلق
md
شتيمه
مشيك
سكوير
##⬅
ويجمعنا
##كرة
استعاد
للحرس
العطاوي
للوراء
مسووليه
بنشره
فيرست
خيي
نسعى
نافعه
ادخلت
الحكاية
يرضاه
البيولوجية
بروست
دماغنا
بتاخد
اخذا
جوالك
عروش
الشامل
زقا
الملوث
التطوعي
الماكول
وربعي
##ننا
اتدري
التخطيط
خﻻ
نرك
فاحسن
المكونات
بالقضاء
حقوقها
##برع
اليس
ودعوة
##ules
يعج
##يبان
##نتج
❤🎼
واطعموا
الدبلومات
تبديل
اكسجين
المدد
##فاقك
تنشيط
وشعري
يشترك
الخان
##ول
المقابلة
ودوم
الاحساس
سببه
🤲🏼
نتها
تهل
اقتضى
ضروري
يسترها
سيارت
✔⭕
تتزوج
ضروريا
استاذنكم
##ظ
نيان
##ايلت
كرمك
بھارت
حالك
كبتن
لتنبيه
وحمام
بالذوق
يورث
عاطفيا
الوو
بوات
وقضايا
اولاد
لاتشتكي
ربى
ترليون
20k
خليط
##ظروا
المختبرات
بالتق
يوصلون
وتدور
وهدم
دراستهم
##لديو
والحك
##wk
بطريقته
متغيرات
القنوات
شعبى
بابلو
الكاميرا
حست
اعدادى
##i
المعرو
بروحها
خوار
بالاحراج
طالباتي
٫
بارعون
المفتون
براين
مباحث
يحفز
الغرافة
##شكرا
للتط
وانجازات
##ارے
انكتب
دوريات
وملك
الندوة
##ﻠﻤﻪ
hel
البطانة
عليهو
وكان
ونحيا
خيري
هتقع
نشات
معفنة
تحسهم
والفك
لكني
ويسالني
بنز
😂
ثباتك
الحنيف
##همني
ظلمت
عايلتك
والفت
ويرى
##سوله
ياطويل
يوقنون
لتفس
##450
وضعهم
القفا
تسوين
للمخرج
وحظر
مديدة
الشاي
بالاع
grow
0501164905
##خى
اجمعه
وقوتي
التراك
عالجرح
ابكتب
##ﻄﺎﺀ
نذيرا
المسوولين
##راا
ﺍﻟﺨ
تلتحف
منسدحه
بشباب
##ﻗﺔ
تزحف
الكثيري
وليسوا
بعوا
وعدتهم
##سامبا
##اثون
جراحية
##amal
بدي
غيبه
مخيف
حزنت
المهجور
والاكثر
🌞
باخرى
لحمدت
عام19
نختار
ميال
ة
ويغليك
وبخير
##other
بيحبو
##مسكين
نيا
لاحظوا
##جبت
الاذي
ادعم
تبعثرني
الاغراض
بمسقط
التكاليف
متسع
انتجت
السعادة
وجمعة
والمرء
تريني
ابلا
اشفيها
##اجير
يجيك
استقم
غرفته
##🌹🍃
وافتكرت
ثمانية
لعند
بيكاسو
شمعه
فاذهب
رحمات
باخيك
ولبنان
##ubai
كوطن
حميما
عقم
بطلب
هاون
##ايدك
مانك
وی
##يدك
مزيل
##لطة
الايرانيه
تبسمك
شبعان
بجهنم
هياا
السلبيات
الروس
##وزة
ابتك
حته
استيقاظ
لصيانة
##سانة
بكفر
##🌊
الصيفي
والمسلمات
##وسى
ذقته
وبرضو
نكمل
##مر
بتصرف
سيف
يجهلها
بطاعة
سالمة
هعيش
ويعوض
##🔁
يمديه
فاصبحت
طلحة
##وغرافية
مودبا
متابعته
اخاه
زعلني
مهزوما
للمشاكل
##حبابك
اراه
وتعبك
تاخذون
يترحم
شبابية
للجوا
قبل
ماتقدر
متنفس
ياتونها
وكالعادة
تعرفو
التحكم
بوف
لنظام
يحاك
👎
لافرق
ووٹ
leave
السمر
الخضوع
ايمان
مجاميع
هيمشي
##كتا
فنيه
ورضي
والحمدالله
يهمه
اف
تلتزم
بطاقات
نستعين
##مك
يرده
##فوو
مالكش
نجاك
وبكم
مقبلات
##ﻤﻨﺎ
جالك
الصايمين
روايح
وادخال
back
ﭘ
يزهق
##افهم
الامع
ينقصه
بالسعد
تنهار
بسند
القابض
وبالا
المسمار
المحرق
سكاتي
##ستهبل
تقنعني
تديم
تنور
##بوه
##116
اغنيه
الدراهم
الاتح
تزغ
الانبار
want
دعاءه
وسواد
يغتال
لايقبل
محدث
تعبانة
يداوي
##کء
متزع
تطارد
السبيل
نسبها
يولمه
اخلي
الوطنية
زی
عليان
معدوده
لصباح
احملك
ودوام
بالسياره
الاقيها
وجو
الزب
المنف
مبتبقاش
##ثالك
نسفا
##حرز
بقت
حديثا
##نتيجه
بنن
ﻧﺎ
العميد
عروضكم
واجتماعيا
سيياته
لبا
##هلاوي
محاسبه
##شع
اجلہ
لايفهم
ومعالي
رابط
##فيو
##كرون
راهي
وحقايق
يتطرق
ابالغ
والعت
##لوج
المهور
يشاركون
##حتفل
يقتلها
سلطه
لذي
وذه
ماكبر
مزاين
هنبقى
هذا
نايمون
ارهقني
☹♡
اوصفك
##للج
##صارات
اخطايي
بيزعل
اذكارك
للامل
##زار
يقتنع
ابى
للعلوم
اطول
تزيد
leb
وياكي
يااحلى
منكسرا
البصرية
##بث
##وانيه
مكانها
تبتدي
##ﺎﻧﺎ
والاخرى
الشكوك
والامة
التحديثات
النحل
والاربعاء
اليالي
الصعيدي
بخمس
الرخم
لحكمه
sp
ٺرى
التمر
الاعصاب
لابنايها
زعل
ﺑﺪﻭﻥ
الاكوان
جالس
الزله
والامنية
ياكحيلان
##باكى
وضيف
##وقفت
بالنهاية
الاقوي
والكتب
الكه
يخشى
صاعقة
هتق
##┈
ماير
خطايانا
قرارا
مبعوث
مفا
##💮
li
الفس
سوسة
مفرجة
تشاركون
##سبني
##38
ﺍﻷﻣ
وتكثر
##313
اﻻ
##ااق
الجمعة
##رفته
ﺍﻟﻤﺮﺃﺓ
وتحبه
المعظم
منحنا
يص
والعون
جنبنا
بنوع
سباتا
اللغيصم
متمرد
المعايير
ٱني
هنقدر
تكونان
تراهن
غلاكم
ماحد
بتغيب
##وقرا
نودع
##لكت
##رضى
يخاطبني
يتداولون
كانافارو
بحديقة
اصدقاءك
لشع
ضيعنا
ففي
المبطلون
مايك
وفاقد
معجون
الكتال
مریم
قولہ
ثق
عبايتها
بمحبة
ﻭﺍﺣﺪﺓ
ببطن
معلقا
اثر
بيتقال
العوافي
ودعهم
ايتونز
النجمي
السفهاء
تفوق
قرانه
للاستهلاك
تعازينا
ماني
سويا
لاتندم
العف
منيعا
تكاثرت
يباركلك
بفضل
egypt
تكتشف
عافيتي
بتاعي
ham
قدامكم
مطلوبه
سريه
##😂👊
برر
هايل
نامو
قمري
لليه
ولدته
نتيج
الثوار
يشرحه
##وهام
انكسارك
##واريز
وتموت
تخصصي
قولتك
فانصب
مشوي
الهجرة
سكوته
,
سهرنا
مكانا
يزعلوا
والاف
المسلسل
الموسسة
يصادق
ﻭﺯ
عث
ﺍﻟﺤ
لاشعوريا
معاف
جوات
بشغف
تعص
تربط
بيخت
ترتب
##ذلل
تبعه
##ﺧﺬ
الادعيه
روما
ﺍﻟﻤﺎ
مزعج
##غلطش
بسرية
بطب
النحيب
الافصاح
التنوع
الزوجه
ارقامه
لايستطيع
كلاسات
دارس
قب
لانج
كلماتها
انتصارات
بليد
هيجى
وانكسار
ﻮ
للمحبين
الجهات
يسوء
اعترفلك
تعود
واجمعني
ذايق
اسماء
وستظل
##واهم
وغيوم
عذرتك
بالض
اساسيين
معارضه
ندركه
خطابات
الجه
منطقية
اعضاء
وعارفه
المشه
ويتح
تتامل
##ﺂﺱ
الانفية
الدكه
٣١
🌟
اذكاركم
بشكل
توقفه
ماتحبه
ناعس
تلاقى
##فوذ
للامن
زنۃ
upd
الهادفة
اسعدنا
شاءالله
moment
عملات
mov
156
متالما
لانستطيع
نحزن
مقدمة
ونعم
لاشي
الثمينة
##جد
والاحتياج
يقلط
اتاني
##بشين
school
وخبرة
للعيون
الاوف
نخبره
فعلم
اسعدت
##لھ
ليحب
تعتبر
المبع
تقليد
🔗
تابعنا
واليابس
الفين
جهيمان
##bah
##قطه
تدعمه
لغم
##يتوا
والتط
مح
ويدي
جنبى
فريده
اعلنت
الاختفاء
تحلق
تصغر
##يها
ماخلص
##لاقى
لترضي
نقط
المنش
بعص
جواها
تفلحوا
غيار
##ويي
تصبحوون
##خيلة
افتقاد
##قو
استمري
دج
##ﻴﺪﻩ
بالتحسر
وسرورا
##ress
شكي
##ti
##ياح
صدقا
روي
الصبااح
لايحتمل
حريص
ويكفينا
المق
ترضون
.
فلسطينيا
##مش
منازلنا
سطور
غرست
والاجتماع
تتابع
ضحكتني
جروح
نزيهة
السكران
نم
الشدة
الالسن
##ﻨﻪ
تاخذها
سچ
زما
لقتل
##👈
##عولي
saf
ﺗﻌﻠﻢ
حاكم
يرجعوا
##يحات
##ese
باذكار
للتعليق
راجي
الهيبة
يكتشفون
نتقدم
ظهرها
لوكوم
حوراء
الغانمين
غشاش
##للام
مهاجمة
متفقين
الخطوبه
##الشر
الافتراضي
وتنهي
##عور
٥١
مابن
والشقاق
والنوى
باهداف
مثواها
المواني
يدعيله
نحنا
وقريب
لاتزغ
##فافا
##ولر
##عانة
برتراند
##ضيحة
الفتره
##صرفه
عليش
رافضي
سيعقد
ماقسمت
صغيرتي
الفاشلون
معصيتي
خسيت
نواز
##ابره
300
##جرو
سياسية
غيمه
حييتم
قنوعا
الاغنيه
قدميه
زعم
5g
اليور
ړ
بتفكير
##كاتره
اللهمے
واعادة
وتعليم
ﺻﺒﺎﺡ
استقبله
رخيصه
واركعوا
يااهل
صاحبنا
الذم
##inab
ابيعه
النماص
اضلاعي
##خضر
نوح
الاحتيال
بامت
البخ
شگرا
يعشقها
##نتان
بكلم
انض
##علقش
السيسي
##صلا
##ذك
##اعلى
ريح
##شان
الخيانة
النداوي
##قن
##ذكروا
شعرا
وتوكلوا
لسانج
tn
بلشنا
نلاقي
فلنحيينه
اتز
تتجه
السالفة
##متلك
انتباهي
الاحماء
واغرق
الهضم
22
##لاويه
تنتخب
cfc
راته
يظلمك
اتعلقت
الطا
بيعجبني
فقه
نهج
ترضى
كتابه
الابوين
مثلت
طبعه
##ازى
للهجرة
استفاده
food
شيله
##ختبار
الجذور
تخرق
واخلف
الخالة
للخليج
الخلل
والسابق
##ديمة
##شهاد
كيش
تنفيذا
تالف
##لض
التضحيه
##غلهم
##لn
##طاء
خلفها
قريب
##✥✥
الدوم
شفا
المجيب
ياحظ
الوعود
متنقل
تمور
عاز
اعتقادا
هی
لقبول
افراط
##ﻕ
##نانه
ولانها
كالجبال
بتتعامل
فسا
والجزاير
للانباء
##حان
وينصرك
😋😋
حيصير
حجة
بسمه
اعطوه
يحتويني
##ويره
الخثلان
##☄
عابر
ماحي
عشان
انتى
المراقيب
بصيرتي
##ﻟﻲ
بالقصاص
غابه
التسرع
منكوا
عليگ
قمر
اقاب
والغ
الاطفال
ابوكو
التخفيضات
ولاتكن
##ذرين
استرد
بالافت
اوعدني
توقعاتكم
تشلسي
بداو
موضي
والنهضة
تغنى
ضربها
الديرة
السعرات
عظيمہ
توزن
وبكرا
قررنا
احرص
بالمشاهدة
وطمانينه
ووجهه
الفاخرة
وشاك
وقسم
★
وقينا
كهرب
ايدك
##awe
##نساك
انتبهت
اكبرر
تغريدته
الثروة
الاسطوره
يهمنى
للغايه
نحيف
##مونا
الممطرة
##❤❤
متهمين
فكك
لاتج
##درين
##aut
بقول
ﷺ💞ﷺ💞ﷺ
عراة
اشتريها
ملى
استكبارا
##ضو
ﻃﻮﻝ
المنظ
القيا
جرعات
##◕
يضوي
ضرير
تزهق
وداع
##wn
هخلص
ﺳﺄﻟ
اجته
المنافذ
فلوسي
تضحية
يعامل
سوسيداد
😍😍
بفكري
بتتمناه
بيدي
تسري
اميالا
🚶🏼
بالخاص
ورغب
##ناقشة
مثال
عافنى
ﻧﺼ
واهلها
welcomet
اليماني
خطوبه
موسوعة
##بيرز
للمسا
بعلمه
ورياض
سكينته
😴❤
فدعه
الخطبه
لوس
##78
##الكسي
بيدخل
واتاكم
اجتماعها
##واا
اللصوص
يتكلمون
##اليزا
الذه
يقراون
وتربيتك
والسفر
التنكيل
بدري
الانطلاق
##ءوف
للعاصمة
يحبنا
يطلعون
##ساوى
اجسادكم
حولي
##ريكات
عملتلي
المتفجرة
تليت
تابعو
للعوايل
يستاهلها
يتطلع
عميل
لاعبهم
فليذهب
##روحه
##اقه
ريتويت
ابتليت
ويفيض
لاحظ
##نطاس
لظلم
نجران
ينشرها
😂💙
الوفي
بضاع
عيالي
والمتع
وغفرت
ﻣﻦ
##فعه
بدرجات
لتكتب
لادع
ٱللهم
مستثمر
ماذن
الموتى
انتصر
ادعوله
elect
والطلاق
الشريفة
##شتاق
دعهم
وهذي
##روں
##وية
🔘
يصر
وترى
لوحدى
الذاكرون
صحابنا
مبيبقاش
ركب
اعجب
##✨
تداوله
##لة
كلامى
عربات
##ai
ببا
خطيب
متسول
استحق
##شية
يرحمة
تعيسة
العصافير
اﻛ
والابت
##ﺘﺎﻕ
اذڪروا
ظلما
مقلب
سوما
قنبله
الثلاثاء
ستور
كشمير
##ريتي
عطاهم
##ەوە
##uk
يتجه
واسه
الصعو
وبموت
التسليف
##لغت
يفو
😂😂♥
بضعف
##لجة
مايقول
اولا
ﺎﻟﻟ
تميز
يردوا
مصروف
والمناصب
حيه
يانب
##ايلور
للموقف
هختار
سورس
استوت
يقنعني
يبارك
مددت
نعيمة
الامبراطور
وقاعدين
##💚💚
سيقام
ﻓﻲ
اتهم
الهزايم
الحجاب
والبطولات
##45
والنسب
فاخر
٥٠٠
المحبہ
ضايف
موظفيها
مشكلتين
##ﻤﻦ
گف
خفيفة
وتزودوا
عداا
##طيك
وتاخير
اثري
ياعني
اخواته
الزلة
احاسيسي
project
توسعة
فيكرمنا
المحتاج
لاولاد
قمتي
تحتاجه
خطرت
رايحين
لاجد
البدايع
اعالج
والتهليل
طري
للغياب
##غالية
يضربوا
تفقر
مستاهل
##قيين
موقفين
كييبة
الكومنتات
كصديق
s6
اجن
اميركي
الاستمرار
استاذتي
مبرووكك
يتعثر
##لرفع
بعزته
ستندم
والتاكد
مستيقظ
شفاهنا
الهولندي
ينصح
متوقعة
المتميزة
الحكومي
اتولد
خطاويك
برستي
يلوموني
يرضيني
الجناد
لحسم
هوبلت
تكفل
##بيبة
ﺗﺮ
مزود
ويزعل
ويرفع
انبياء
##🙈😂
نوفا
##شریف
القرد
ريحة
اير
يعاملك
الحارة
جوك
قالتله
ادانته
ضلو
شووف
يمتلكون
تفتقده
نساء
مميزة
وتقدر
لنجوم
تبخر
الشمراني
##تيي
##اتيه
المتوفرة
بامة
زين
واعيد
🌧
مشعان
ﺇﻥ
سولت
بيطري
الساحرة
ويعني
تسالك
##os
يعور
مستخدم
ونح
العرباوي
نحرم
موتوا
جبهة
دوخ
بادب
الاماراتيه
عمامة
عريضة
##يننا
ية
يسلم
ثلث
تتوب
حصينة
تخفيها
لبوه
تجسيد
شاكلته
وقه
##اتو
هبط
للتغريده🅱
نقلا
الشمعة
kur
واجر
والتاريخ
اعينكم
زاغ
علامك
قصر
ناسفة
baby
فارقا
ومعد
ابلة
الماليه
سيادتك
##صدك
##رقي
تتن
حافلا
جعله
104
حسبتها
##ﮬﮬﮬﮬ
للانتقال
حوت
##➋لزيادة
ولكني
القهاوي
الشيرازي
##منة
مظهرك
اغنيتي
صاحبت
ساحل
الشوطين
الاحترام
بالميزان
تخافوا
##هدف
🚑
انطفي
ازحته
راكبا
تمس
الاصغاء
المتميزين
##باعا
الفاخر
بترا
حمرة
تصلي
اهلهم
امامة
صاحبن
ﻛﺎﻥ
المحليين
the5
متجها
المي
متابعينكم✔
بالاسرار
کنت
ماكني
##ﺂﺩ
يترد
ردد
big
عيونه
ومنهو
ياسنا
تشيك
وانشغل
سارق
ارطغرل
تابعين
##وارق
##صايا
عيشوا
بينة
##نبينا
مكافحه
##👞
نهايه
الدعاوي
الريح
مايشوف
##حاق
القاعد
هدفها
##طاع
##نقش
ياسلام
صوما
رايتهم
##عبة
بجلب
الكبيرة
يدعون
وخارجها
وثبته
متعدد
mar
اخبارنا
رجولة
##بتسام
بار
هالضحكه
##560
ابوتريكة
💜🎼
##🤐
حسرات
عوادة
ترحيل
##لخص
يتركنا
وعليهم
ابراهيموفيتش
ساكنه
دمعها
##فعوا
##عاف
مايغني
بالصدفه
سيبقى
لاجيال
لله
تغلي
##متهم
ظلها
والعناد
اغ
ينثر
طلبات
##لامير
139
ياغبي
كويتيين
انفراج
والنص
##نطفي
تسافر
🤘
الاسمنت
##صير
شرقاوي
فنا
بتخليني
##ورع
مخافة
بكلام
بعقلية
عساني
الاضحي
احبابك
##غالبا
xp
بالاحرى
##لاقاة
يرافق
وطني
〰
ليقولن
##عمق
لليم
للفت
##اعون
##الاتحاد
رياضي
ﻋﻟ
🙄🙄
والروم
again
واتابع
عمود
مخزن
##صرف
الشتويه
يبتلى
سعيت
اخبركم
لاتي
نن
باطلا
والارهابيين
هالحركات
يفرحك
الملتزم
خارجها
اتباعه
الفايده
جرح
فاقده
##کو
ينكشف
##لاقات
🍃🌸
عالتويتر
الاعداء
الحور
سندرلاند
اسالكم
المشككين
لهب
مصن
مصلاه
خلانا
اوفياء
اسفين
وخلقك
بيستخدم
للاكتياب
واجبنا
197
رقص
لطفل
وتقب
##❤💚
خلفكم
لسيدي
كسلت
واخذل
##اشقين
وغنية
##14
##مرك
الذمة
تمنيتم
تور
پہن
وصورة
بعظمتك
ومكان
little
اشاركك
طرب
چھو
نايما
##روعة
##لوقتي
ﻗﺒﻞ
فتحنا
البلكونه
الكورسات
بنتي
تنمو
اتقو
جرا
بانتصار
المعنيين
الجاف
متصل
والزوجة
تكفين
يذم
البعاد
عمالين
ۆت
العقلاء
##🙌🙌
الحقيق
ودرك
خوازيق
تخسرهم
القيوين
##ساسية
حبتك
فيناا
ودعوات
ذات
المعبر
موقعا
الاستسلام
ويديم
##ويلك
خطاهم
للتحكم
خدها
يسوون
تريك
##فرى
ويسوي
تضطر
للذاكر
وانق
##عثر
خراب
جايیں
وصراع
##◎
🔴⚫
##ثناء
##ديكور
نصل
مهزوم
والعداوة
قرية
ﻭﺑ
تجرات
##لنا
يكلفك
فاضية
##صيل
لاتاخذني
ماذهب
اججمل
souk
يقب
الدقباسي
##فني
تهيم
مصرة
الساجدين
##اشف
طريقي
##لناش
بصدد
الشهرية
متعلقة
يدعمهم
##ﺘﺮﻡ
فحوصات
واجتماع
يقطعك
لتوقيع
وبالن
عزه
مدربه
المعلقة
ابٺ
##مور
تفضفض
حطت
باخلاقه
الموسسه
colle
##قصود
تسعها
السفينة
بافكارك
طافت
الفقره
ارجع
السنابل
المغربيه
##راوي
زرقاء
العالمين❤
باقول
##صحح
ڑ
##وصل
##رهہ
وحوله
2⃣
ضجيجا
والسلامة
معقوله
تنهض
الشاطيية
لاتسمح
واحرسه
اشواق
ياصديقتي
##ya
ولسان
ليستمر
الزمن
كالحب
بمقدار
الدفعة
اهميتها
محتج
والفخر
وافخم
سمعى
لمرا
طيرت
الاخو
بكتابك
يملاها
##بوك
فرحين
ستمضي
راقيه
##ﺠﺮ
جداول
تحقر
يصحبي
imam
وقتلهم
اهملك
يصلح
##اركم
امس
شيبة
غلاي
##ريستا
رزقهم
باضافتكم
متز
تسحر
فسب
فمزق
مطمينة
##٢٧٧
ويده
【
اختط
حاي
للشهيد
كريهة
بجمالها
عنود
لفتحه
ازمان
دیتے
بولا
عاوزك
نخش
وي
بالق
rain
الط
الاطول
سكنيه
اخوياي
للذهاب
والق
لاتياس
ببرهما
دماغها
✨ⓜ
iraq
وعودي
وعملك
اياتي
يسمى
غلات
فرحته
عوى
تنزعج
واكذب
##ملكه
يارج
اهتماماتك
الانتخابية
##غلط
يساوم
الاسهم
##ria
للانق
بالعلم
القاعده
يتوقعه
نحمل
ودت
الماج
استحقاق
##فاتر
الهاشتاقات
##بركة
الجنسية
ﻻ
##🏡
الفجاه
مسني
🕊
عطاء
والاجر
ماصار
تعليقات
##عجلونك
رجعته
ضهرك
ماراحت
لكزس
ماحييت
##الحق
سجا
غايمة
اشباهك
منعم
صدقي
يهده
استعماله
بصدور
جنسيتك
مد
##ماج
##ﻌﻚ
##لطنة
##وثيق
عيونو
فاقصى
تصبه
يلب
والصديق
##its
المعنوية
جوزك
تنشاف
بشتاق
قيام
بيكلمني
الهبايب
##وريت
لشغل
##شدات
لجوا
حلي
see
##نه
توقظ
##▶
مرارتها
اراب
##لنه
وامانتي
سعادتها
##مدد
الالت
للتطور
##🎋
وقوا
##ومتها
جته
لتحكم
##يعني
يقودها
##جيح
يتقبله
ليثبت
احييتني
شاهدي
افسدته
فكم
بصاص
مجتمعا
اسرارنا
جميعهم
ﻣﻮﺍ
عدمها
تفيض
وبل
ابتسمنا
قرقيعان
##🇮
##ۆم
اشتكى
يكرمك
للبيع
يدتي
وتنسى
##سنها
اغتاب
يروحوا
بتولع
سمانا
ليتكلم
احتراف
الحيوانية
ساعت
ممتعة
##زيزي
تفني
ﮘ
عزالدين
##dom
وللغ
اتضايق
##بالا
ناويه
##ويتا
تماديت
انامل
اشتياقنا
شفافية
وحجاب
عطان
والشفافية
اعز
الثمينه
بالبك
##ﺎﻋﺮ
سامحني
شفايفها
تقار
دفاعه
kam
لوم
تحتسب
وامثالك
نصيفه
##قانا
ابوسك
┏
اعضايها
تزعلون
بالرابط
تتابعت
الحياهه
##ربها
«
تقارير
يتسابق
فاضت
مقولت
المستجاب
يذرف
متعج
تباغضوا
الفقار
صارح
اللجان
ولات
يازم
يحبو
باحسن
مجده
صراحه
ﻓﻴ
تتحفظ
##لقونك
##اتشو
الاقصاء
المقهوي
##omy
فقير
انتح
##عہ
المهيدب
⚫
باتجاه
##ﻮﻥ
اعماقه
نسايي
محاماة
بالعالم
العينا
اداوي
يمنع
هديته
تل
فاستغفروا
مغلي
متابعين✔
يوافقني
غاس
اع
تويتريه
نحسم
بتت
##اتش
خبيية
الاستن
الجاثية
الدينا
كفريا
كدبة
وهج
فلينظر
وٱ
قوليلهم
ودورات
بيسرق
##شاري
ديبالا
والسواد
شوهوا
بيظهر
##ليوم
##واهر
##vert
يقطعون
##يتار
فالتفاول
جباري
طيبته
##ولها
##لاعها
##جبان
ورعاه
super
##تلي
وفكري
الانيق
نقصه
##ﯾت
جاو
برصاص
برصيد
قوتي
جدلا
عمرري
بالكثرة
وميز
قسما
عساس
##قواك
##😩❤
شهابا
مكابر
الحول
cro
هيبدا
##بن
1440ه
##اتهن
صغيري
مساءالخير
##صحت
خططت
ومقتل
اضاف
الاغلى
سالتها
ينهاكم
ازود
الفلكي
diari
اتعرفون
كومنت
ترجم
نلقاك
والفقراء
لطا
اليكم
منكم
وملايك
تتحدثون
السعوديات
المدفع
شريف
وللناس
سكس
واحشنا
بقبلة
العبوات
يتادب
##وونه
كلل
لاتكثر
##جايا
دعاي
dia
مشغله
العنزي
وحشتيني
وجعلت
لتطوير
##ons
بفشل
وافين
مخارج
وفخ
والذى
يغشانا
تواصلنا
وسهلا
المعركة
التعلي
اسفار
##ﺳﻰ
احزاب
الطاعون
🕊✨
##زكية
اشارت
##طن
للتعريف
##oora
قناه
فوبيا
طاهرة
مشغلة
السعا
تحكيله
##زعاج
شوفو
المتابعون
اليون
اصحابہ
جزءا
r4
دربن
##يف
ﻢ
للمونديال
ليق
وتقلي
##ياك
والاحباب
بتش
المقاومه
المتبرع
تعثر
الامارة
اغنيتك
للجمهورية
##قضيه
##صيلة
والسد
بالنعمة
ورعد
الوجع
بخ
جيس
والاماراتي
##ﻘﻬﺎ
##ليح
100مرة
اوساس
برافوو
يولمنا
خالفت
طاهرا
الفعالية
لمساعد
وبو
ربانيا
mbc8
النازية
رنه
▒
دما
##ump
هداني
نومتي
تعجبك
حساب
وماحدش
كالز
بالاذن
نحورهم
الرقيب
الاقصي
قالا
##ضه
المقدسة
قربني
part

يالسمي
وعيدك
وقبل
فاتخذه
تخاط
يين
ظما
برحلة
باعلان
ﺧﻴﺮﺍ
##ca
افغان
اشربه
ومسلمة
نري
يشعرنا
رفق
مشرفة
بشق
بحوز
العطار
تصنيف
تريزي
الفحي
مخصوص
والمسوول
خلاق
وذ
##عمل
استرليني
ميتا
وتكبر
احتري
رح
بذوق
والعرب
للعقارات
ياقو
واثقا
##ھاا
بالدوام
ثورات
باهته
##احنة
ﻻي
والدخول
والاصل
##تابعه
العاهه
مثيره
استي
تخشاه
واتغير
♻اعمل
##ظروف
للبايسين
##سق
نيجيريا
##نساه
العكسي
ﻣﺨﺘﻠ
يعبث
rot
تجارب
دخله
ضحاها
تواف
خسرنا
الشت
بجوالك
هنود
تحدثوا
فترات
يقروون
الاعمار
قضيتهم
وترحم
كابوس
اختلاط
انتاجه
اللعنه
فالشوق
اخذ
التغريدة✔
النشاة
##واصلات
احجي
تتناقش
نودي
واقم
استفزاز
يرث
🙊
اكباد
مايميز
اخيس
كفاك
تابعوه
##اميع
بنسمع
والعسكرية
فيزياء
اححبك
صحة
ويغرد
##ويلية
fm
سف
جريدة
اوجعني
بالمص
يقنط
النسل
##زنق
كنق
سكرتير
تستحمل
ياصاح
الميلان
الجوله
##لينغ
انتقاد
##ہد
بطلع
⚜
ماغاب
عربيا
نكن
فرا
فهمتي
الفلسطيني
##چھ
كومار
يلم
ماست
تاغ
وتنور
الوانه
وبدلا
المليك
لحقنا
الفيلسوف
خالد
صدمني
سايكس
ju
ويمددكم
يتضر
العمومية
##ھن
يمنعها
##قمنا
يراعي
وتيس
بفكرة
##ستغنى
اعمى
محلات
لليابان
##تغل
يقوول
kol
اعادة
والظراب
##لزوم
عه
وتصديق
##ﻡ
##زما
السنع
##التين
هفكر
نفسج
بندقية
يتجسد
والسياسة
##نيني
youth
سمكه
ﺯ
##ﻪ
ﺳ
بشاره
حرارته
تدرب
sle
تسكنني
مغفر
شخصي
وتبين
وحديثه
اشعل
💭💔
للكابتن
##فيفي
##ناگ
رجعة
ازددت
النجاة
##٢١
قنطوا
##اون
ومراعاة
مشيها
مزيفه
##بكية
طقت
وظلمنا
حلوان
البرو
يحرقك
##🇸🇦👇🇸🇦👇
الt
قع
##تيات
استفهام
جنسيته
الاصلاح
ويغفرلها
نك
جفني
##قده
منيرا
خير
المصرف
انصح
بواحد
صفحتها
##شرون
##یے
بالقران
وحدتها
هضما
##عوت
تربيت
بديع
اتخذت
##iga
اشخاص
نصحه
٤٥
عدها
ويبقى
##ايت
والاسعاف
غرة
وكرم
ونطق
تلفونات
ياغفار
يانه
اغمر
استغفروا
جمعوا
وقوفه
بمرا
##🔵
المنطقة
تربيه
جار
##ﻴﺔ
##ص
ديمة
لمحة
ماينفعش
رييسها
الشمالية
مغتني
بلييز
##71
احنى
عياده
##شتغل
جهه
باللب
ساترك
للكتب
لازلت
حذ
تظاهرت
واوعدك
الاذان
before
حضاري
بيسمع
litt
@
للفلسطينيين
كاح
##٤٤٠
قميص
كريستي
لكى
ممارسة
ﷺ💞ﷺ💞
😕
about
لامن
المودية
مصباح
فيصلي
مانفع
الحاقد
ضيفك
تلات
الكربات
رافضين
انجازاته
ثواني
السبيلا
لاهب
🌴🌴
الصحيح
💑
ونريد
العفراء
منامك
تستغل
ومليك
🙎
ياريتك
مويدين
##atch
لذنوب
تكفوون
الاذهان
حاجتين
اعتمدنا
والفوضى
حضانة
صص
غيتس
البروست
بتحبني
هالاجواء
غد
لحبيبه
اجهله
اكثثر
نسيج
##محور
ياخر
ارسطو
الb
##ذيرات
العيلة
غلاوتك
وكالعاده
ترهقهم
اليغري
##لخير
##شاه
ومستقبل
مبنية
##فاار
والتفت
لدا
##فيذي
قدمته
بتفوق
تهيية
##ہیں
##tiskat
ادت
تقولش
##طاس
##👳
الدراجي
مكبرين
ويرتاح
مانسمع
الانتشار
الشقيقه
معلول
لسان
قدرت
يتعافى
##ستحي
##ac
براعة
بالتقدم
↓
مضى
##نافسون
تجاهلنا
اتفاق
بانني
حابب
شعري
كابر
البارين
صافيا
👐🏻
##ودا
##تهاب
تبحر
لكنه
##wy
فيرض
اللھہ
بسلمان
مستقل
##🙏🏽
رفضه
تصارع
الكاش
##tr
##عود
لجنتك
الضمان
لاسهل
70
مامرت
قدراتهم
الصد
الاصباح
بسناب
بتطمن
السنعوسي
اغلبهم
mil
يبيتون
##فقة
التض
الدوله
منعطف
بشف
محشوم
مادية
نبرة
تفجع
تبان
الكليب
نسيانه
الديربي
العلميه
##حملة
فيتبعون
المنزلية
##ساير
السهول
##عاية
مابع
ناديت
ماقلت
##فيد
وامن
والتكنولوجيا
بالضرب
هفتح
السبب
امهلك
للحاجة
هاتك
زهقان
وصلنا
متصدق
##ﺘﺎﺟ
الn
الاصرار
للفتاة
الشلل
ماحنا
ويشكره
كاينا
لغيرها
ومنها
##وفر
زايد
الاوفى
💮
يالليل
ناقصين
استقبالهم
للنيابة
والتوكل
توخي
اسراب
سلبياته
لوط
مرتع
##للون
مباديهم
مامتها
##املين
##شاشة
ملمس
##ﺎﻓﻴﺔ
ظهره
دخلو
##جعة
والعابد
##شيق
يقاضي
جهازك
يعينكم
جريان
العصبيه
لفظ
ستنطلق
والتركيز
ومطالب
وبمناسبة
##123
بتلف
عشاقه
شفاتك
دوشة
bal
والابداع
بانفاسي
teench
المصريون
##قدام
لمركز
خولات
تطلبوا
التجربة
بوجوده
وعقابه
الشارب
للاتصالات
فيه
تنسوني
##وسكار
##قيا
##لافات
لاي
🔶
وصلن
وعنده
والحريات
الحرمين
اخبرك
ببقا
قوله
##جاما
الحرقان
منعتنا
الهام
جاذ
الارتباط
يبط
##صفص
الذياب
ابداعا
ايجاب
نستودع
المبيت
تجول
صفدت
اجساد
متر
العق
هزيمتك
اماما
المنام
والاحلى
رجب
##طبقها
##دام
والعقيدة
البود
جلوب
نموذجا
sorry
تبيني
المقا
النمسا
##رجل
بوه
للكلية
احني
الهلال💙
موهبته
مشركة
واورثنا
صاحى
المجاهدون
##👍🏽
والتج
افراحك
صقور
بتقوى
المقياس
مدخلهم
هبدا
##جزت
الكمان
تعطلت
ستخرج
بقلبه
البضاعة
يعدك
باليوتيوب
القل
ﺃﺣﺪﻫﻢ
تعداه
يرفعون
💙
بركب
وزعل
مخلوقه
مص
ﻟﻠ
يعدم
بالاختبار
واخلق
##˛
تعيشون
143
لبشر
ودعواتكم
سعتها
الز
تیری
بالعربية
لقدرته
##🌹✋
شهيق
مجبوره
نكتة
الاوروغواي
مخالطة
##اھ
ببسي
الواسطات
ممشاك
##ﺒﺮﻳ
وعمله
جنونا
اتباع
كرهنا
ريش
##لجه
يحتاجها
انفاسنا
##غمس
##ذه
وانتصر
كملي
مشفت
تنسينا
زهير
لعنوا
فواد
##نوع
مو
ويعالج
##لبها
##ﻻن
1200
road
ﺍﻟﻮﺣ
المطنوخ
يحرمني
بقيمته
بلط
تصمت
بتمن
##😝
##دوين
ﻳﺴﻌﺪ
مولا
##ﻣا
بن
ياكلب
اعلام
محاسبته
تقلع
صي
عارضا
ﻟﺂ
المنجد
##اهب
قافل
الاضطرابات
النصابين
رصاصات
الاستعراض
اقطف
مصير
عسى
هاوم
##rah
هنييا
زايدا
##ﺘﻨ
ناقصها
##🚨
للخصم
للزع
بعضهن
واللحظات
واحتياج
##▒
والشخصية
الحريق
##وعة
واسكر
الصب
نحره
ﺍﺳﺘﻐﻔﺮ
الذين
ومصادر
##ڤر
تحدثت
رهيبه
تربيتك
تحدثك
##ليمان
ينفرد
معقدة
##سيون
المص
المتقدم
##لامور
تتبعه
غاير
معرس
الموريتاني
يغار
وعدلا
بوشين
امي
##ad
##بج
الكالسيوم
صابون
تبتكر
##جس
متمكن
الصحفية
ستان
تضامنية
حزينا
ﺩﺍﺋﻤﺎ
حدادا
قضية
النسيان
وانتصار
يحافظون
ﺻﻮ
سانشيز
##155
لنساء
ترجعه
واسوا
تذرف
##خب
العز
بالرجال
##ردن
الوهابية
قارية
ﺑﻘ
تسابق
سيزيد
تزويد
##▬
##بورج
استهانه
بضارهم
والقدمين
شيعية
بوجهة
الجحف
ابغي
وصلني
##مص
هالبلد
شهداينا
ایسے
زيكم
اهتم
اوتيها
فالابتسامة
الخصام
بتهد
##انت
گفت
🖐🏻
##ﻴ
مايع
لعبدالله
وتعلمه
كمسلمين
##الہ
##زوج
والشتم
حجته
##🙌🏻
شسوي
سهيلة
داعس
مقامه
وهلاليه
مشوار
##حطش
##ودات
هتجوز
وبشوف
البنج
فتحقق
متوج
##مسي
والسلام
بالخارج
شاملة
حلت
وحالي
ماتستحق
ودايما
فاتته
ثلجية
كى
السنين
منتج
وطاعة
يدعيلك
💜💭
هوليود
نقم
🌹✋
استمرو
اقريب
اسلحة
لاخترت
حطك
بحسه
النقض
الرومن
بالزواج
##همك
الطف
##غفرته
يريح
وترق
باظهار
الياس
اضطر
العنكبوت
سبيع
ومتعب
بكرم
تظاه
##وايي
فرقت
cr
والتفايل
خيل
هصحي
وهبي
لايتوقف
تقلبات
##فوض
ber
مسلحون
تحل
العالم
uk
جملوا
ريست
هتغير
سلبي
مماتك
##عيا
موبايل
انھ
ﻭﺍﻧﺖ
bts
بالاشتراك
تقدموا
بالحبيب
نوف
ماليه
وماواه
##حنة
اعذنا
مغاليق
يزود
خاطف
باحدهم
##السلام
فديت
سلككم
قديمي
تفاج
shere
لاربع
الهتنا
الفريق
والهواء
بالاحساس
يشوه
ركبها
باتقان
##annel
بفصل
اتصالا
وعلموه
##ماعة
##صاييات
يوسوس
اللذ
للسلطنة
##ريث
مجامل
ﻳﺘﻐﻴﺮ
##ki
الاستثمارية
تغفر
البدي
مستعدا
تنسوها
يعين
عجيبه
##غرل
يبلغكم
يحتار
اسفر
##بكل
الملق
ينتفع
ﺍﺫﺍ
الدعايات
تطاق
الرجال
كنعان
احزن
##لg
##ادة
هونت
اخاوي
##ina
الشعرية
اكف
حقد
حسابا
السباعي
استرخاء
مجيي
يختم
نحلم
يوزعون
هتب
##ريص
وقرر
قمة
ووطني
نصرخ
لهه
البيضة
##¬
امريكيا
256
باستشهاد
عافي
بالعيون
طوق
##صبااح
مرغما
##ﻴﺪﺓ
##دعم
دافية
عبدالحكيم
😂😂😭
مرتاح
لاقتحام
بالاجابة
فولت
بيلف
ويشغل
والتدخل
##عبها
كهاتين
بهارات
نسيب
فثواب
اتعسها
ستكون
بابنا
هالج
الغلاء
للتق
ﺟﺪﺍ
الضو
الوص
##راده
وفرجت
شخصين
##جلب
الصاعد
وهناك
ازف
##يكان
شكلى
10
تجتنبوا
##يدة
##نمية
اغني
يتسبب
##يشيرت
مرحة
للوالدين
بالسواك
والشعب
بالتوحيد
الخطابة
كنهم
الكات
وتجهيز
##حدن
##حتش
تعدوا
ووقع
upload
وهمية
الخراف
ووحدك
والتطور
سند
طيرا
##ck
وسالك
لعملا
هيروشيما
تستمتع
النسايي
نسكن
ماترضى
الرخوم
arab
اطلالة
واوصل
رتل
امبر
الكمبيوتر
🤐
خليف
النواظر
معصبة
هزار
ومعناها
تشريع
ويطالبون
المنصات
يختبي
لاتحزن
بتضحك
شفايني
ينجيك
##شة
##صدقه
الميمون
كارديف
اﻟﻠﻪ
برات
كسرا
العدان
القمع
حبش
بمومنين
اتقل
##ستيك
##زعل
سيسالك
صيبا
🏼
##ﻤﺘﻚ
بسبب
تستحق
العشير
ملكتك
رات
زرقا
##اخرة
حوى
تغييرها
مبهرة
مسويه
😂🙈
بزاف
نجلس
انوثه
المسكينة
الكورنيش
للكرة
يهدا
اخا
تردنا
تستمد
ﻋن
تحكمها
طفلته
نظافه
يقض
##لكه
تاته
شخصه
الاعمال
فليصل
ويامجيب
فاك
اطوي
سامح
ابھی
يخسرني
مظهره
قلو
يتركها
وكي
وجم
الحاسمة
حفاظ
طفلان
فاجبر
##بعون
الغيابات
ناوي
الفضايل
شفيق
##ستقبل
next
اللحاق
عينكم
ثلاثون
القبل
3g
باللج
وفوض
##وكيو
فالنار
⑥
استخير
الاقدار
اوزع
لينعم
ادبرت
انسى
عاليها
لاقيمة
##انہ
بنظرتك
العض
##لدينار
تتفاجا
##طرين
بالعناية
تمارين
كيفاش
##الق
نحو
واعوذبك
راض
انتفاضه
صفقوا
ضحكك
🌹🌷
يتذوق
بكبره
ﺣﺪ
وقضينا
لحكمہ
الفواد
ياقوت
يربح
الشاشات
تفسيره
##فيده
تتخذوا
بالنسبالى
يعطيه
مخابر
##عرفه
السياج
الاحوال
ثان
واقدام
مباركة
##عباد
##🇦🇪
ﺛﻼ
بالتفكر
عال
تركو
##اهلوا
المسكين
جلد
ح
كانى
موسى
لتصنع
اجاي
البيادة
شاهدين
بصاحب
الروج
افريقية
يتكسر
##ونس
وهيي
متطورة
مولودية
الريحه
av
مضاعفات
احرمني
▉
##○
##ستطيع
طبا
القا
ادواتك
##pp
ﺍﻫ
شكلهم
مجندة
باط
تضخ
ينظمها
ارتك
للتقدم
والعروض
موعظة
بتبني
التراكمات
راسى
وتسامح
وتحملها
🔰
والعرفان
عوايل
الخوارزمي
يجعلون
##رزاق
##enger
تلفزيون
يحيي
ترخص
المثيرة
##وقاف
مغلق
البكيري
دهان
حكام
وتاريخها
النق
التنظيم
هتلاقيني
النفط
يسعدهم
كلينك
امهم
وضعيف
مسلحي
ﻓﺈﻥ
بالعروة
يوفينتوس
لموا
كفايات
رزقك
كرستيانو
الايطاليه
وبالدعاء
والدوله
الاخذ
جوله
##ليو
لى
بنفوز
past
##ويلا
المجال
اروا
وعجبي
نقي
تمير
بالغرب
المتابعين
بجوع
تناسى
استنفار
عصاه
##بادي
بيومه
المرضي
يذمون
المشاهده
بد
عملى
سيع
يستقيم
بتوجع
##نجره
المرمي
صفارات
بنتهم
ونمضي
شرفات
وكثير
نقنع
##واذا
الاغترار
وتساقط
النبيذ
خخ
##یں
المحي
##😔
يامرنا
بكميات
بالحمام
بالصدقه
الراى
قوميز
عيوبهم
مقوله
##حتهم
بلدي
الواهب
جداره
استمت
نسيتي
القطامي
الكرادة
موايد
الشخصي
##غك
لص
والمنت
ابجي
البخار
تجاهه
ضرر
واثقه
صياحهم
##قتين
##كنه
الموج
##list
وصداقة
لعيبة
لاحدكم
سميرة
ﺎم
##✰
٢٠١٩
السني
دب
وبسمتك
كميه
ويدمر
عينان
##ۆبنا
who
محاسب
abdul
##شرع
واللهي
##نتهي
اخطاينا
البرب
نقلك
▓▓
🙃💔
بعشرة
بتشارك
الكنيست
يغتسل
جالسة
ibtissam
##اهير
بيمسك
يقرف
الروب
جبران
وبامت
فالجنه
لیے
شفتيني
الزملكاوية
بريدج
ويشتاق
وفك
الجمعان
والاحتلال
##يخ
مستورد
##؏
انتصار
##ويدرات
##اقلم
كوك
سخي
ﺭﺃ
##ھون
تضعف
الثيران
الثمامة
##شيز
##du
ارق
موضع
غريزة
ملتزمون
امراتك
يناد
##وافر
للنجمة
##ونة
##м
ملاعب
قطعا
ﻣﺎﺗ
بالبط
##نونة
توليد
اسامي
تخسرها
وتشارك
جداا
##لاق
مواري
الصافي
لحجاج
##ظها
ابدل
اسيويا
##ۈن
congrat
##فيظ
وساكن
هاها
سلطنة
ينصحك
النبيين
##زمالك
##اربكس
kuw
روحاني
ورعان
عطاءه
🤓
⚡
##ﻠﻤﻚ
بالدستور
وساعات
##عرفش
ﺍﻟﺴﺎ
شوفه
زيارات
الدقه
يطغى
الافي
ﺍﻗ
الاحصايية
عاشقه
اعذر
بامتلاك
تطقطق
لت
فاتتك
ياهذا
عروب
تضعه
اقبح
##عيدية
سقما
بيسب
صعبه
الروابط
جثامين
تكشف
لاعلى
طف
كالاعلام
يقدح
المتنا
😯
الضوي
مشاكله
ب٣
تضحكك
ﺑﺲ
يجعلونك
وللمتواجدين
رفعت
الماء
يتفوق
شالكه
بدول
وترضي
يتعاملون
وقصور
##شيخ
جامده
يفكرون
ظا
اضعافها
نستعد
خبر
واقدار
##ﺑر
home
الكفيل
ينخفض
ﭑ
لفقيد
دينيس
نركز
تحر
مبد
بالحفظ
صديت
عهدا
وامض
##كونه
هواة
وعفوت
##💨💨🚈
##eral
بالمرحلة
بيخلينا
للخطوط
##ﷻ
مسكون
واظل
اداه
تحكي
##سبوع
افرادها
لصديقتي
ومستني
طور
عايذ
راهنت
فتعرفونها
##وكوا
بعينهم
وجدان
للسنه
قلبكم
للسياحة
يومان
واوص
ومبسوط
بخدمة
##اكيت
##فيهم
##رحال
##ire
مقر
بالمجتمع
ريك
##سنوات
اذبل
ونار
التشي
واخى
تم😍
ثقال
##wc
ليكي
##حرك
الحسره
##ث
نجمك
##وفنا
الباسوورد
🌝
ووفيت
الفارسية
وحلها
تيار
##azz
للتفكير
تصدقت
فاليد
تشنج
وبراد
لغوا
شاله
##😰
انهض
الباش
وتسابق
رشح
بالتمر
اتعامل
صاغ
المغردة
145
قالنا
الحبابي
محفز
مسلم
##earch
داعم
بجنبك
فارغا
وقفتك
بنتا
كولي
##ادر
رجاله
الخمس
الثلاثيه
باهلنا
##لمدة
شوفتي
استعرض
##الدعاء
صدقنا
تسدد
😛
يكسرون
وللط
مطالبين
تجدي
بايي
وادمن
والمعادن
چا
##لياف
##نٱ
انفعهم
##aba
لدعايك
##ونخ
الغبن
البطن
الامكانيات
مسافره
هسيبك
بملي
ميثاق
ابايع
ارقص
واصد
العقوبه
معايا
مسوية
كفضل
لجنة
##زالت
سعو
الحرار
خلدون
تريده
رسميا
لاان
مستحمل
الدمعات
الايمانية
اللى
محاولاتي
##حة
التصوف
فراق
بالصدف
بود
مبارياته
وكبيرة
لمحت
والعملية
##oury
للمدرج
مامت
يكلمهم
تطرب
وقتى
النفطي
باكبر
##شفاء
تغش
تظهر
يبلغن
داوه
##ﺑﻚ
حفيظا
الغبار
سيقولون
مرضيه
مسوولية
وبالق
##هيبي
##ادرة
😘❤
بصلاتك
##نات
وتحتها
##ﻜﻠﻢ
المعارضة
للكاتبة
الخرا
اصلح
غرين
انوثتك
اغفلنا
اقوالهم
##ures
##تع
فاستعذ
وعلومه
شرواك
هاهنا
##يدهم
ۆﺑ
مسربة
منتظر
keek
ava
المتواضعه
اقا
حلالي
بفضلك
متاكدة
ري
بتجميع
معرصين
ﺍﻧﺎ
المشا
ارجو
لميس
##ﻌﻮﺩ
الاراده
توشك
رضوي
يحفظك
للتطبيع
واليه
‘
ماتبيني
والے
وضعفت
🇹🇷
وخلني
روشن
وطايرات
اتفضل
ردني
بالنصر
منظره
##858
dw
عظمه
التاثر
صخ
وزينه
ولايهمك
بكلمة
اﻵخرين
وتفجير
##قيمين
جريده
يسالون
الفك
والجماعة
نتشارك
تهليلة
##ناتكم
ﷺﷺ🌹
تقبلي
وارتخت
تستهن
واسير
اتامل
لنفسهم
ملاحظين
واليسر
ويزول
وبلوغ
##ترع
ايسكريم
الفوضى
##vers
haw
s
احبني
تغب
جثث
تغيرات
البع
المشاهدين
##ديال
##مامة
واغضب
##اسي
ويذل
عرضها
عماد
والاحساس
الخلفية
يدري
##تاخر
فاتي
متقابلين
##حمك
بالمح
الساهرة
##ظايف
##خيم
الاقتراب
فقدوا
خصومه
دوز
طايح
##نفس
hy
##اسبة
شملهم
القصور
الحاق
ﻳﺬ
حقق
كبيرا
الناج
خطيرة
التاييد
وسهولة
ميركاتو
ويحرم
بتجري
يارب💕
والسهلاوي
تشام
الاجنحة
الجايه
المتحرش
اان
##شتة
ياص
القنيطرة
تشفع
يغرنك
الرسمية
التكن
المراهقة
ﻭﺍﺣ
لوگوں
يروى
did
ليكونا
طلابها
دعواتك
معذر
كارثة
يبداء
ﺎذا
وهزلنا
للحساب
##ect
كساني
والحكام
ميلادي
rio2016
عندهم
بينفع
اجد
مايغير
يەو
للحديث
ثراها
ومدافع
الانبهار
چذي
شربل
##ومن
##دهن
ميانمار
زبدة
خلفى
العودة
الهشتاج
لقوات
الرخصة
تساهيل
haidymous
##يده
بالسنة
لحض
للمغرد
كفي
##ﮞ
معين
احاديثك
##ﺎﺳ
للبشرية
يودعون
حقيقيا
يخفى
ماعرفه
##♬
طلال
الهذيان
تبذل
جنبه
شفناها
ياطيب
العوني
للتش
يفق
اوجاعنا
استاجر
##ys
تتحسف
الافواه
##ove
حرفه
حماه
فانما
رابح
ودودا
نتعاون
والعناية
يقي
سماح
فاغثته
خطواته
##elh
متخافيش
##oto
شلبى
وذكر
ترحمون
العجب
##פ
حياتج
##فوضى
يتمملك
سميت
واهدنا
##كوب
معناه
ارقع
وانهي
المليء
##ۆي
##حميه
##امحه
##يالا
بكرامه
مرشح
السواط
نيوزيلندا
اسفه
زماان
jer
##بابه
##اقوى
المالكية
##وارث
اللسان
سنيه
اثرها
برج
##الكي
وغرام
اقرار
وبيحب
##ادلة
بالفاظ
الدرا
##متر
وقاية
ﻙ
بانتاج
##ضرا
شطب
لينقذ
لاتثق
١٤٤١
##تيجه
بعون
زويت
##گہ
ومازلت
واثر
##ماير
##اتى
ستريت
اخلاقكم
موضوعك
##hd
وتالله
##شرها
احتياطيا
تاريخه
اشتاقك
الانسولين
متحاب
🙆
هالسوال
##ana
مقربين
الجسم
الزيف
صباحه
وبينه
##راقبه
نمرة
المقاسات
تفداك
الحاف
##elf
بالقناة
##للبي
بشوف
بخرج
##نفخ
ضعيفه
##ﻨﻮﻥ
💻
يرب
شرايك
لاغلاق
اشواط
اللعن
iglt
##ima
بربه
التاني
يمون
فهموا
##وخان
💪💪
سهالات
تغازل
الطبع
طباعه
الهامه
البكر
ومزاجي
الحرارية
الشافي
يومنا
dubai
الذبان
النيابة
ګ
وامضوا
وادام
وروحت
##want
الشلالات
وتلك
تكالب
هحبك
##عان
المناظرة
لاتط
عالد
بيدى
اقولكم
رايحه
##رفون
قووية
بالماس
البرلماني
مونس
ايرا
ويوفقه
اتسايل
الحماس
الانتفاضة
السوري
##ﻘ
اشقاينا
شنقا
📮
مخابي
منطقيه
##ake
وابد
زاكي
##قلها
aouk
مثقفين
وجوده
ودمعه
قوارير
ملات
زاوية
صامته
get
يمكنك
اتصف
باسيا
##nb
حساسه
ازعجك
فنفس
لجميع
جينيس
فالعلم
خلصانه
ولزم
روايتي
ﺳﺄ
خبص
بضحك
ﺃﻋﻄ
اسررت
تريكه
عينا
##mm
مار
ركعتان
مايقوله
##راخ
بالبد
بشنب
amman
☔
ويضر
##عها
الملفات
لابناينا
غرس
ﻓﺄﻳﻘﻈﻪ
التهلكة
السييون
نعش
ايلا
ركبتيه
فواتير
##olo
بعناية
هزعل
متحا
ثياب
هواياتي
كافاني
نبدو
اتليتي
cl
بيهرب
واشعر
وبرحمتك
ذراعين
توليه
يكفيه
##👤
الحتة
##اليتي
مفار
تقعد
الزايف
ﻭﻟ
ترابه
دبلوماسي
وسوف
وصديقه
ﺷﺨﺺ
وزوجي
اسهل
كالذى
كيو
ﺁﻟﺤ
سبقني
المبه
##غيث
##عودية
يسر
وجدوا
يكملك
##مسح
صاروخا
الجياع
وقناعة
😘😘
##راكه
##وفتش
تتجاهل
hbd
##مال
##iege
المعتمرين
للحارس
وقيادتها
يريدها
اتخانق
تتجوز
تمدح
هوا
براح
الريالات
واستغنى
##لافه
تقهر
انعمها
فازوا
لاجي
run
فحاسبناها
الفسحة
متعني
##فشل
##mah
بحاول
ترويج
تعديل
##ﻠﻤﺎ
ويحكي
شرو
مراجعة
المحطه
36
الممات
وريحان
ﺗﻠﻚ
معاذ
استخدمت
ماح
انجبتني
مادروا
##ودكور
تاريخ
للاحباط
للقط
نلق
وحبيت
بالغلط
##🕕
##اتم
6
اماه
شذا
😬😬
صدورنا
بقياد
المحامين
psg
علا
تقفز
سلال
💛💭💛💭💛
##😠
مقاليد
يتعام
الاجهزة
الاناناس
قهر
تفوو
وحروف
##عرفوش
بمان
لايقدر
سرحان
برعايته
والدول
قالولي
##تغ
هتلاقيها
تتذمر
قسد
لاقيت
##factor
الصمود
قبيلتي
وعلمنا
الهجره
يندرج
لاتدور
شفتك
تبدع
اجم
مثيرا
وثانيا
mk
اشتياقي
خبا
وفاضت
الافريقي
القسام
بالملي
weather
اوسط
طفلين
##😭💙💙
هن
ஜ
##ونيز
نفيس
طين
الليبيين
جنوني
نكره
الماكولات
خشي
✔🅱➌
حسين
المجنونة
##تق
نزولا
روحو
##ﺳﻢ
حضورا
سنستدرجهم
عجل
##ظرت
اتقبل
وشجع
بالادعية
طاقتي
##grou
والعيال
اعرف
جنون
البكاء
تخبرهم
ملفت
بالمية
وشمس
الزند
ينحسب
الصديقين
وماما
افترقت
♥➰
##🎸
طرحت
المعمارية
قصف
جابهم
مجتمعك
احافظ
##جابك
خواطرنا
يسمح
ايلاف
🇵🇹
لحول
وتسلمه
حوارا
ملی
قاذ
##زهر
خوله
يهدي
يحميه
عدس
بيجمع
علف
قلهم
البري
يريدني
الحضيض
ﺁﻣ
سيدا
شخصية
اجند
فيجب
الشعاير
للشارع
بشد
164
ﻳﻌﻠﻢ
جهلت
المعاملة
المسلحة
لمشاعر
اهد
وااه
ﺃﻫﻞ
يناله
علموها
اتسع
##حبس
السلوكيات
ﻧﺴ
مباشرة
والحب
يعني😂
خاط
ابكى
بالاداء
هاات
الناشطة
عزالله
ونور
التمثي
عشقتك
اعل
التنازلات
همست
القدوس
توثيق
فاسده
اللاعب
فضايية
اتركه
يرزقهم
##زيمة
مرني
༄
مفسد
يعلموا
ملامحه
اعدادات
اشاء
##نسان
##ياام
والمواصلات
متداول
ماحل
بالغرور
طمانينه
لراحة
عايزنا
لشهد
يثبت
بيعوض
##خدمات
قهوته
البند
مبيحبش
تابوت
صحيفتي
وحساس
بالراحه
مادرينا
وفلوس
المستثنيات
ﯾﻣ
الخش
ﻭﻻ
السعودي
بالانجازات
حطام
البلوك
بعقلانية
داشته
انخفض
الادعية
##للق
##سطاء
للملوك
الكفايه
التو
بشع
relationship
يحطها
سوالفي
رواي
بالنس
🇰🇼
النزيف
##فرجش
يوقظ
##سنال
اتجوز
العتي
صارحني
العلاوة
القارس
لبلدك
المناديل
لاتفقد
repost
البوم
وقفوهم
امنوا
اسلوبهم
يرفض
ولايع
رقاب
انيني
للتعايش
صبور
الديد
تباعا
##لمه
نە
قنواتنا
واحذر
هدوء
وليلي
اماته
خذاها
##روبة
بدر
##ضرنا
متغ
صبحى
##ذنبه
نتج
لحياتي
ﺎلايام
غلطة
بذكاء
موبايلات
اراديا
فاللهم
##تد
مهاجر
بمات
يتنا
والاعداء
##عيون
##ﺒﻨﺎ
مرتان
ﺂلش
ورفيق
##اينين
التعقيد
صغيره
بيروح
حاقدة
##الجنة
حواجز
البخت
دارة
تدفعه
مشاه
فرس
تلاوات
😂😂🙈
للاطلاع
كود
ضمہ
مرفق
سواءا
البزنس
تسهيلات
##لs
##ندس
نجاتك
##ﻌﻲ
يھ
ماجاك
وقوانين
لوحد
تجاريه
تسوء
شعاره
الخلاصه
بتلعب
##يء
حقى
وتبيني
وفاي
##yle
##طلاع
عيدين
وشعبنا
التنمية
يمارسها
pict
مطرف
اوجعه
##ولد
البوسنه
##led
##انيات
الاغتصاب
لعندك
##㊙
راز
الاسترالي
يحتسبها
اخبي
عبس
السبي
125
للفهم
المرادي
👏👏
نهار
لكلماته
👶
وكام
كابتن
ثامر
بالر
##פاڼ
##بتن
اثيوبية
##عوي
نستشعر
ماساوية
المزهريه
بتلاوة
لخطبة
تربى
وقليل
بصيام
الاستع
ss
غضبت
الرييسي
ومضى
ومعرف
got
المعافاة
📕
خيبات
انصرنا
بيكى
يغلبون
مضيع
جاهد
حري
خمرا
التواريخ
ﺑہ
بتبقى
للسعودي
للزمان
الترابية
ينفعهم
my
عاجزه
ﺣﺒﻴ
قبط
بالعشر
حمارة
##زعوا
هايد
بالجزمه
اسيست
خنقة
وتارة
🍯
يطر
اتعرض
وبالمناسبة
##نكر
الحدودي
sam
##وات
##ايتها
##واع
الدمار
الشغل
##رايين
راحت
فريض
وهت
شدو
الحره
والعوا
لشي
👇🇸🇦👇🇸🇦👇🇸🇦👇🇸🇦👇🇸🇦👇
ايجابيات
وعنا
جوفينكو
وتاج
مولاكم
انهيار
صلف
##بتا
امرني
ماكن
صوامه
##حنا
##صه
بوست
اريد
##inking
بتفاصيل
##ريد
##ابع
##رايهم
ﺍﻟﺪﻭ
ثمار
واطفال
خفيفتين
الخريف
غشاوة
والخيانه
افلس
كبدة
حوا
بيرلو
هننزل
مصاص
کە
##نيوز
مينا
ضخامة
تضييق
المسرح
التعالي
القطاعات
ياوقت
الاخص
الحيوان
تقتنع
لاجاب
والفق
##ديها
بالشغل
بغرام
ﻋﻨﺪﻣﺂ
يظبط
واثرها
یک
تھی
ودعمه
وطنية
الهزار
والشدة
لاخته
ساعدوه
##الاست
اطفي
دة
امريكيين
ضغطه
##جديد
يدو
تعطون
عامها
مشيط
راج
المسرحية
ابيگ
الوصل
##habi
والاهمال
فيحبه
الدرجات
نشكي
##هى
يشوفني
کون
نكلم
##غلوا
يتول
ضبا
بالعد
لتعك
##ﻌﺮ
ويطلق
ارحموا
مستجابه
##😒
اختارك
سوى
مكره
يصلك
##ارير
مشقة
##خرجت
##app
يشاركنا
منتي
وسيارات
حرمنا
##نتهم
الحميدي
وهن
##ديقة
##ᅵ
وازالة
المتميز
لمسة
گلام
##madrid
##نت
تفزع
a7
الشيعيه
موفقين
ويعت
لاكتر
##شقت
بقلوب
خيو
هالط
##خطط
بجرح
##دت
نصهم
##باق
مغفرة
##صح
قوول
قابلته
الوقار
##اولش
##صيله
##الصباح
##واكة
ضيوفك
تعزيز
اتيكم
واستانس
ازيد
الحديده
الفير
طفولتهم
عازل
تلد
مبشرات
رايتني
انسنا
التمو
بقنا
العمران
معاملتك
مضرة
تضح
ومساء
ستمطر
ونلعب
العفية
حصنتك
gl
لتدمع
الفسق
يتحركون
ناظرت
اقتناء
1700
مذكرات
تتساقط
جوار
والقوة
مفارق
ضعف
وتخليني
ديزاين
واسرتك
استطيع
ﻭﻫﻢ
الحقوقية
ﯾوم
السياره
انصحه
za
واذكر
ايدل
يصحب
كفرة
تھ
معيش
صم
##لسين
الومك
احشر
دود
طوب
ا
##⿻
خاب
ولادي
والطمع
adele
##فتح
##قيقة
والسرعة
ٺدري
##لاديش
مديرك
يهربون
ثقلا
↩
بحص
الكليه
النم
##alk
ضيفوني
تحدثه
بوركتم
44
بالدمع
وعس
والجبال
يزينها
والعزة
اﻷن
الداه
0540557
هتن
##ضاقت
ياكرهي
تقدروا
ﺑﻨ
عمياء
يفزع
الداهيه
تفرعت
توال
بمجتمع
وطار
ﻓﻘ
لمساعدة
##افرين
كرر
اعوذ
منافذ
دعوتهم
لفرنسا
تعاقب
##ذاهب
فاتخذوه
لايامي
##لمس
الخلف
احببتها
ورحمة
واعجاب
تكليفه
فرحان
وازرة
الشاهد
##خدش
##فنج
مطع
وجوارحنا
الخنساء
وتعزروه
نحيت
مدب
##زاما
النمله
افلام
فشلتونا
هنم
والطعام
##يبه
يحادون
شبيه
تش
قلتو
امنع
ﺍﻟﻐ
السل
بلحظة
واخبتوا
ناويين
يامثبت
##ن
ازهار
قمي
يداري
شجاع
##سحب
##od
طوابق
بالمستوى
اخباركم
الاستقبال
استنزاف
اردنية
بيخليني
ليسعد
الدعس
بتصريح
استشارات
اعدل
خلعت
يخذلكم
بععض
واصفا
الفتان
لابن
ﺎله
اتوجه
يصلني
بوتيا
نهنيكم
اذه
فطورك
مكالمة
هوايا
ظهري
العمليه
زغ
الموجودة
وانشروا
باال
##ouz
الواد
تجاري
##عاتبك
##هوك
ۈان
طهرني
الطول
##رجه
طلبة
وموف
وموك
##قدس
عنيها
##مدم
عافني
السرحان
يبعدني
مشفى
اسكتوا
يج
اتحلطم
وصمدا
مسج
زمین
##ette
ﺍﻟﻴﻮﻡ
تنفخ
لشيخنا
يريك
مافيا
انصاره
تنزع
##لاشياء
يتحسن
💜
تكلمت
الاوراق
نواعم
ليسلم
يلهمه
ﻻا
خذلان
الارانب
قاصر
خالقه
تهجم
وسيقال
طاعة
المنتج
اليگ
ساره
قبرهم
فاسلم
واسيرا
لاعضاء
تجربتها
مثق
اوليايك
حيٱ
##inter
##ine
٢٤
معندوش
اسعدته
والكويت
اجتن
الطايفية
اليوع
اطلاله
فروه
للعصر
الفراشات
##قيت
ultra
اكفني
قديم
دودة
اشيايي
##🔥
##ركع
للناس
بداخلنا
الطايعين
بالامتحان
لغيره
واعظمه
##٧
مالنا
عليھ
هات
واخبار
لفة
##انف
الوجود
بصوا
وگ
مهنته
واخجل
الاغت
المدهال
القصيم
ﺤ
قبيحة
باربع
##ﻭﺍ
ياخوك
##عداك
##جل
##خخ
##طبع
تمزق
والتعليق
بالصالة
دخولها
ينحكى
فراجع
ينتهوا
بازار
بلانك
وتجي
wah
جدة
النادى
##وسنا
وتغيير
تعبها
##do
ثوبك
##الص
والمشاكل
بمسمى
المذهلة
الوهابيه
متجاوزا
عبدناك
لطرد
جنہ
شهاب
حققوا
داكشي
ولاتعرف
العاليه
##تيار
ياصعب
يجمع
الغمة
العارف
🌌
تقديمه
اعزب
رقد
##وشك
روحها
##ينيل
البدايه
جاسوس
اسكنهم
عنب
تنفقوا
وناسه
##الها
والرد
والميت
طوييل
بالغربة
😦
السكة
تضحكني
التثبيت
ونترك
ترميه
تتع
ايامنا
اليهہ
##قاو
ممتد
اللهجه
يحدك
##┛
الغاشم
##mam
اصطنا
حارس
ويلق
السابقه
كلفتموهم
ساير
##ﺘﻨﻲ
حاكمت
الملاحم
الاع
خلكم
ازهرت
فخامة
هيدي
مداومه
السيف
دياز
بالطبع
برغبتي
شرعيه
للواقع
نهاك
خجل
فاقك
##8816
المجاري
غلاتك
وحديثا
بعطايه
الحوث
جثته
سخطك
وكبيرها
وابعدني
##ツ
##هتم
##قمار
##يی
السفيه
وانتشار
واقعي
##يلك
كونها
الساخ
احبب
فرضا
مشهد
الماركات
وتفاولا
والحمدللہ
تصور
اذكياء
تلوموا
المصروف
ترو
لمياء
رياضتنا
##ظاره
عالمس
الصهيوني
مطلي
المسيار
ويخليها
جنش
شعندك
صامدون
وبالم
◉══💢
مالديني
عنصري
دارها
وذو
بتحية
مشايخنا
سولشاير
فايد
يخطط
المتبقي
فبح
ﺟﻤﻴﻠﺔ
بالهوى
اعلاميون
تغيير
انهي
جاى
التهي
سيكونون
عقلك
##عزيز
احكيلك
مستحقه
تقدمونها
للطيران
نوجر
🤔😂😂
بترد
ويرزقهم
خريجي
نصوص
جزايري
صلع
للمبدع
الصحيفة
وعنوان
بالقيام
##رول
يتوج
بالملعب
لقضاء
👬
تولم
بالانقراض
فسبحان
##شتراك
هنكسب
يطق
پڑ
الاغذية
القوافي
العيال
##درايية
شاكرين
اطباعك
##طبقت
بتشجيع
وفراغ
يدينك
توست
ومص
اصور
##ivity
##ابعة
بنعملها
راسهم
##ينكس
##اريف
المفسد
صعوبه
المجمع
احبابكم
ﺍﻟﻔﺮ
ليوم
وتطبيق
##ere
210
الاستهزاء
##تان
بزكاة
وخذلان
العلمى
واعوانهم
شواطي
##يرازي
فلنا
ويكفر
ويحتاج
##اضرين
الجميله
تتقال
##جبتني
كاذبون
لشعبه
##شروع
فيورنتينا
تحسسوا
يصبركم
مزمن
والياسمين
##زيله
##حبها
حد
ستر
منزلنا
خلوق
ابتسامتك
##ستوي
##ika
تقدمت
المنقف
[...]
