 
تتحطم
والتعصب
البدايه
🎙
توجه
لدغ
##زلات
ونواب
##حال
مكالمه
ﻉ
المباراه
قابلتها
ﻭﻗﺖ
للاخير
والمراكز
ولابه
بنغازي
عبور
شم
##the
raphaeljabbour
ننكسر
واسته
حساسية
متبر
الجلبريك
متيجي
المعالم
ملييہ
خبص
##ضح
ونر
للتعلم
تتكون
مستوطنة
فقرات
قطا
برضاك
بخلق
##عبك
ابغا
التوزيع
يخو
يودي
مقدرا
افواههم
السود
##لاينر
ركام
شاكك
مخرج
عربستان
التحطيم
##ﺛ
انهيت
##لھہ
معصية
حمدت
بناتها
جيش
ذابحني
##😊😊
جيبي
انعزل
##وارح
وكانما
##وفها
ارسلته
مغلقه
##ليك
##ومنون
##شتات
يزعلك
اعض
للشرق
يظلمك
غامر
##خيل
ودخ
الخباز
واريح
للاسكان
ﺎستغفر
بنشره
اجوا
الجغرافية
اما
الاحبة
##العلم
انهاء
معتمده
بانقلاب
ناشفه
اغتنم
##صرخ
اوافقك
وتشتكي
##حبتي
واخوي
كحك
فاسجد
والثقافة
مجبتش
يمنحني
خميسكم
arabsgottalent
مجتمع
تجعلني
للجد
الحرص
مسساء
سيس
وهولاء
قبول
a7
ياوزير
اعملى
ننجح
مواطنا
انحنا
المجوهرات
##ﺎﻋﺮ
نجاكم
ويازين
للافلام
تتوا
بدونگ
يقومه
شبعت
بدق
يصيبني
بحسن
##متو
المهازل
ورحمة
بتويت
تضاعف
لاتعد
اعيدو
المتناقض
وذري
##ضرار
واطلق
الحلاوه
بالدار
##ويشير
يتحلى
السهلاوي
الساعة
مقاطع
##عادل
بالرحمات
الصعيدي
anisbourahla
برصاص
تهد
السوا
شبابي
سامى
ايماني
العبدالله
تكلمك
##55
اخبيك
حصلت
ياخخي
وتنس
##فانا
نهارك
لايجي
تذكره
تصدع
وتهتم
تنقص
الكتابہ
احز
##اميين
خيانة
والتقصير
سيادتك
ومتميز
##باتات
لى
يناقش
الجنيه
ﺧﻟ
ويسهل
حسد
يكتم
الانيقة
الصيادين
اتعاطف
##لضر
dra
سوب
نسهر
البوستر
169
رول
##ress
بيعتبر
وشافي
وتفر
بولندا
واتباعه
معرفوش
تفقدوا
هالاس
تتكاثر
معاشر
ظلم
##واصلك
ارتقوا
ورنا
بمحت
تلقايي
للعود
مبرووكك
للمرء
رافعين
ليبية
الصفاقسي
##😂😂
اليوفنتوس
مثواك
صرخه
المحللين
##ﺷر
يفقدون
ّ
مولما
##مبروك
ويزعل
مقبرة
يارتني
عصي
ومجلس
تشجير
صعيدي
الحالي
الصراع
اره
كانكم
رو
##ثيير
فرب
ومردا
هوعليه
انوثتي
##our
المعص
bass
💭💙
امورك
اوغلو
ﺄ
اجمعين
بهمك
هنرتاح
ياهوى
لنتق
بيني
ويسكن
نقتل
يقبض
شوكولاتة
سيارتها
قنعني
##گرد
ستنجح
والجواب
نتجمع
الكهر
العيب
ولكنها
##يادين
لتدريب
يعصب
بتهرب
##يتوا
وثقه
واضله
##ل7
مزيد
يخذلنا
ببعيد
غفرته
univers
مدروسة
👆
##ورما
بالاسماء
ياللا
##وجراف
شروره
استون
للقتل
واعتبرني
##صفة
##ﻧک
الاقتباس
عاداتي
بيتا
⚪➋
##فارقة
مشتركة
غدره
سال
يجدي
٣٠م
غيداء
نجوما
##ﺘﺮﺍ
ومدينة
ساندرو
##خدمي
لناظره
القانطين
صغرت
زمرته
الكذاب
واخبره
المتاح
المتحدث
انساني
هانت
هزلي
للطب
الساب
اوريك
لمك
سوفت
بالحرم
##طرت
العطرة
وتشت
صاحبه
اتخانق
نشتم
naj
الاستفتاح
يخربي
قياما
نافورة
##هازيج
##ﮟ
وزنة
##ﮬ
بخاطر
والامل
لتولي
اضعافا
الاجنبي
##اذي
والحكم
تدخين
##منعم
للمت
بلدا
وبرك
وراءهم
##نابيو
والاصابات
unfalert
تسرك
بطاريه
ارسله
جرش
الرييسيه
هااي
curious
للكاتبة
عبدالح
##جاوز
كادر
مبعثره
سراح
كنٺ
يوميه
بيزود
غناتي
ضرير
المباركه
للموارد
ناديا
##وظيف
##سبنيش
الصدقه
غضون
بتلك
واقسم
الدويش
واحقر
##نقل
det
ﺎب
صاحبي
الاساءه
ياقف
اسوان
الطلاق
الطي
ادمين
❤💙
ببص
ونسب
يفرح
فاضيلك
##🍔
ظهره
يجير
ضهر
ﺍﻧ
خبات
والشهيد
رافعا
##تابعة
##حكيها
وبلا
social
فولت
العلن
المطنوخ
للمسلمين
للدورة
مز
##😐
ونفسك
دارس
وبذلك
للانسانية
مشاكلي
ستعلن
لقاءات
كسمك
قبضته
صليتم
##اياته
ﺆ
عودته
بالجزاير
سيغادر
طوييل
💭🌱
##جيلي
القناعة
سحاق
وقولت
الارضي
واكتشفت
احترمها
واهي
بكرمه
الشغله
بوجودك
للحظه
##طى
رفضوا
يطبل
سيدهم
اللذ
التلاتة
بالعراقي
##بالا
السابعه
##ماطم
ﺗﺮﻳﺪ
##ايخ
فاعلة
هجرك
الهدا
تنكتب
مرفوعة
عجب
حميد
الطيبة
توقعاتي
وسهل
المخربين
القاصرات
اجتهد
غش
##ويلا
الارهابى
ومستقبلي
وذقت
الجراحة
معاكو
يفارقوه
استشارات
اتلاف
عواض
النسوان
واخوان
لايص
سقمي
🔵🔵
##👰
اشير
لمعنى
بفيروس
بالتركيز
الفال
يقفون
##سمية
صفق
##سرك
فتظلم
المشاهده
capt
الرك
wall
تتحسن
الابراهيمي
العويران
اميركية
للعاملين
تعقيدا
متوه
نشوفك
فاي
##ﺪﺍﺀ
##🚶💔
لكسب
ورت
يقطعها
يلاعب
##لخبط
الاحراق
الناقص
انقد
بكينا
روبي
مساوي
التبري
نقصك
اكاذيب
ينعمون
والطيور
##ضافه
اخيرا
معاملتي
ثانى
بحار
dam
لريال
فروعنا
ماتعني
زبال
farwaniyah
بملذ
القريب
az
السبل
مدمنين
##هزاء
بلن
👼
الرقية
عالمي
مصبحين
فلوسه
ثابتا
الشبح
قديمه
اها
عبرية
##هاينه
⁉
العشير
##ليفزيون
ترزق
واحيا
نبلغ
##حمد
تحولت
وانسانية
##يام
والملل
اذانهم
رفاعي
اطفالنا
خاطيا
##فية
##🚗
تزداد
فتعطيني
معندناش
لفصل
عصيته
رزقكم
بعظمة
للى
لاكن
احبة
وانفاس
اجيبوا
طور
##دور
##جاوب
بہت
والزواج
لازالت
واموالكم
المقات
ويحبك
ماتعطي
نمثل
فلذة
الكون
ﺍﻟﻌﻈﻴﻢ
اﻟﺼ
للفوضى
اغرسوا
##ريدو
ماتدرين
چ
نميمة
عايدون
بالفراق
##هاييات
الغانم
##تلك
ومثلك
افكار
شعارات
##ھھ
المطلوبه
يمسها
خالفت
الدكاتره
علف
يجبلي
واسكت
another
فافتح
والاخوات
دورية
##مونت
المشهورة
يقوم
رمي
موجودة
مقادير
واضيق
كتابك
والتجارب
نفشل
قريش
وميلان
وخيار
جيلا
١٤
نادمين
فنسالك
ببك
السخنه
راكبه
اتبعه
##ضاها
غصب
اجتنابه
بوقف
شاغل
وتحملت
🏃
وانخفاض
والهمكم
امع
سيخسر
ودايعك
امينا
جايلي
##ﻮﻧ
تقصيرك
الاغرب
اعزف
اتركها
👍🏻👍🏻
وبالتعاون
اكلتها
##➊لزيادة
happybirthday
عممري
مايحبك
##72
📝
اشياء
##فضلش
تحيز
الاليات
حبكك
روعه
وبايمانهم
شعراء
سميح
فاات
لروسيا
يجا
ممطره
##قلين
ملقاش
ولدت
احيا
love
الباشا
رکھ
نجومه
ابدى
##ياط
الحضر
hom
##روية
تصفي
##ツ
##غطية
تركو
مجب
ﺻﺒﺎﺡ
شفاهنا
ويقينا
مبنا
متعلما
منكم
معد
شايف
متخلف
مطالب
غرتہ
الباعة
##بيدات
لقيتك
المتاجرة
كذبا
وايت
برجر
للتص
لصمتنا
تهتك
##غام
للام
نتنازل
الركاب
ناشيونال
رميت
متم
الخبز
جاس
سده
تزعج
ايقافها
ريب
##ايلوا
مايحتاج
شكي
##كرس
##📮
يرفضون
بالشوارع
تنكصون
اندومي
الخيال
يخفض
للصدور
الدربا
قاضية
بله
##ذرا
##رگ
ايحاء
نعيده
جفنيك
بنصب
شعارنا
والسعوديه
ويغفر
فذ
وردك
##وست
مداوي
لزوم
الاهلاوي
والمبت
قرت
ﻭﻟﻜﻦ
شعبية
بالعباد
##عاة
يهدا
اجابتي
انامل
##ﻬﺪ
الحاز
تشتت
الخميس
فارغه
ننساها
العظيم🌱✨
والمستوش
ﺳﻴﺪ
الطوب
الفض
##جر
واهدني
##وسه
وافخر
فيكون
تهجير
ﻟﺎ
فابى
##عبدون
ببغاء
امتح
لقص
شعوري
ماصرت
تقسوا
لمباراه
اثير
عايض
تنف
احدكم
ماكت
##منع
light
هديتني
المفر
الوافدة
حبييت
وجلت
صالحين
البندقية
##يدخل
مخترع
باقى
##ذهب
##صبر
تحبي
تقتحم
واختلطت
##طلبات
مامي
اشتريها
وحكومة
عنصريه
معاملتهم
شباك
تعطني
هاله
الشغور
ړ
ومدير
علية
نعيمه
باللين
والمحبة
خدرها
##بطلش
تاني
##نهاية
عشره
مساكين
الثانى
mohammed
وقاتل
الجراح
مكون
##رجمه
##◎
##دان
يذكرك
مفاجاه
المفرحة
خانت
الدستوري
المواسم
لاما
َ
##تهان
بالتن
عديم
بتحرق
شخصية
والصدر
تحضيرا
نتايج
الهلع
اتاخر
«
يغير
جاريث
لم
تدريباته
جدارة
ومعرض
متفوق
انشاءالله
💰💰
مستواك
بالطاعات
عقولها
التربية
وماد
احرص
يطلبون
بسترك
تنظيم
##يفية
الخرايط
نشك
زمانهم
وصفدت
العرب
العبرات
استا
وتخ
##rat
يبكيني
##رامطة
👭
نفذتها
بعاي
تخوض
شرى
us
بطالة
واغننا
لهه
ايقونة
اسعدكم
souh
باللعب
اجدابيا
ur
والرضى
شكورا
للفيفا
يكفرون
##وضاع
##بلدي
مشكوك
جماع
تتحط
العيل
صديقا
يهزني
##ton
غرز
اختلاف
ومسلم
والعي
الهمنا
##🔥🔥
##يدنا
يتعلم
الضيم
##صلنا
سابقا
وزري
لواح
کردن
الطواقي
##ادس
حدودك
هالروح
بالولا
الارجنتين
##سكوب
عاش
##اكي
ودور
اللصوص
حكومي
yemen
ٺ
وابت
والتابعين
تحشم
التفاول
وو
يريحني
والتشاوم
لاتدرك
الحوثه
عيده
لاعبيه
ولذنوبهم
جملني
##ستشفى
بالعافية
بقيمة
تجسس
سوالفها
##حبش
واجمعني
قراب
ببعضنا
يسهل
الفقد
##نہ
مصراته
سمعي
واداب
##ها
القنفذة
الدان
بالمب
وانكس
me
بفيض
حصي
تسليك
##🌸✨
بتطمن
↓˓
جمهو
5
يستمع
##المة
واضاف
##كا
مظهرك
##هوها
اكلوا
اقنعك
الكويتيون
تساء
وعس
البحرين
ابتعدنا
مسها
الثامنه
شاد
الضعوف
المنير
فعال
يخنقني
الدجاجه
##يون
ماصاروا
see
يوع
رجوتك
بنقاء
##فيقي
الموسمية
😉😂😂
باﻟ
وعليهم
سۆ
وبتق
##ذايي
جرذان
خارجا
طيور
ۆحقق
ﺏ
عقارب
تشطيب
نعزي
😂🔫
##ثات
الهمج
😥💔
وتبحث
كتاب
المها
يفقدني
صوور
مكروه
الدقيقة
ظالمين
ويطيح
مااخ
الزرع
رجعوني
والهرسك
محتوى
بلوا
٦٠
جاله
عيبي
استاذ
جلستي
##لتوش
بتنزل
يراودني
ترغم
عظ
يالش
الهلاك
امامي
مكانتش
يتعذب
الخلف
حضارة
طايل
بالمركز
لفريق
##مورا
##ملي
نزداد
صاع
موقعها
سايرون
تشتريها
اهديه
##شرا
الارصفة
افواهكم
fant
المنقود
مخالفه
يفتكر
اللزوم
بنيان
والمج
ﻟﺤﻈ
##اتن
يفخر
##هازين
لومة
اشكالك
الاسماعيلية
وانتظار
بحزني
##ﻧي
البول
##صدمت
كالبنيان
مايعني
مضيء
والتمر
بداله
لايح
##احة
بروجا
فامنا
مساحات
احيي
##افتهم
مكعب
كين
يدعم
##ەوە
السوف
الاغنيه
وينساك
سهو
والعاب
يقاوم
الحبي
محتاجني
عقبالي
##ظافر
اومن
مايرفع
وتعب
استثقلته
تحبوا
##فرات
فتح
0544
للنجوم
النماذج
مفاجات
طيبہ
واشتكي
الكنبة
والبيت
ﻛﺮﺑ
لطافة
لمعت
موتاهم
يستمتعون
##بيونز
##تحذير
تكتر
وترك
زيدان
مهارة
بالرو
بتراقب
النباتات
وطنى
والباطل
tub
ستقول
😂🔥
الافراج
اﻻع
حكيم
##ip
احكام
اوراقك
لاتزول
مشاجرة
ﺂستغفر
##ثة
والفرح
##باي
الاشر
وجواب
ياخالق
ذكرى
##وبك
واحزان
بشتغل
وزادت
طمنا
بكلماته
مغفرتك
استق
##لكة
وقفنا
بروق
يجزيك
►
##بطوله
الاميرية
الوزراء
واكثر
تراب
تعشقها
##نهي
هتفرق
يفعلونه
وياخد
##نعك
طيبك
باچر
لتغريد
ازواجه
والطمانينه
وكالات
##قولون
##لبس
متاعا
متعبه
انگ
مسط
جنودا
بالشهر
ﯾﺳ
ثقة
تدر
مرباط
ود
ودمر
##وقراطيه
متواجد
لرا
##اليق
بتتبع
ياسمين
كتبهم
افيد
استراتيجي
الندوة
يسوء
الوفى
اجيلك
مستقرهم
الفضاء
ومنتج
✔🅱➊لزيادة
##لاهلي
##زم
ال18
تفشي
cairo
الخدود
واصرخ
قوميز
السمن
##رجح
بشويش
الدال
الشقيقة
##ابداع
##🌚💔
اراده
ويين
ﺣﻴ
زمرة
التغريدات
البرازيلية
وموه
بالمشاركة
عدستي
دوغ
##دير
##lac
للطعام
استعداداته
بزعل
159
يومكم
يزينها
والحزن
الحاكمة
لشخصيات
سوانا
المنابر
لاغير
معتد
وعايزة
نطلق
ادعموه
والدوام
فراي
التنوع
ﻩ
استراحه
هتي
خفض
ذنبك
ﺎلحمد
##ﻴﺮﺓ
بوسه
تشكيله
المقبره
الشريدة
السجن
وقلت
الحمادي
##قطه
انهن
طبطب
خمسها
عاليوتيوب
##اييا
##طلبه
بالخيبات
يذكره
كبرو
##واريز
للفتنة
##سلها
##bah
واحم
للقاء
ودكم
سلفا
ويم
يغث
كولن
الشخصي
راقد
ﻓﻘ
ضيعته
مذهل
تلبية
bbm
ﺎﻟﻟ
باسمك
اليزا
باهر
مواقفها
اكتشفنا
انقضاء
##شاء
##سجل
اناام
عشتها
بفكري
قند
واخلاص
محبتكم
youm
والافراح
المتوسطة
وتزكي
قلوبا
الثنايي
بايديكم
ويابخت
ويتحدث
##ﻀﺎﻥ
وافتك
التصاميم
تمرض
بردت
اقتناء
مانمت
فرصته
بالحر
##ichreif
🌿💛
خلقني
ازل
صخ
اشمعنى
سيدخل
بالسلطة
المهندس
##وخان
برو
موزون
ملوها
يعاتبني
##مير
زيت
##74
وهال
فلات
##نتكم
طابع
الروج
مثيره
👌😂
بتستمر
95
ﺟﺪﺍ
ويضل
بريت
ويبعث
يسقي
تلگ
هفته
##٩٩
بجنبي
اتعلمه
ينذر
التخزين
وفنادق
##نوك
ابعدت
فوت
##راوي
بيغ
اطلاقه
ليضلوا
انديتنا
والشخصية
بروحك
حاكموا
المجهول
##شيلك
معلي
تفلحون
المقاولون
ولاتفرح
ليلك
##😺
ازمه
تخشع
تغرم
بتعادل
شرع
المدلل
صدرگ
##لوماتك
لداعش
رتيوت
سقطوا
واكون
شغاله
ونسي
##زف
شروط
وكانه
والتوبة
##ساهم
المحلات
١٣٨
انتاجية
قوات
اكول
بقيمتها
##🇪
4411
گله
الموجودين
كلاسيكو
##روفه
ممت
وسبحه
لاقلت
##ﻮﺍﻥ
نتوقعه
كبرياء
تسويق
والفلك
ننافس
لاتج
##بغ
##دوغان
رموز
تهتز
بيصرف
##ﻮﺍ
جرا
يمن
اهوال
تلاوة
السعاده
هين
الرجوع
والجمعه
محروس
ماقضيت
##ايع
##ved
سحرية
مرتني
مخت
##ريع
لکھ
هالوقت
اهتماما
الكامل
الحفلات
والمنظمات
ونفضل
تفعيل
غدت
ونصيب
بتتكلم
##الج
تتجسد
الدراسة
فانتم
فاتورة
تجمي
امنشن
تنطفي
وسواد
وجماعته
##ٹس
##هيب
كدر
##ﻣل
غافر
##تنيش
alf
اتكلمنا
الساخن
##اٺ
عفاريت
تمريره
ااخ
يواسيني
وطلب
بالثبات
واغرق
الاشواك
للهروب
بعينك
##اريع
وسعت
##نصريه
واطل
البحري
mark
تنله
نقرر
تباشر
يطلعون
الفنانة
##ارد
##يسعد
مبدييا
بطولاتهم
##حدات
الواسع
المباح
عاطفه
والجدل
ولاجيت
الصفاء
دولا
##ادة
سكرين
بعناق
الرافعة
وازكى
هيج
صكوك
سرم
قفاك
##ٱم
##ظور
المفعول
لتحت
جرين
المستفيدين
بمحطة
القصيمي
ناقلة
##q
35
استغفره
الغلاة
سامحونا
ازالتها
المجالات
اهدافه
اﻗ
لايسد
##🌻
بمقدم
الدب
طاري
تسلي
لارى
لخبير
ولدار
بالسوالف
انستغرام
القديمه
جاذ
بالعيون
وراجع
المسير
لايوقف
تعرفيني
احرك
##ﻧﭑ
ﺣﻴﺎﺗﻲ
قذف
فسترى
انفرد
ادعو
المركز
مارب
##ريده
والسيف
جامعات
واط
يغيرون
بالحجر
واقعيه
##فورة
not
كسرها
المتوسطه
💆🏻
خيالي
والسنة
☻
##eo
نيتشه
٩٤
يتقبل
ونادى
كافاني
فاتوا
##🔔
التايم
مزاج
ظلها
##وقرا
نشاطات
قرفت
لتنت
##🌷🌹
صغاير
نصها
##years
بنفسي
يطعنك
تفعلوه
فيديو🔴
هتعيش
توقعات
الزنا
##فسدوا
شغالة
قياده
المواليف
اعتمدنا
حذايك
يبطون
للتامل
مغفر
بالقلم
##ٹے
بالتجاهل
نعيمك
نحافظ
الثمار
الصايغ
وقفيت
##سن
هيعملها
والكابتن
التخطيط
افندي
ليخلق
ورفض
بالسفر
للكون
وقطعت
##asico
مصم
وصرفنا
موسسات
##هدي
ايذ
نبني
cle
ﺃﻛﺜﺮ
المصاحب
الفساد
لمرشح
بخاف
المستعان
تشيلك
خبيت
النظرات
تعافي
ني
النيل
بيطلع
سبوتنيك
بالمكياج
اسعدتني
البقوم
التبريزي
تستن
الدجاج
اتعبه
وهيب
عطاء
what
القايمين
التشريعي
وتقف
##ضيدي
صوابي
فتحثو
كنفاني
وفيت
بالذهاب
يفعله
وتشوفه
استهدف
خاينه
تقاعد
##مليون
فجعل
girls
مسيولي
خويه
حمراء
بطريقة
##يتكلم
##ﺒﺤ
فغير
وارواحا
المشر
واحبونا
اعرضوا
بتحقيق
يبلغ
وندمت
التالق
سبيت
العابرة
الباز
فاتخذه
مابداخلي
فابدع
نسيان
##خو
وللن
والسعي
ورسولا
ميلاد
ادعموني
الملعب
نتاخر
يخبرنا
##غول
##ليفون
##يس
بانقتان
ext
الفعالة
مختل
البعير
الشعاب
كبدة
بيعملوا
الفقراء
وليها
المحزن
والبخيل
الاتقياء
تحالفات
القذره
هدفنا
##نكك
تترتب
سمعتها
منشغل
ممتليه
نافلة
ماتت
##خافة
واخلاقه
وسيكون
15
لتفاصيل
يعتنق
حذرا
لكرة
رسميه
مودبا
عث
غيابه
##وليت
الماما
وريني
فاز
فكرتني
فاغفرذنبه
مخلصا
بيقولو
الدراسيه
##٣٥
كتا
zinab
##يقظ
تحدي
مكتوبا
لاخوانكم
ليلہ
بالخر
لاندية
موضي
الربح
##مارات
رجاه
بالموسيقى
ناديك
ومرها
اغليه
الرعدية
بمجهود
ٱنا
##باذن
ومش
كتابة
روحك
اشمعنا
تداركه
زبطت
ممول
ماخلق
خلاني
اله
##بره
الكبر
الاضعف
##joy
مايحس
##فان
لفتحنا
والطريق
يسي
المعين
##لشي
##اتف
راقي
الاكتشاف
ويعاني
تيش
##سوي
##ندر
سكايب
رحمته
منحبك
مضيع
رمشي
وخبرا
##عدى
يطبلون
ليفر
الشعو
يستفيدون
بانني
يجمع
مخدوعين
بماذا
تستعرض
##توں
يلومه
وثمن
اﻷهلي
اذنه
تدان
يود
مبدعه
سفالة
كفر
وكثر
من
اتحدوا
احظى
شافك
يمسك
سارك
الجهلة
ابشركم
للمعرفة
بالجم
ﺷخص
عورات
موتي
للفي
الصغيره
4
عيشتنا
للاخوان
اقلامنا
##اركك
##تغير
مسبقة
وماواه
لوفرين
ومضيت
alw
وصنعت
لايعود
جزايري
assaf
استخفافا
اربعين
بحش
##وكة
تنخ
تخونك
مبيعملش
المثبت
##طيعون
لحظاته
عبثا
##ﻜﺴﺮ
اشداء
اختلطت
الشطر
الشفق
انفع
منكرا
يستمرون
🔴عاجل
التعليمية
ينتقم
##ويتنا
واتى
الاصد
الايمانية
صوتج
تلهيهم
الحرية
##بني
مضروب
والانفاق
الجاهل
الاسابيع
##لدك
##اكور
لاكت
وت
##277
المقر
عاكف
موظفات
صنعه
##يبك
نعطيها
يوجع
وامران
يصوم
اعدادى
ملييه
يعملو
شهري
ذبل
امواتنا
ماترج
##اعرة
القتلة
##94
عاجز
الاعا
لايست
ينفذون
ميف
اوفي
علمود
تحقيقا
يبدوا
روقي
المنادي
لاباس
مرتاحا
تهميش
yn
##شع
واملي
يعدي
لقراءة
##باريات
الطلعه
##علن
والرقص
شاالله
العباية
تراي
##الشباب
استمرارية
الممتحنة
رجم
##بيبة
الايطالي
بسرعه
وترى
الخرو
للعفو
همومه
احصي
احيانا
اكذوبة
قيامة
لاتحتسب
ياملا
الشمعة
اكم
السكشن
يصنعها
لتي
لوجهك
طيبي
الوزاري
جذاب
دمى
العقيلي
##للطف
##عاهم
الكيمياء
يعشقه
الشحنة
بمتعة
##یب
فالس
وقوتها
السنن
تفضفض
تحميه
السينمايية
استاذن
المتعة
رسلان
ليتك
##نر
##سلك
الرابط
البيضاء
الرغبه
نسيناها
حجات
ليكونوا
وكفى
المنوفية
##ole
بازار
باذكار
وملق
ﺎكثر
😂👇
ترضيك
zam
المهندسين
##راحھہ
الراقصة
الاحتياج
##زور
وبشدة
بعتلي
الغالب
يغرب
لايغفر
##سلون
الطاف
الاحب
سموا
الافت
وادري
بمصر
تمنحني
لمسته
ممثلين
عماد
وجات
ويخاف
وواثق
ايط
نجلاء
##🚶🏻
الخوارزمي
سادسة
الاحساء
بارادتك
وافعالهم
تتعامل
##ﻤﺎﺀ
over
الصيفية
للبرو
التوصل
##شيستر
موجع
مات
ارضيك
انسحاب
الاطلاع
وتويت
##يانات
دمهم
الاجوبة
لاتعتذر
العزلة
##واجدة
تلة
##يمة
الجزيل
للمتح
✌🏽
الوفيه
ثلجية
##غينا
تدرسين
ولاهلي
خابرين
بالذل
ينقطع
افارقك
يحزن
اجتياح
نظن
حجازية
طمانين
ذكاء
لدور
عملي
منزلة
والاحياء
##9f
يلملم
الطاعه
زهرا
ماعندوش
الاحباط
بالجدار
ولذ
اثقل
والافكار
ال4
ريماس
شمسه
بالاوزان
يگفي
لعلهم
تفقده
##≀
##٦
وجعله
امروز
ومواعيد
رابعة
مثاليه
الكوبليه
الجامعيات
##جزاء
##قطعه
تسولف
طلته
##هلاك
معجبة
والغضب
بروك
الراسي
تمرك
ابتلا
نقض
فقدانهم
فوضع
تفوتوا
للاسلام
اضيفوني
محض
اللهجة
خانها
سرعان
##amakh
جابه
ياهلالي
موبايلات
##سلمين
##حساب
ديلي
##comm
لاتجي
تانيا
ساعده
تعي
##ثلة
التقا
المفرطه
📿
المهيري
اعرضتم
صريحه
ﯾوم
شفيكم
##لطمون
افرجها
النشر
##vent
خاش
بالتس
ماعرف
لمرحلة
حيلتنا
بشعري
موقعنا
التحصيلي
داخ
البارح
والشغل
نفق
ارباب
الغربة
جالك
معاليه
ادخلو
جبتي
والمفسدين
##روسة
خلوكم
بالستي
اهى
فتق
اهداء
##read
وحدنا
قوتشي
جنونك
سدى
سامسونج
##طلب
واسال
##شتاين
##زاكم
وعلقت
للمس
عزلة
بالشك
خرف
##ٱ
عتيبه
##هرب
##ارس
ويحزن
ايكم
رزقني
اصرخ
بافريقيا
ﻫﻮ
بيروزي
المطعم
تساول
كلمتي
اجلنا
##منيات
##ونامي
اعدايهم
فرشاة
سيجعل
فادي
شرار
تكرارها
رخمة
فاجعلها
يلج
فبعضهم
الزعتري
لعبه
نطر
فاقيموا
##اعلانات
##براء
##تمل
ونصره
ماحب
حافظه
متابعتها
تدخن
واكر
للصداره
تصبحوون
العربية
##ﯾت
ﺃﺭﻳﺪ
قربى
🌻🌻
يل
سيكون
اغنني
نكذب
الصافي
وياسمين
التقرب
فعلتموه
##ki
وتصديق
##ايلات
للمليحة
بهالشي
متخي
والسودان
وتناسوا
وتنسيق
##وادث
##اريين
يعجبهم
13
محملة
المذاهب
كشجرة
الانظمة
اساميهم
لاعد
##♚
الانجليزى
بنص
ويعالج
دخلة
حالفين
دلنا
##صغر
خز
المطالب
مواصل
البساط
شاغ
الخالصة
فردت
اقاوم
امات
عزاءكم
متهي
تتخطى
##cc
##ﯾق
اخواتها
باكتر
بسنتي
جهل
تعبانة
موهل
ai
سترفع
القرق
ﺍﻃ
##🍻
استعيد
قرن
شوكا
شاليهات
مصعد
احتياجك
مستمر
السعادات
ببرامج
السوري
التاجيل
المحاكم
قسريا
احتق
سوشي
محجبه
انك
##جلب
mbcthexfactor
ترضيني
حاسة
سواد
عصا
نظير
بلدنا
يتعرض
المرة
الجدة
دمعت
وايجاد
امكان
ميركاتو
##وتي
الفرعون
بقيادة
مهارات
متعرج
##فعش
تعزيزات
يقرع
##ضيقه
اصحابي
التخطي
الفضيلة
ايب
##ريجي
لقيتهم
المنفو
werejec
وطاق
الجهال
ونشتاق
ﺿﺤﻜ
والسود
##طاد
يفسده
##صفحة
اخسرك
اخرجنا
ډ
##ﻣﺮ
بظهر
فتجاهله
##بلوم
واتركهم
ونصر
نضر
جارية
للتحالف
القلووب
ومشك
اﻟﻟہ
رياسي
شريره
فاخذهم
تعبيرا
تساوي
اصواتنا
تنشا
فت
وولاد
ونصرا
لحظات
ليفاندوفسكي
ريا
الانكار
😉😂
##بعاد
اسالک
احتياط
اصح
للمتحدث
سمعني
اهلكنا
درب
خلقتني
مسرى
ستقف
تراها
ساعدني
تدي
رديه
##وايج
راقب
##ديقين
ليصل
بقالك
حصرية
نطمح
السخافه
لابراهيم
الرموش
وملامح
صاج
شار
طمع
لكزس
واصد
لاضاقت
##ﻫﻮ
لايهمك
حربة
😂🙊
والحذر
##عاف
العباء
ايه
زاك
الاسقام
بالجهراء
لدولة
متعصبين
##ﺗك
##قاما
السوده
رسلنا
يافرد
التقوى
ajoute
تست
##يار
الشعر
عوضنا
تسميته
##ظلون
الغلطان
اهمك
##اتوا
##دموع
تيجوا
المزايا
کریں
اريح
السرقه
روحج
##ias
يا
ويتغير
يوصي
بقي
ودى
عليہا
ماضاقت
الصباحات
افتتاحه
لصدق
ولادنا
وشر
اثراء
الصادقين
جند
الرازي
مشابهه
بالحكم
177
san
الانهزام
ip
الك
ولهانه
بالاحراج
يخلوني
بدانا
ومزي
للبيت
نواياها
تقس
ولسه
##cr
ادلع
ماتشوفين
فيعطيك
المقط
##جاما
انتشال
صحراء
لانملك
بتغرق
فايت
يصيبهم
شحط
حريتنا
كرهناه
فاضي
ويقومه
نضيع
##باين
الاردني
والنتيجة
ويرحمهم
اشتياق
مضيية
هالفتره
والثانية
بالشوط
ياقطر
ظلمتها
بالتصويت
عزز
العباده
المضره
الهى
لين
ضاغط
##وقيف
اكتملت
##صحه
والنقد
مخلصه
ينابيع
##ﻏﻟ
الشعري
مجتمعاتنا
📯
كبروا
بخدم
تسعيرة
انصاتك
##ويق
الوجه
##رجم
اطبق
الضهر
ابقي
صلاتكم
التفوق
الاخوية
ممتنا
واستقبال
##روط
كه
تصويري
التري
يعتدون
تامرون
بيبسى
تعاظم
وانتاج
بذكر
##وهره
الانتقال
التجريح
خلسة
مسامحك
تبلغه
اسقطوا
الشهره
بنيه
بازل
تلوموا
هدومي
ﺛ
الاذن
اجانب
##╱╲
تمنحنا
##تر
الاجهزه
بتحتاج
الجوا
ﺃﺣﺪ
الجلاء
الاسكا
مضت
المعاصي
طاعة
وتسير
منھم
انقاص
##عص
##oh
بيفوز
مقدرة
رجولته
gr
المدة
بالمسجد
فهمنا
نبيلا
مشكله
بمناسبه
للمح
##هرها
للسلامة
ليين
مصاحبة
ﻟيس
المداومين
تقوول
تركها
نحيت
حسبتك
غوميز
ﻭﻣﺎ
للضعيف
النمساوي
راكان
معقدة
تقبل
حرامك
اصول
بيوجع
🇦🇪
العجمة
المظ
المفوض
حدوته
اباحي
عطنا
##اذكار
ديلو
يحملہ
ابۆاب
تحيل
الاوسكار
مبتبقاش
سامبا
العاطفي
عقلياتهم
##ﺮﻭﻑ
##ترع
اعصاب
هيقولك
مزعلك
بقترح
خمسا
justice
قاتلي
فدمرناها
بيوت
😻
يذبحني
##قاص
بهجة
الجمهوريه
ديموقراطية
كسل
ج
🤒
جوو
تتجاهل
برنس
دعارة
الاستفسار
اشاركك
لصحيفة
اتخلى
##ايا
تحبون
الفرص
المعتمد
##سااس
خراط
الافتراض
احزانهم
فيكم
ععن
مشا
المات
وغلبة
##وھ
منعطف
##والت
اتمنيت
الذين
فتنفس
باراك
بريده
العيان
يعاند
بيرا
المنان
خريجه
ستبكي
واقعية
لغته
##14
الاسات
ثغري
اطلعت
عاقبتم
المتشددين
التنازلي
فامن
##صدم
الطيبات
لصفوف
ﺑﺸﺮ
والزانية
غامق
المعسكرات
##فاعله
هالحال
الابنودي
الاسباني
##ويتو
##رفق
جرعه
للتغير
فطين
وعفوك
2020
الغفيلي
تخليك
الفريق
##افيا
##ترون
وفيك
الدهر
##سند
بالاهتمام
##اللہ
بعبادك
نباح
يدى
ﻋﻦ
🔺
˛
##ااي
حلالك
ونفوس
القروبات
لاينساك
خلال
مباحث
متناه
منافذ
الابتلاء
لاتجعلنا
للعالمين
القبلي
##ﺘﺎﺟ
المشروب
يقاطع
الصدمه
ومقاما
الوثي
ھے
تكتيكي
افتتاح
##رامي
واطلع
بقط
سرس
وفاة
واما
وخط
الترفيه
##ption
يانفسي
يظن
##ناتي
هقعد
جاه
الشنب
يلعبون
ارايكم
الاستراحة
تذرهم
الجبار
الفج
ﺗﻌﻠﻢ
##fifa
الترخيص
الظواهري
##وبار
بتقصيرنا
يقضون
قوان
واصعب
جدران
لاينتهي
مالكش
وبايرن
ابۆ
##ففة
saadlamjarred
##لوجة
اف
وظهرت
يمارسون
اقفالها
ولادتي
ويمد
التطنيش
اعمالكم
الصانع
وجيزة
بقلب
اصيلا
نتعانق
اجيبك
##افهم
والسم
##مونا
##روں
##قضيه
حلقة
des
الجدعان
وانيس
ابداعه
مكر
وابوها
يحمد
علشانه
للشخص
الاستفزاز
ويتركون
متسابق
نذهب
رواتبهم
##فلت
ماسك
اتاري
والتشكيك
يثمر
ضريح
سريا
وجماهير
نخسرهم
لراغ
##ﭑ
ونزع
قلبه
her
##حتنا
حتى
،
يهدد
انتباه
فروج
هجري
##ﺭﺍ
🚬
يسته
##61
والبسهم
##صرنا
##مة
##ووتك
ﺹ
وتامر
يحلف
عساها
##طلحات
الحق
تبيح
ساعيش
اسيويه
احببتگ
فيضاعفه
خلفا
صياحكم
تعانق
الاحرار
المهني
تجاههم
لاتخلو
نفحات
##قري
##يض
الداعمين
و٣
عزراييل
##جتي
عالة
گل
تساوت
بتكلفة
واموات
##طنها
👊🏻
واحزاب
04
اقن
بالري
والنسايي
ﺍﻟﺠﻤﻴﻊ
ننه
##ياام
وهزم
بادي
بمرورك
تتما
غطي
ورايته
##ريط
قسمين
جوارديولا
وشربت
طايع
البص
جندي
##عران
ووحش
لاتزيد
يكسرون
لايفقه
##لوغ
يليه
الاحتياط
خخير
ابص
✨⭕
احبتك
سالتني
بقانون
شيعان
شان
ﺍﻟﻬ
بعاد
خطين
بحبو
العابره
والقوات
صغيرها
##١٠٠
ميك
سلبا
تقفز
معرس
ونومن
محشش
منتجك
المتوف
ومريضا
فاف
وطرق
##لناا
بلهجة
500
ونها
ماصبر
المعرفة
وسرا
التصلب
وحاجتك
الامتحانات
تاييد
فاحفظها
وحبيتك
مستويات
وغفران
فديتج
وابعثه
البوفيه
مينو
قليلون
adel
بليد
باللوم
زيف
##راث
بيصير
وتنسون
المتحابين
الاخلاق
وحركات
ميزان
##❋
تمنيت
عدوى
الc
التثاوب
وهداه
المتابعون
##وقراطي
والبلد
repost
ميزانك
ادا
ويبكي
ضعوف
ييا
المركبات
بيبو
الصيفيه
يتمم
طرا
سوء
الرذيلة
ارتكاب
##طيعة
ازرعها
لاتظلم
اعلانية
احترف
ارتقي
واجب
تتحقق
تتمني
استغرق
افوض
الصالحين
فبعد
اللياقة
قدرني
يحكمها
وفعلت
تعبير
##براير
حجابي
مداه
ضغوط
تخنقني
خطواتي
var
احتجاز
صابني
عريف
##صحيني
##سنى
فخرا
##اليم
جسدها
تشريف
رتوت
too
شجاعتك
paa
##لايب
داخله
بقطعة
تغلبون
##تهيالي
الصفوف
شراييني
الثري
##🙌🙌
يحكمون
اطفالها
بنكبر
حوضه
ۆال
##شره
مشرع
ونبرة
حسوفه
والانتاج
الموتى
الصهيونية
ولايت
هتعملها
##بيث
يرغبون
تكسر
الصلاحيات
ﺑﺎﻟﻤ
فايقظني
بالاقدام
ال١٦
يبني
يعتق
##رى
ومار
ليفرك
ﺣﻀ
مغلقة
طريقين
لمرش
##ضينا
والرسول
ابناء
لموت
كابل
مرجلة
##arm
لعدو
شى
##ﻓر
كييبة
التوبي
يجمعكم
بلادهم
الويكند
##حبي
الصحابي
لجوء
##قالته
يفيد
كبرنا
##وبا
مايلتزم
حاطط
بمتحن
استفتاء
كلماتي
وخلق
الانتباه
اجمعنا
واتضح
تدعوا
لقطع
واظهار
ماقمت
حزينه
ممثله
الغالي
##غفر
البدلاء
##ﺑﺗ
جور
كبير
تفقد
يتحد
عز
🔆
مجمع
عسكرية
##ووب
للماضي
مراجيح
طلبها
جابهم
شفقة
الراهن
بشرب
🎧
الوكت
يذكر
##هاج
##ليز
اخلف
زكريا
photo
باعظم
العلي
السمو
العمد
بالاسي
مباد
الغالى
جابها
يداويه
اعلي
تتوقعين
##ثيان
ومقاومة
والجامعة
عمرا
عی
pop
مليانين
جثمان
تيري
العباقرة
بهمس
البطاقه
بالحي
##ندی
عجزت
اقبلك
الشارقة
##ina
السراج
فليتوكل
رحبت
بفارغ
ميعرفوش
self
##🏆
اعيذك
تضطر
خليلي
باعلى
🌚✋
وبام
mohammedassaf
يجملني
فجاه
صلع
ماتستحق
القفا
المسي
##aw
موقت
لحبيبه
بشغف
اوجعتني
##روبي
ald
متيق
##جار
صفوي
ويمسي
ابكى
هذولا
ماشوفتش
استثمارات
##قتنع
بتاكل
ﻠ
لامطار
يااب
يلجم
واقفه
##cept
قطوفها
وارج
ومحوت
##لسلات
صبااحك
بمدرب
الصج
فالبشر
مجتمعنا
ابحثي
وجميعهم
السرد
بتضايق
##لحق
فيزيد
جوناثان
عواق
قدر
بعدد
السعادهہ
الصايمون
سنترال
البنيه
ونحترم
##طايا
متضرري
فاقدة
٤٠٠
لمسلم
زقا
يشوش
بمتابعة
##لادش
##او
وتعليم
مشروعة
الضاحكين
نصر
##عوبه
ماخ
حماها
##طيل
##iya
مشهورة
اجب
وبخ
بسرعة
اوليس
واهلهم
لايكفي
والطايفية
للنزول
ال3
خبر
##eel
##سيها
شافعا
اهنيكم
خلته
🖋
نصبر
##قعد
عدي
سبحوه
وادفع
ولذة
مهازل
المزروع
لمبارك
ادخلني
استكثر
🕊
يجنن
##غاف
الحديد
الفاخر
##رتها
مبتغاه
الادبية
عمياء
عراب
دقيقتين
المنتهية
سباك
بتوقيع
الريحان
انيب
الدولا
ابقا
تحتريك
##مسة
قانون
مقبوله
نغلط
متفاج
##سترا
وقوموا
rom
اشواق
يخاف
بساعة
##اريال
بصورتك
ببساطة
هابط
##ﻔﻞ
ماشاء
لحبك
التوافق
حسابكم
وقع
##نين
وارضاه
التغريدة
##قيقه
رءوف
واسماعيل
المرصوص
ينالها
##سمى
عالح
فبكلمة
داعمين
##لطان
وسبع
القلب❤
ياخير
##ong
عزيمتك
وضميرك
##جودة
##ارضة
والمقادير
دودو
الغيبه
العجل
##خلل
##لهہ
اعتذاري
##ract
🙁
بدقيقة
find
ﻟﻚ
اجازتنا
دهم
حسابا
ﻗﺎﻟ
جماه
جهازك
تكتيب
تميت
##كب
التبعية
مستوصف
يحاكي
وهيية
المصرين
تصو
لاتنتهي
##تبى
وشعورك
كظيم
جيتس
العق
ارادك
بتيجي
ويستحق
تجلى
عماني
واملا
##رمه
الادم
##اينات
واغضب
pdf
##لجة
ستجعل
نشجع
##ربيجان
##حو
المندي
الجبنة
##ﺮﻱ
وعمي
اشيايي
واضع
ادينا
مبروو
##ناتهم
ينجي
الروحانية
لوحات
الطريف
اخلاقهم
نشرها
ﺗﺤﺐ
شيخه
يستضيف
ﺑﻌﺾ
نحرك
ايلام
الحنونة
يلهم
ويومن
قبايل
اﻛ
الهدر
للراحل
غطاء
##ريد
##كريات
بحال
##جب
##الكين
برقا
صورة
شيبا
الضب
الانطباع
الفاتت
دعيت
نستغيث
الغلطة
التنبيهات🔔
مودرن
للتظاهر
اصابعهم
should
الضغوط
##رشد
الارايك
بافكارك
الوانها
واغلقت
المهجور
وتعلو
خالتها
وفوض
التهي
نظرات
العزله
##ﻭﻥ
حيصير
##هيز
صفة
العقل
الحاسدين
يوهان
نوعية
اتواصل
شبك
ابتسامتي
بنحبهم
لاتحت
عنز
✨اللهم
الاب
##arac
لحوار
اتراه
يشرق
ساعتها
تنافسوا
مرارته
شهدا
يم
تنعكس
مستغربة
بتمر
##ترط
صند
انصحك
الاسباب
ايدى
تمور
حمايته
ﻭﺍ
للاطباء
يجتمع
بالوجه
الثامن
وحدتك
اولادك
الغت
بحوزته
عرص
لخد
كلانا
يشوه
المقاتل
##وزارة
##راهيم
##ايرات
البوابات
والطموح
لابوكم
احي
book
يدخلو
اهمه
##وف
باذنك
هلاليين
وجبة
تصدير
تدرى
بنظرتك
##➖
لكلام
تدخلوا
نحتاجهم
ناقصني
نشعر
وجوههم
##بيتها
صر
امانته
يتقال
لذاك
##ext
الانساني
المتح
هذولي
برتبة
هاذا
1434ه
ويعزك
يرد
اوتروا
البام
والوسطى
##الها
🇧
مصاب
عينج
الحلاقة
يربح
تسان
اات
واعية
سە
الكرملين
compl
وعلانيته
يااستاذ
اوضحت
شبابك
عيونى
الحقة
لبيته
سحابة
تجاريه
ترفيهية
##gl
نزوى
المره
##فتين
والتكبير
اتعذب
اشتركت
متمنين
خير
الشني
فخسرته
عالية
الموف
وعناء
فجر
العاهات
##عجلونك
هالمس
7
وهموم
لنك
والرفق
##شرك
ويسم
بتريق
وخلاف
مهرها
##ﻟم
هالليله
ﺟ
والدك
غزة
بنصف
┊🌹
فاد
برط
غايمة
معنا
##ميزه
الغيا
الشكور
اتوقعه
─
والماضي
نتشرف
typing
المذهلة
وصحتها
واربع
حملتنا
السلط
ره
##🖤🖤
متلاقيش
ودينك
وابنايي
هالسنه
دعا
مجهودك
وتوفي
today
تتنازل
فورمولا
الوجة
كورية
نحتفظ
ضحكات
الافغان
البلدية
##فاعلون
يصاب
الشينه
جذور
maj
مارسيل
مراسي
مسيرها
الدبلوماسي
هتشوف
ادناها
والغرام
الام
لابرا
والوان
##ﺘﻢ
احب
مكسرات
والاصدقاء
دغ
خد
مقض
هتفضل
##رافة
هاليوم
مدخلها
لاتقدر
ربہ
اكي
ورون
فمك
عالفي
##وقل
يتوا
قا
ماكنتش
انطفي
فديو
الفلافل
وحشتي
للدع
##دينا
عليگم
انصاف
ضحي
هذ
الزمر
اضايق
##يهه
لاعمال
والضياع
اضافيه
اشفق
تواصلت
مسجلين
شاس
abdu
بمنزل
educ
اثما
دونغهي
##سهيل
##عيدية
ﺍﻟﺠ
بسلام
بصواريخ
الt
لدماء
المستقبليه
الفرج
المملوح
بتوفر
قضيه
صدى
ملاذا
ياهو
##هران
للحرب
ايماننا
مخيفه
##ills
tomorrow
مكرك
##اخرش
للتسوق
ماجورين
المتن
السديري
##الليل
##شاعة
بالاستغفار
##لتهم
يقنطون
وقعودا
الاداء
##شير
بعفوك
##طرقات
والعسكر
احتضانك
بالاص
خش
بنكره
تكوون
صورهم
عصيتك
ﻋﻤ
وﺍﻧس
استحضر
سيدفع
تقلص
مياه
الفطرة
الساحرين
قوقل
مواصلك
وهدايا
يومه
المهات
بتمويل
تستخدمه
تصبهم
موجهه
وتراه
بكاين
يقنعك
تمووت
فقولوا
##قوبات
ذابل
السريعة
واختار
##sed
وذكرت
اتعشى
يضحك
inn
بارعون
يخفى
بجوف
يتكاسل
الارهابيين
لترت
تعريص
ارقي
##هولين
عياله
ويشتم
الحاقة
بعم
افرا
صبرهم
##كك
##حتي
الاعراب
تقص
الرغبات
ﺑہ
حضرتك
اساسا
التقط
كاتبين
اياام
عبدالحسين
موه
سيرى
سوني
والمعطي
وتغ
غايتي
يقعدوا
##am
⛈
ونظر
جماهير
##توكول
ودعهم
يذنب
تدوم
الاخوين
##عجبك
يتعاطى
##عاطفين
اتمشى
##iscope
كالمج
##قاويل
##سل
الضايعة
كسرت
اير
##يتي
والغ
المعارج
ورحل
عاهرة
احدها
صلاله
هزلت
لنجعل
تشحذ
المحمول
الجاي
##ﺆ
ماتب
بيقرا
بدى
يثبتون
وديان
يلس
خروجة
معلنة
يوديني
يسرته
والغل
الذاكرون
جهاد
واجيب
##لحة
امانيه
شرفه
##لn
لاسيما
والتعاون
وتونس
##هايه
الجاذبيه
عاند
الافاق
لذات
تفتقد
عيط
data
العيشه
مولودية
ولي
ركعات
وزيره
ويرضى
##yan
الانبطاح
اطفالي
فتصيبنا
##ديسمبر
الايلتس
والكم
امهات
فخورة
علاجهم
doaaelsebaii
بيوزعوا
نشوفه
ارايت
شر
اجدادهم
قلمك
عيدهم
ج1
سامحيني
المدارس
ياشينها
يكلف
وصفك
##وجها
استخدمت
جبله
نقدا
واجد
وطلع
##حساس
ليتكلم
اعتداءات
##سمون
فريش
حزنا
بطيخ
ابطالا
بزعم
هيروشيما
معلمي
زنان
يطلقها
صادمة
الامها
مريضا
شهيقا
ومتضايق
##ﺣﺪ
##ﺣﻢ
انحاء
مصدرا
بععض
يسعها
يردني
طي
نظراتها
##⛔
اانا
الخطيية
جهرها
متوت
ودية
ايدك
والتفاعل
ابنساك
غارسيا
##غتسل
يكب
بالفشل
مستنقع
التجربة
عزف
والسوالف
امید
كتبنا
ولازالت
##ﺎﻟﻚ
محبكم
للاستفادة
بفراغ
رصيده
فاحذ
بالمش
ﯾﺣ
التواب
منطق
لاثارة
you
##787
اعتقد
النخيل
##ﺎﺑ
حيااتي
الراحہ
عايزينك
اتغلب
جرييه
ومعالي
الوحشه
ويعوضك
هرجه
وموقع
مبته
نلبي
بوجهين
##ارهة
امكانية
اشين
شورى
عزاك
مواويل
يشارك
طاف
كيوم
الجزية
بالصالة
##وركس
التراكم
ˆ
اكرمن
مشاركتها
الايد
واجمعنا
محياي
##منتخب
ورسلي
وحيدين
ملامحهم
دموعهم
احتمالات
الاسبان
ہمیشہ
التحية
بفصل
##وهان
محمله
مالديه
بيحس
##idi
الغازي
الشاحنات
احيان
طاقم
واولي
مابداخله
##وارض
ملا
بهرب
لاقامة
وحسام
النهاي
نطقه
الكريس
تدخلين
😂❤
اقراه
وضحكاتك
يش
عافه
▄
النم
دانا
بواج
حسيبه
تستوعب
arabs
##⇠💞💞
##ister
البطاله
والمعراج
##بحاث
ايجي
##تخب
##ﺂﺱ
يلوث
##ضايا
قعود
عظمه
التبليغ
السايق
خو
واجتمع
الطري
يخدش
الابهام
##ذوقوا
##قير
والمواطن
وتولنا
واعتمد
##سامحه
وتبرع
اسبوعي
خادمه
اتني
تواف
مندو
وليفربول
اغسل
الطوير
النخبه
جانب
كياني
الشقا
بتضحك
الهرجه
بنسوي
مخول
طردتنا
مشوف
##ﻠﻒ
يمتنع
الصي
واغليك
كك
باهل
التعليقات
حزنهم
يهمهم
##وزي
الزرقا
خفيف
نلجا
بالانتظار
ريحتكم
المطالبات
يجاوب
قلناها
العم
##يابي
وكاتب
هالتغريده
يقيل
الهوي
##خالد
اعزل
استشعار
مهمة
تجاهلوا
##aky
##وارات
يسرك
عنيدة
واسمي
السيطره
##خدع
##ital
يافهد
اناملك
posted
ساهون
عتقايك
ڈی
##ستهلوش
##2011
متزوج
والرز
نفاق
المشك
لخويا
قرقيعان
السبابة
احراز
للمحزون
استغفري
النفسيات
والخذلان
👌🏻👌🏻
غرامه
الصنع
افسر
ادركه
شهيرة
##شر
بارادته
ماينلام
ملكش
والاذكار
حبوب
التساقط
حدتني
اقصى
مايقال
للاعتداء
##ﷻ
##ھه
##زواج
يويدون
جيوب
ساقت
فعند
##عدل
يحزنون
٥٥
والهدايا
وعذب
ذلكم
تجديد
مقهوره
لايترك
تونا
وبعيد
list
واتركوا
والنصف
فايق
حلووة
بجاد
مفقود
سيبت
عاصمه
مطنوخ
##ocol
ينفعونك
بقولكم
عاشوا
🇬🇧
الاموات
مظهره
مزنوق
سيفون
القميص
فدم
نفصل
جاهز
بخمس
اجنحتها
ﻓﺮ
العنصري
خصال
هور
##وفكم
تزوج
الغافلات
والكافر
فدييت
مطوا
العيادات
اراهن
غيمة
😙😙
ابتك
مبيح
طريقا
شوفك
وثلاثين
لايريد
##اشقين
مفع
عكاظ
لفرحة
واللوم
كاري
صنعها
سبق
نعمم
وجلالي
الاث
تقو
wt
يرفث
##❁
فيكرمنا
الرييسي
البث
سويتها
واقل
لقيتني
وقناع
وابن
ترشيد
ننتظركم
واهتمامه
##غالي
المذنب
خهه
عظمته
ﺎلس
##الخ
يلاحظ
محصل
بيتزا
يشوبه
وملت
منھ
نشوة
الضيقة
وﺈ
ابسالك
اخلاء
اظافر
صواب
للتصميم
الاخوه
اومي
##ﺑﺘﺴﻢ
##ااح
ليعيش
ووالديه
فط
العدواني
انسدحت
باعمارهم
ذنبه
اجهز
لخدم
بالتايم
البض
التبلد
وهفضل
مسكون
الشرعي
وشعبان
♀🏃🏻
الله🌹
احقية
ﺍﻧﺖ
تذمر
لدقايق
تحمد
##قبله
الدني
ماكدونالدز
اصابع
لايحرم
صعود
فاصحاب
##بقاش
تعسرت
رويال
جوست
الماره
##صدد
باء
poyrazkarayel
بيصدق
الايتان
نسيل
الاقسام
##جبكم
وبقي
ﺃﺳﺘﻐﻔﺮ
انتظرها
ماله
##uper
##ster
لاتنسو
بسن
والطلاق
▬
##ونيسيا
##s
##خد
للفاين
العاصمه
التنسيق
مهله
##ashion
ايتلاف
##كذا
يستطيعون
ندفع
##تيهم
اسلامكم
للمجموعات
مايطمن
كلت
شاللي
القل
مايعجبك
منحك
والقادسية
##المتابعين
ومنس
بحاجه
ويلش
اللبنانيون
عرفتني
##وسفور
التكاليف
صديقي
عزاي
حصلتلي
مظلمون
مشغولة
بالذكرى
لامواتنا
مصاد
وعنده
خناقه
التعاونية
##ظروا
سوالفنا
جهلا
نسناس
كاتبه
##رقية
وفقا
رميم
الصغر
ملط
وفوايد
تنرفز
بمخطط
انطوان
وينهي
ليريكم
تمث
war
وزينه
المباراتين
هرجة
توليتهم
حزبك
يتربع
جولته
جبتها
يبدها
للامال
ثيابك
تفهموا
##تي
زلاتكو
افتق
زلتك
pl
المدنى
متخرج
##سامة
سجلو
بيوصل
اديني
##ايبه
الموقع
التمكين
سه
##ادين
اصور
##15
متين
الرحلات
##357
##وسكار
تقيلة
البرج
يسعدهم
ياث
يتجاهلك
الامريكية
يمقن
الزبالة
انجليزيه
##va
ريكي
فكرية
تايه
رتوتها
اعقاب
اغصان
##بيوت
##ﻮﺀ
##📕
السلامة
وڪ
الترفية
##عديش
كليته
هيلة
مهتدون
ومشارك
ﺗﺒﺎ
التدريب
وسم
جلست
سامراء
ﺍﻟﺴﺎ
غامضة
رهط
صالة
امانا
الدرجه
والنصيب
غنو
ونسكت
##asamah
الصافيه
عمور
فضلت
يشاوون
استب
المتورطين
ساترك
##نشي
دماينا
نفسية
كافيه
استبدال
العيناوية
يعنني
استوى
يرضون
والخيال
غابت
الصيا
والعباد
بالامتنان
هتكلم
والقبض
المسلسلات
بالافتقار
بطلي
ممثلة
وحيدون
de
خندق
لديها
تعا
والمهم
مانزل
##لوث
ثلثي
ﻭﻟﻮ
مران
بنسبك
والمشكلة
الجبناء
للہ
تصعر
بوسي
بالقيام
واجساد
ورعاية
بجامعة
ملحم
##وغه
للتعليم
تكف
##رفوا
تسحق
ولاتجعلنا
هنتكلم
##💭❤
العبوات
المصيبه
##كملها
هجرها
##اغون
##شمش
الزايد
يعثر
ونص
تسهم
المدرسة
البغضاء
##ضه
غيوم
##ﺜﻴﺮ
حقتي
ولدها
بالاحساء
عصيت
العداله
⚽
ﻣﺤﻤﺪ
طريقته
رددنا
وتاخير
ذهول
لاقيه
وجلالك
خضعت
ليصدق
مالقينا
عبيا
احصاها
مساوك
led
العاطفية
بغنى
تتعكر
بلاك
00201
اﻷلم
الافواه
بتعاون
خالك
وصحبه
احضنيني
##سہ
منتجع
##نی
يزيدها
اطاع
کان
##فيدي
##ﻠﻤﻮﻥ
##ادك
صداع
يسوون
شديدة
محتويني
هۆ
اشكل
للجزيرة
احوج
وسنت
بكتشف
طبرق
بعشقها
سكت
لهاجر
تلعنه
لاحبتي
ﯽ
الاستشهاد
هبطت
حكمته
##روحات
افكاره
ضحيتها
بالشوك
##حكو
تغطيتنا
٣٨
##ﺭﺽ
بتدي
بزم
مبك
نكبر
فجاء
##155
كشفه
ولتكن
السودانيه
فلنحي
احصاييات
##خفاض
المخالفين
انسوا
##نوں
يذكرهم
يبعد
بجبل
المليشيات
والغاء
والحمدالله
تزعجك
##ناطيس
تجدني
بلدانهم
فاجيني
تمنوا
كفته
والالوان
کشمیر
ماري
المرتفع
هنوف
المبادرات
مافى
ياجعلني
اامنتم
خدا
وجي
داركم
يغمر
فكروني
يومنوا
##جرع
##نبلي
ﺎلحب
يقينه
##ﻠﻊ
صهيب
يسالها
ليسهل
تسريع
##رش
غاش
تحتجز
نجامل
بريطان
ٳلا
خيرك
##ميزين
وهدف
والاصعب
بتاعى
مفاجيه
##اتہ
تفتحه
للامراض
الطبعة
المذلة
تربيتي
##ilab
رياضيه
بتنجح
الشهداء
alone
##يقه
بوفاة
##shar
المذيع
لطرد
##ادسية
يوريني
حبوا
نستمع
القريه
ليطعم
تملگ
حبله
المقالة
والتوصيل
للاشت
تصرفاتنا
واشكر
الفلاسفة
مخاط
وخواتمه
مصرا
ولنفسك
وراكم
ولايعلم
يحولون
##✎
الوحدة
جزى
بدعم
يدمن
شش
يقطر
ولانت
10م
الدواسر
الروحاني
اثمرت
دعواتك
بامانة
نزلاء
كوينتراو
الغيوب
##70
باسبانيا
ستعمل
##توس
##ple
ومساند
خطاهم
سلككم
يفتقد
استقبالهم
برازيلي
وافتراء
##لدهم
اغيثوا
يهديهم
بعص
العاده
المستن
افتحي
والاصرار
كلوي
ﻳﻀ
cut
لرد
افعى
تبخسوا
هتلبس
mean
امالهم
##✴
##هر
##جزينهم
وذكري
تزين
تشبيه
ومولاي
يحلو
استغنى
وريف
ابهى
يتوج
ﺛﻢ
الفاط
ser
ﻗﺒﻞ
يواسي
مكوة
ينجب
كالقهوة
##اتبة
تتسع
همش
بغية
##فزني
باصابة
السماجة
الاوسط
الصيعري
قيوم
📚
تحرقه
حادثه
انى
اعتراض
تزح
مظلوما
علفكره
مايوقف
وكنز
الناجح
تركتهم
التحلية
ﻳﻌﻠﻢ
مرضك
اللقا
يجيلي
بجايزة
يعوض
احزاني
يصدر
##ﻨﺎﻥ
المعاذير
اتكسر
الرزاز
الحمقى
والجلد
##ﺴﺎﻥ
لايه
فعايل
ده
##🎁
المباركية
المعاقين
بتزود
##السيوم
##وضوع
موم
ذهاب
نابلسي
ومثل
متلف
##ﺮﻕ
يراه
وتدخلني
##فيده
عقابها
التكبر
غدير
لابنايها
##الحق
تنز
المعدن
فتى
##لالي
المدري
المتفوقين
بورا
jan25
لايستطيعون
فقال
##ويج
الحوراء
خلنا
بروس
##لناها
اختارو
الزوري
يمتعكم
واتوقع
وحلم
فيرغسون
الغايبين
وازيدك
طريقة
يديك
لشمس
الضغوطات
مشرفنا
فاسقا
ليبلوكم
نعاس
حجتهم
لغد
كجمال
##ونيخ
##ونان
نحي
بتقول
باحترام
##سيقى
والمجتمع
اقابله
مخارج
اعطى
عرسها
الانذار
said
وتتجاهل
الضيا
هالدنيا
بسيطة
وموعظة
المقاطع
هقول
المفار
بتهز
اﻟﺤ
##🤦🏻
evil
فيس
##متي
بتاجيل
انقطعت
السنوية
بتبعت
حنبل
يخونه
راضية
ﻋﺎﺭﻑ
الجامية
اسال
##👻
اقلق
##افضل
وتسبحوه
ر
يحاكيني
1433
مقبوض
واياب
للرياح
🚀🚀
كمواطن
ارها
العثماني
وتخط
66
ينتقد
😂🤦
مستكره
ليحزن
وبخاف
تتح
هويدي
الصيد
اجتزت
لماجد
اكدوا
معصيتي
ابوري
بخدمتك
بسعاده
بني
للمجاهدين
سيرضيك
##ديب
قفص
##═
يوفر
يواجه
شرايح
للك
استمراره
العلياء
الجعفري
بزااف
pok
احترمك
##افظون
القرون
باصلاح
علاقه
ابعاده
ملبن
تقربه
بفلوس
##ولهم
واعيشك
بعضن
عجبني
بالماي
يوليو
بالشان
ياجار
سباي
##fer
minaatt
المحليين
بتقرب
##صلي
##115
##ﺤﻴﻞ
چذي
##ﻠﻮﺏ
سنرى
✅♦
نسكن
عمانيين
البهية
والمنافسة
مليشيات
والظنون
وفكوا
وابغض
الدسم
تستفيد
وتاريخها
حلول
وشكرك
بالتفصيل
عرف
##ولينا
تلميح
ادش
##خذلني
وخا
ذقت
##😒😂
الاشارات
بمولود
لاصدقاء
نزعه
اتصلت
hananeel
قناعتك
لدعم
عدواني
##ميزة
بطيبه
##يمن
كرست
والخيانه
نزين
بيرق
بالتقى
وجهلي
الغزو
شهدوا
عوقبتم
الحقود
##ولاتة
وجدد
##امش
بيكيه
وقوة
شيخا
قووي
##فارقين
ﺇﻟﻰ
النصراوية
اصحابى
جبلة
##ers
ضعه
عزام
قانتين
##لتش
ماتوقف
نزرع
وليس
ارزاقهم
##ووت
بتوصل
بابسط
تمتلكه
ياوزارة
المحسنين
المباشرة
والصد
استغفارا
عذره
فيين
ذاتية
ﺎلح
םבםב
يخون
بالنية
بجنون
عيدها
##ميان
استغفرالله♥
ودعوه
##🍷
تحقيقه
الكيبورد
تقدمنا
مع
الكب
doaa
##ﻔﺎ
تشيل
البيبان
بحكام
بشرت
والاهمال
سقطرى
الاغاثية
يعصيه
internet
نور💡
متص
داشت
بيعمله
وسارعوا
سلامتهم
غدا
مزبلة
للطايرة
سالفتها
مجبورين
للحب
وازداد
##ابا
✨استغفرالله
النداء
سح
الدعوى
لدورة
مساكنهم
اثار
البخيل
حجاز
سالوا
للمعا
وكثيرا
لاتعود
##حتوا
تقمع
شوقي
فذوقوا
9⃣
##لاحظات
##قارنه
##قيلة
ﺼ
توكلي
اطلقه
وطق
بقولوا
خطير
العلاجية
فاستجبها
مسرح
دكتوراة
الثلوج
تقراه
والستر
##ياده
##لٺ
مغني
قاصي
##fc
ولجميع
اثنينهم
بدد
الكريمه
ماثيو
##لرفض
##ﺪﻳﻪ
اشربها
واتجه
ويقولون
لصلاة
تضيء
الاغلب
##gu
ينجيني
بجميع
المقيم
احداهما
بالجنه
##ﻮﺍﺕ
بخلاف
والنع
مااحد
يتت
المفخخة
مكره
الثلجية
اهواء
عساكر
كع
زهوقا
قولولي
وشكل
##يبہ
صعبہ
بركتك
لمصالح
عملها
ههخخ
##ساتر
##خيرا
واغت
اعرابي
حظكم
المناقشات
يثار
يكتظ
ولوكان
خیلی
متي
##🇵🇸
ليجمعنكم
بالشركة
يرتكب
تصغر
الرز
يامن
##ربص
البنوك
بتكمل
بالتغ
الاياب
nar
##ايى
وابين
طلعت
اسرني
وحشتها
الاطعمة
الزمان
الصربي
احفظوها
معمل
هلوسة
الطبخ
بجري
هيعرف
اللوتس
الفرنسيه
وافهم
ذاتي
باى
نيو
وتن
لعندي
الفراشة
گھر
🤪
اخلاقك
اشبعت
بيكفي
بيحبونا
بالهوا
##مجين
##وا
استراحة
خدمته
مادخل
سوالفه
##هولم
##بيعات
##ings
ارتق
وتجميل
##فاه
مواقفه
شربته
ضربني
انفاس
الامتنان
يسروا
ابع
ربان
الحافلة
الافتراضي
صفير
دنا
##لرجال
للكره
حمد
وداعك
يفجرها
تجهز
العقارب
معني
😒💔
دهرا
جنين
كيذا
ﺩﻋ
##🇫
magazine
بعتذر
##يداد
المتنوعة
باجل
##اجره
بيضل
ختمة
مابعرفش
عالمية
1439ه
تعمل
بيجيبوا
وفق
؟
mp
ماقبل
اغانيها
بخالص
هيست
تمرير
بخطوة
##نوون
##رانی
##راييل
وتقبيل
نبشركم
الصدقات
معظمنا
ذحين
لتظهر
يالهو
واخيه
والعبد
بالقضاء
البخاريhadith
والضرب
تيل
##ated
##ااف
باخت
بتقص
فوني
##ﺖ
اصوات
جمل
الاكثار
وتعد
##ريث
##جعان
يدري
quote
مطرقة
##ابهة
ماشاءلله
بعطي
🏾
##اين
الدولية
الستاير
##line
مفروشة
جنه
قدرتي
دخان
والابتعاد
الاكوادور
اللقاءات
اتركو
##ضي
البنزين
الفرنسية
روحة
واقوله
معفنه
والسياسي
##ش
ويمرح
وجبه
البوست
##ليمي
ماوي
سيختار
السعودية
مااش
بلبنان
هرولة
للهند
جاز
وماقدر
البيبسي
ازعاج
الواتساب
بروح
##لوما
لطريق
بلدهم
لقيت
المساعد
تشتهي
##وديه
ميهم
##لمني
موتهم
عالخاص
المعنى
وامثاله
shar
تگتب
عداء
بتمشي
##قتصاد
يسامحكم
هتغير
امنياتي
##❀
واقصى
بتح
مستضعفون
مخلصتش
يدز
نساييه
قصيدته
##ﺯﻕ
٠٥٠٢٧٧١٤٤١
فسوق
للدراسة
وظيفي
##ايته
بفار
بملل
بسيماهم
لكر
##ﻌﻴﻦ
##كثير
حبيبج
اصابتها
##صالحة
العكر
وتامل
بماي
ومماتهم
بقدرك
اختفاء
تحول
الترند
الجرايم
اتجاه
وصفته
دية
واذكروني
واستخدام
عكسها
مزح
فيفا
الاظ
يقت
##بيب
فوا
غلاف
ريهام
بالسلاح
##سالفة
pack
نتابع
##رقنا
مشتااق
يخلي
الايسكريم
افخم
##نامو
فاكرمني
ردهم
وبتك
نسي
التدخين
mohammad
قلل
td
يبري
##فرقون
يحيى
oth
للتاهل
تقات
والمرجله
بالاب
وجاوب
يغنيها
غواص
تدشين
هالمسلسل
رومي
١٦
وتظهر
بالفولورز
بتتحقق
شاملة
نافذه
##ونة
معرك
قتلهم
والكار
##ffic
ذهب
يكرهونك
##قاعدين
زمننا
ونعيد
بفن
والعون
بحجر
بزود
ثلاثا
امنها
اندريه
##160
وجن
فياليت
العوالم
##عادة
🕌
##رحام
هاق
تدريبي
الكامب
اليابسة
لاتك
جهلنا
الدفان
و5
وشوق
الدوري
بومحمد
بيبعد
لاقام
نجار
ويرسل
جملہ
ضحيت
وتخطي
سيحبك
##ضرة
يغيروا
لخبط
حمو
امراه
سترها
تسعده
ﻛﻠﻪ
##تيح
ﺷيء
لمهرجان
مايرضى
##تمويل
واشرب
كويتي
حسرة
الشتيمة
التحفيظ
سميعا
يخلص
وقلب
##ﺰﻥ
وورد
مرضاتك
المقت
بقض
تھی
##vel
وسجل
فسن
السند
ماقالوا
##😋😋
الاحظ
ومعاناة
المعلومة
بطار
هربت
تتبدل
ممتلىء
فحسن
لسا
lool
واضمك
##ضية
##پي
فكنتم
##ﮩ
لسوريا
وكرهت
بواتينغ
لحم
tr
الترغيب
الوسط
تعاني
الشاغل
منظومة
##كاتير
بيتكم
عرق
الداكنة
##اكسي
لفا
انتشر
يفسح
بالتعامل
يدقون
تبلل
##يربي
les
منتشره
الشماتة
الظاهري
السناب
صبحي
بهذي
نرد
وبرحمتك
حبشي
طار
ليخرج
ومالق
بوجهه
##مام
وحلاوة
##حاوي
ويومي
اجتنب
ﺷﻌﺮ
استثنايي
##قمار
ومعين
للصواب
يبالي
##بود
اللهفه
##وباش
مشتاق
السلالم
##iz
مرعبة
واسلوب
زيزو
##🎗
عالميين
الشاطري
الاوايل
هكمل
##ﺐ
رجع
ريجيم
ماريد
##ﺂﻳ
بتقدر
وقتی
متوفية
وبالتوفيق
وتنمية
استغفال
تستثمر
فهيم
رغبتها
رغبة
ماتكتب
ستحدث
انتقاد
وفنون
زرعت
بجبر
الزيارات
القلا
ويحسبون
تاسس
ناعمة
تنظمه
##يتام
نظهر
سانتظر
نواكش
والنوم
فيهه
فتاة
برنامجكم
بالجهاز
للمحا
سيسي
محيرني
قبضوا
ماترجع
ﺑﺒ
لعيال
بغافل
كبيرر
##ذرين
##قر
غذايي
تجسيد
##حبهاش
##♯
منة
year
##حملك
داس
التونسية
عدلت
التمرير
والسياحة
التاسيسية
العزوم
ﺍﻟﻤﺸ
يغفرلها
تتكرر
عمرها
وتمن
بالاش
شرايكم
باكو
##و
عبادتي
##وناش
وحشنا
رتبة
بسعر
190
ca
##گد
##داك
اخرين
alialfaisal
جزاهم
ساوث
ويشرح
فريده
##گة
مساعدا
ويذرون
##1164
##امرون
بمر
صوبك
شريف
طعنت
الناضج
جبراييل
##وبات
ﺍﺻ
##طمة
نس
res
ورونا
مشترك
لنصرة
المنق
ﻭﻟ
بغيرهم
استك
والاستبداد
اعماركم
والعص
ﻣﻐ
وشش
مايش
##شتراك
يتسرب
متعم
صمد
ويستغفر
بحرها
للبيية
بتظهر
المتواجدة
بالل
وجمع
❤😊
تاسفن
😴💜
نخطط
تصبه
مصابة
##ار
١٠٦
##عرفش
##واقنا
لرضاه
يقيس
توخر
واصبحت
استسلم
وتهرب
النواحي
لفرع
اعرفك
اشاء
استرد
واتجوز
مهلة
يحتج
يطب
بروعة
احلو
سخيفه
للطلاب
منابع
##رياء
خطباء
سابت
##✥
وخدمات
ناصر
حملها
🙏🏻🙏🏻
1100
استاذة
##غاليه
##ضرك
نقصا
قولوله
بالاخرين
اجهزة
كالورد
عح
سعى
1965
عزتي
ولہ
العبرية
شدتنا
تشوفني
دونا
شدة
اكتتاب
جدولي
والعلاج
زعلي
جوعا
ترديدها
اميرا
لظلوم
حياتك
كلمح
يلتيم
بقياده
اینه
المنشاوي
حريتهم
انساب
وصلوني
لمت
ديرة
ﺻﻐﻴﺮ
وانفاسك
##تك
انفاق
حقى
العضياني
لجماهير
##ika
احح
الساوند
يبا
ﻫﺎ
لمى
واجتها
طلعه
تفضل
ناطرين
يتشدق
عمرگ
##امل
##gon
##منت
يتعوذ
لايحق
الاحمري
اتالم
رمزية
التخي
##ٺه
وموتى
##مجة
للفرق
والايراني
##احل
الدره
نصرة
ببجي
تزاحمت
يقدمه
المتواجدين
وتقييم
الشام
##ضيوف
##elect
تصنعها
ولاير
عديت
اعتذارك
خدك
##💔😂
العضيم
الظا
تويتري
vip588
##ضلها
اللهﷻ
##tor
والغالي
طرفه
وتبتسم
كلي
الص
منجم
تعيشون
المكيفات
لنعمل
نقتنع
وافسدت
فافعلوا
##ﻻء
هالامور
كالم
حقهم
الجنوبي
يوجعني
مريضه
souhilaben
سوها
المكبوت
يلدريم
اتهاوش
##ونسي
عقلى
للتعرف
بورتسودان
لبسها
استفزا
##علوم
محروما
##صفص
للتغريدات
ودبر
للاضافات
مختلفه
ﻫﻬﻬﻪ
##واء
ايكون
##خطاء
تتطور
ليخرجوا
اويلي
كض
لربنا
اصلها
عصرنا
strong
وتضرب
وبرج
۲
واضرب
الميدترم
متطمن
دبى
عطي
لروا
تعبد
قرميد
يومين
الامة
الخلفاء
tu
الموثرين
##يرا
للاك
##حيي
##😂✌😄
الروهن
##ﻴﻘ
عشا
هنية
اضيع
وكيد
للسحب
يشبهك
نصيف
للعين
##المست
بانها
##👇👇
بالم
تكرهني
ﻋﺠ
تسرون
##موم
ستاخذ
بترد
ند
بالتخلي
##ﺪﻗ
##برة
بيهرب
للقاسية
فاغنم
##➎
سيقال
صورنا
يااما
بالجيش
##المد
التالية
الضعفاء
بالمساجد
واجيك
الحضور
وحياه
##الحين
##لدينار
ومبن
تشر
غنى
شعوريا
##وسني
استرني
##ريص
فالاشياء
التشره
وتابع
ما
سق
بالغيب
ياذن
احسسن
الاجداث
المبطلون
##فوظ
مايليق
البطة
فالواقع
امهاتنا
محبين
يتتبع
معليه
✨💖
تاقلم
تعام
##اميل
يعاملك
ماكبر
قريته
ابتسام
ذلك
##قده
mute
سبحاان
وتوافيق
يساق
##صرني
سفينتك
حمامة
نتمنا
حرسا
بستنى
السكين
for
مابكت
move
الفالح
سجوده
نفتك
##مولا
المنكوبة
طماط
ﻟﻮﺟﺪﺕ
تعالوا
باعلام
حنونا
دهون
بالطول
نيوم
ﺗﺤﺖ
##قوات
👏❤
تسبيحا
##ظر
وشرابه
يمتع
بغيره
الكواري
اشواقي
سعادتك
المسلمات
بالموسم
##باج
##ميلة
استن
الرخيصة
استمري
السيجارة
مهم
الخن
۩استغفر
##عدون
عامنا
ﻛﻞ
كومبارس
قبرك
اثلجت
ربيعه
##usa
الكابة
تصحيني
واذا
الليجا
افعالك
بالمدرب
عيبه
متحاب
الفصيح
ستكون
والشقاق
لهالد
انكسر
قرط
احفر
ايديني
market
صغارها
منظمة
فليبدا
اللازمة
nab
يسالك
ﺣﺴﻦ
##🤩
سمى
🙏🏽
توقفه
التهجير
المرف
للانف
الغرب
نشامى
يتقمص
لسكرات
##ﺑﯾ
واصحابك
الشبل
ينسوك
واطفالها
##فاوه
ويبتليك
وتطويرها
ﻣﻬ
الجنوبيه
انسا
ابغاه
مثالا
العار
جيوبك
راحتك
السوريون
ماعرفتك
##طارد
استعاد
وحسن
سلطة
##جدات
يبعثر
تلبسها
اصابعك
بمحب
اتركوها
##inder
ويولم
نتجاهله
الكولي
يهلكنا
بتشجيع
عشاير
##ﺋ
غرباء
##ima
اعلان
مطعون
الروية
مجلس
##طيط
وذبح
الابديت
حنيفا
[CLS]
والقران
ومبي
تفكك
بمسلسل
ملكنا
اسمہ
بمعهد
copy🇸🇦
يكسبون
تاخيرة
##ﻤﺖ
الكوا
تصغير
وفتاة
تحري
الزناد
نما
مطالبك
مشكلتكم
صبحت
المقصد
ثلاث
البراءة
جسدك
فيلق
لاخوانه
pan
المقيمين
مشغلة
روساء
ولادته
بدايل
##صت
الاحلام
ودما
zak
تفيض
##راءتها
نرتوي
هالحركات
ﺑﺄ
راعيها
##زعلين
درا
فلورز
اعلانه
##ړ
سي
بشفاعتي
والرعاية
ويبطل
وموضوع
لاتسمع
يخططون
##ستغفرك
💉
والبر
يحفظني
اسنان
متكاملة
صباحات
زايدة
الاجرامي
بالاجمل
##اام
قادتها
قواريرا
الانسانه
اغش
ببقي
هفضل
بتحبي
يختفون
الطاهرة
كالمطر
للمتابعة
وقوفك
حمزة
استلم
واهالي
هالفت
الشخص
بالخيال
##وال
يستبيح
ويشوه
السماء
نبدل
تحفظها
##يسة
حسابه
##ﺤﺔ
بتحبيه
تقصدين
والهموم
للسيارة
شماتة
الاحصايية
تدرب
ارتحت
عطف
اجت
ضافك
ترجو
ps4share
الاقصاء
تحذيرات
التذاكر
##ﻮﻧﻲ
university
##ote
خذها
حاصلة
فدمر
النبض
الهبل
اطرب
استثمار
تشاب
للرحيل
تحزنوا
ماتط
للبترول
مادا
😔💔
وامانا
##ﻀﺤﻚ
##ﻐﻴﺮ
وجنون
ضهره
##بعثن
##as
القران
عندگ
للاجتماع
وک
ويكفينا
واسعدك
كتاف
املنا
سراق
##صري
وشي
اسعاف
##يتو
وابدله
##يمر
دشيت
سناب
مكت
وتدعونني
عقاري
يديم
الاقليمي
##hd
للاسفل
بجود
الدخيل
##لہم
الراوي
اليابس
ففاز
##جتنا
الامني
##akh
##كتهم
هجمات
الحشد
##ثلها
ﺩﻭﻥ
##ظية
وقوعه
##sedk4
وہی
سبار
ولادي
الثقفي
٧٩
وتاهل
مامن
الاهداب
لمفعولا
لمنع
السويسري
يازين
الملو
وعزة
وراحه
بناية
ايقظه
ذهابا
البطون
##رهہ
منقولة
👐
learn
يتزين
وبري
القار
مجسم
وطبع
الحليب
الصفحه
##اجى
لعينه
نمرة
بية
##ask
##asy
##ﻐﻔ
قحط
سكا
نغمات
##جيد
اشوفها
ﺧﻴﺮ
النادرة
اذهاننا
وتستاهل
##طاحت
##بحون
🧐
النقية
فراخ
الخيار
امنتم
بمفر
mbc2
مركز
مزه
الظلمه
ذهابه
وشهادات
##لايل
لحماية
بيومه
القيمه
تذك
ومايح
meet
لعملاء
لاس
نورنا
الجناد
يبالغ
##istan
عصفت
##ﻌﺐ
الاناني
اطل
##ضفني
اسبانية
يسالكم
محمدبن
اقب
نشاط
##بعت
مبني
کام
بحوث
ﻷﺑﺘﺴﻢ
ملحا
اسے
المعرض
ويصير
وحاط
تاع
##حطات
صوف
لعود
اتقل
متواضعا
##ادتي
امنح
الدوليين
اتوا
تساعدنا
البلت
##aker
اولاد
لانشاء
الحداد
والحفاظ
قووية
##░l░l░o░
كواليس
ممتدة
٣٩
عفان
##ينتي
ركاء
اساتذ
العامرات
وتعلم
مستمع
##تبها
بيهو
غط
human
##وسك
##ara
الجه
صفقة
فدي
##اميه
خرافي
ليلية
❁♩
دارها
بالتي
وحيث
متكبرا
الاكواد
فعقروها
عمرنا
بالواجب
##حرون
للارتقاء
تتزوجي
مفقودين
ظروفه
حوايجه
غرك
##قاش
لسة
صحينا
المتحركة
##حملش
للرقم
الناديين
الحمق
##شة
لنتمكن
يستثمر
الفنا
سالتها
##لوبك
ركعتا
البندق
جينات
##وهہ
االعظيم
منتحل
الوف
بعجز
بحضورك
خيمة
الاخ
ينصرني
الميات
ويكت
امانك
ضاحكة
بلغتنا
الادعيه
لايدري
مبسمي
مراسلة
للمدنيين
فاليقين
توضي
🎶🎵
##عمو
ملامسة
##ile
ينصب
صوتت
تعقبها
بالاحترام
والمن
وودع
طوط
باختياره
##ساا
souha
بتجرى
انطوى
##غيه
قضايك
ٱنت
عوادة
فات
##بتي
لامنك
ﺑ
المقه
وتمطر
ﺃﻋ
للحسنة
تتوجه
##قلون
تذل
وفد
يكررها
ويبغون
سيشعر
بعاط
البرادعي
وسلط
حاجہ
تحتبس
مانحرم
كذبوا
ملقتش
##طاع
امركم
الكربون
قفوا
الخفا
ﻣﺮ
للعطاء
فالن
##ياسمين
الخصر
باعها
الامريكان
بعافيتها
كصيام
فولومي✔
ودعك
احراق
عرة
تحيد
سٺ
الكهربايي
##ﺀ
الخارجية
االت
برجك
العري
ابنتي
لايتجاوز
وبسبب
لمون
المشتكى
مهنيا
الجون
كيلر
اليكم
##🇦🇪
الزرقاء
الانوثة
تبكى
عبادنا
##ستو
تناج
##هاشتاق
الحمدين
##ريحا
ومنين
اوى
بيبكي
##ارينا
لاهتمام
زاهدا
ﻳﺠ
وحسنت
التراويح
واطلب
معط
بيريرا
المقهوي
متهيالي
لايدرك
للار
زنج
##gb
الموكد
وانشرها
صبغ
حاقده
موضة
لموسسة
القلايل
ينكح
وكذ
##ﺮﻓ
المقبول
##اييس
بمكانه
الماضيه
##ورتان
##يسها
الشبر
يلعبو
ضميت
مفضوح
انفك
يجماعة
المحنة
يبوي
باختاكور
سلامتكم
المار
باختبار
المتضررة
##oub
##افي
خاطف
يرافق
بقراءة
سمعنا
عظيما
ينشر
وشم
المطلة
فسمع
overt
##ل١٦
تنير
ومنشن
loved
يزيح
خلقگ
الحذيفي
قاطبة
شاكرين
مستعمل
بقاء
بيتي
ومابعد
🙊🙊
الملحد
ﻟكن
##هايي
لانني
##برى
##عازي
محتملة
باهداف
ويخبرك
فمس
يسعده
بالقلوب
كشر
وتمكن
مرتبطة
تحكيمي
بيتقمص
##ضره
ٱلا
وحفظك
طاع
حيد
تعقلون
وتحميل
masrzaman
بالطبع
وجوار
بركعتين
وفوقي
ﺑﻨ
اخوات
ازود
هتخ
زرعوا
##😌✋
لحظي
محتاج
تقصيري
ظنناه
عوازل
نفايات
انكسار
وجميلة
ﺷﻌ
ibrahim
مادريت
لعقود
ثياب
ستغير
راسخ
خزا
##pl
الحيا
##🕺
##جعلنا
##دا
tot
حيااه
ماحط
الحميدة
اوفوا
الانا
للمكذبين
الكوع
وحماس
##يانة
غروب
القبة
متفاهمين
لاتزال
للنقد
ودع
نفا
##✔
##ﻮﻓ
اپ
دقو
##iter
ذكرتني
mn
##ايعة
sms
ويمكنك
فقدك
باخطايك
العلاقة
اوقات
محسسني
##ديدا
ﺋ
ﺑﻠﻐ
😂👋
اساليبك
يحتاج
اوفياء
يابي
رددها
##السعودية
بالمباراة
الرجعة
رعاك
بصيرة
##للن
دكتوره
رومانسي
اقاله
##خرجوا
يفهموا
اصيلة
غادرهم
خواتيم
العطاوي
##شون
ورايك
تخلص
خونة
والسرقة
##اخر
الاعظم
##شال
ﺎلطيب
اضاءة
واشكره
ميد
البغل
فليفعل
ليلتين
حسافه
الكتايب
المسكين
والغني
للامل
مسامع
تقتل
فيلسوف
˘⌣˘
كلثوم
تقتلوا
##امة
وعظيمة
هامان
جرالي
اقدس
يشترط
##≈
نجى
قايدنا
كوج
الرقه
جوكم
زبان
##فوت
القريبة
ويستحيل
چل
بلط
حسنى
goals
ولقيتك
قران
تسخين
سمعه
##ﮬم
افش
تقطف
الاهالي
توح
التشفير
##ميرو
##الشمس
بوصفه
ﻋﻨﻲ
الانفتاح
ليسعده
يولمها
واسود
😌💙
السفيرة
التلات
مصراتة
خلقها
خليله
وكانني
ﺍﻟﺒﻨﺖ
لاكتر
##لعنون
##وضوح
##😱
ابيهم
ثبتهم
ماهب
اوشكت
متشدد
بطا
نادم
##wakaram
متفهم
اسبوعيا
##ريموت
نتظاهر
##رووف
مطلق
لذوق
الاعمق
##بيش
نمور
ؤ
هز
يستخف
##■
ينطاق
واتركي
اسمحوا
##صدقة
المند
##صلاح
مم
بفخر
ترقياتنا
انهر
ستجذب
المثمرة
بشجاعة
##تكش
ی
نفسيتي
ليفان
الفاجر
##عجب
ارجاء
المنطلق
فوسوس
ووطنهم
نايب
وصحة
ب3
نومها
والصح
حامل
اتوسل
##نيس
دوري
السبسي
##قوق
##36
الاسمنت
روجر
والتفاهم
توالي
يصبره
##قتان
🏠
تجلس
min
اخى
عمايل
##ثالك
تنسيك
رمز
##┊┊
##انسون
لحرب
طريقه
دينيا
عصرية
##ﻱ
يابحر
😌😌
الملي
ورجعنا
تفعلون
والهدى
الجهرا
لاقصى
ماعمره
محاولتك
ترد
29
كويسة
رسميا
نفطر
بشباب
وامرت
قوم
##ﺧﯾ
تضايقني
ببري
نظما
##ايهم
تزع
ليعبدون
ٱﻟ
وحذ
ياتيني
قما
کرے
تلقاييا
##يمو
##ظرين
تعبر
خطت
بقايي
##🔶استغفرالله
برز
##عيدي
وسعيرا
##غدغ
##فقط
ﻓﻀ
##فيك
une
ويسمعك
##جرات
⿻
الاختبارات
الفتاح
##لورز
شيعي
mak
مغلولة
بكندا
ومريض
المماطلة
هقدر
موقوف
##شبع
خلاه
ناقصها
الثقل
##عشاب
السوشال
ڈاک
بشارع
عاشو
بالحساب
##حالات
تجهيز
وتراجع
اللفظ
ﻋﯾ
كظ
مرتادي
##لوكم
متولي
##توصف
محاضر
يذهل
بته
ليذهب
مصنوعة
واحذف
نازله
عبدالرحمن
##اركت
واعتذر
نيوك
متمر
وتواصل
بتضل
شكواك
ولز
##داسية
فلق
موحش
فاخره
حذف
زادهم
تسالي
hou
اشتقت
شوقا
لملم
ram
نستودع
بطب
##انيو
الانوثه
متكرر
الاقيه
ماتج
واقوم
توذيني
##ﻈﻪ
يغت
فتلك
##سامہ
اجزاء
اموات
سعدون
##توك
قتلتهم
بالترتيب
ارواحنا
المصالح
بعوده
ماجربت
##وذة
##ﺳﺔ
الموجود
##دمير
##◆
باحث
نستمتع
المويه
##طبقها
##ۆح
ساكتفي
لبيتك
تكسير
خدنا
##💓
شكش
بالبايو
طرقي
والسرعة
last
يتدبرون
بارود
🇺🇸
ۆلگ
والمنطقة
بالعذاب
وحفظكم
وهاب
حشمت
ينزغ
تسوء
انطق
الماذن
لاتعوض
نيوتن
##🙂
fuck
تحكيمية
نماذج
والديني
كنزة
شرفي
##جزي
اخطاءه
اوصل
لحضورك
لتعليم
وتنال
بالشكل
سترحل
منوور
مفصول
الضر
يسرى
الديو
خاتم
##وانة
دفي
لهمومنا
يريحك
##فعك
البرامج
عبدالمنعم
العبد
واز
كتيب
##اما
التنه
وخاف
ونجنا
##وصي
##ابكم
##انا
##لهمش
خذلتني
ومساجد
مصحفك
احترس
##بركات
##ودهم
##ﺟﻌ
يتبعهم
##ندك
وغاب
يصله
ثناياها
##ظہ
##وميت
##بركة
##ورني
لشيء
بسكم
اسعاد
يبصرون
تشيك
التوام
والحقيقة
للتو
العسكري
عموري
بتج
مصدقة
شعورنا
تجزع
##sam
بساتين
سمب
للجماعة
شابان
وعز
وبيتي
وتجار
بروكسل
للتج
اخدها
##ough
##ﻳﺖ
الشقيري
وقا
نا
اذهب
استثنا
##ﻔﻮ
الرماد
والتعب
الازد
##99
الزجاجة
تتركها
مايدور
ضميني
الحلى
ونيتك
ماحنا
للهم
انسلخ
الحصاد
البخور
ممار
كسرنا
بر
transl
صلينا
وسلم
جربت
الهاء
حطينا
بابين
ﻟﻤﻦ
باسهم
##oury
الصرخي
لحماس
ولعلكم
تره
اطلعها
تستدعي
الريس
فجمال
ﻋﺪﺩ
قنوات
##تبع
قسمت
فلتكن
نواحي
ﺗﻜ
بيموت
##وكلين
ابوال
خربتها
المغربيات
تفريجا
مولر
البارده
ونحيا
اقباط
ندمك
تحسب
فاما
ذمة
تاخذه
نصراويه
ماشية
ﺍﻳﻪ
لمشروع
والحبايب
الممت
منشورات
🙌🙌
تردنا
ياغالي
والتوفيق
55
لكلية
﴾
👍🏼
وحبيب
الهارب
لبرشلونة
بمحمد
قشطه
فياريت
ومقتنع
##وعك
البلوغ
لينت
البنج
ينفض
##مادي
الفانز
ويحارب
تسجيل
نساعد
فتهب
ﺩﻭ
##وبل
التلم
الرسايل
والاعتزاز
لهالدرجه
##باض
يامجيب
تصاحب
لوان
##تابة
الايجا
الخاي
##نافسون
cold
##يفات
igl
##كوا
قرارك
و10
اربط
ومرتزق
صلص
لنكفرن
لجهة
کلام
اتها
bc
##اكل
تخبرني
الابط
بيفرح
الهبايب
سلامات
سباحة
ملايين
يشرك
متعافي
##sung
“
يحسوا
تنحب
الخصوم
##قيعان
ﻸ
سلسبيل
للصدارة
##kt
دافعين
بعلم
يقدره
لرق
##ولورز
ذكرهہ
للعمل
##ﺮﻳﺔ
اميزك
ۈان
تقيد
##ديه
##دج
بالجسم
تبخ
انفاسنا
eng
المتعثرات
احن
بروب
مستاجر
##✨✨
زيين
ﺄن
وطال
قلبان
ι
اللعبة
لصورة
اهملتني
الصناعات
ستحرم
الدرهم
مشكلتهم
##قد
تاخد
قلبنا
لمحمود
تجيبوا
ينسيني
فسالوه
##دعاء
كسرا
صايع
مضغ
##ناديق
##ﻄﺮ
طريقك
##وايا
##طرك
🌼
البقره
ﻣﻘ
والانتصار
مقتدر
اميل
شريت
الحقل
ترويض
التهديدات
تيس
لھہ
##نحن
معود
تغريدة
معك
استشعر
##ﺨﺎ
للصيف
تحسف
يستحقونها
ۈلا
عميق
لتعود
ومشاهد
ليقوم
يسيره
التعسف
😭😭😂😂
الطاعة
هتف
سير
##لكك
الاسلام
مميت
ماشوف
يرفعوا
الثان
للمزيد
##ريدي
لقبول
تكفا
##كند
كجم
ht
لكك
لاتعلق
وصياح
تغامر
هنا👇
الانفراد
##وند
جاكي
تصرفك
الخوارج
##اعية
فيران
مباراه
فارحم
##ژه
اطعمت
بطال
##ﺠﻞ
شعو
نتصور
القنصليه
بشرنا
##بارات
كروب
##ﻘﺎﺀ
بستانا
الحقب
وتدفع
جنونية
♂🏃🏻
قلتلي
عاليهم
تعطيكم
فضفضت
واسمعوا
سى
التنظيمية
اسقني
اقتص
الحبسي
عبدالمجيد
باعك
قليلك
التويت
الابتسامہ
ابتزاز
العلوم
استطاعتك
المكلا
##مدت
##نفخ
##ويحبي
lord
الزور
موقعك
المسح
الهكم
افراز
##زايد
مايعرفون
للمهتمين
يطعن
ٱلق
##صلة
للمدرج
##داقات
وعاملنا
ارايتم
حكاي
وطلاب
بالمض
##madrid
oman
فكت
##وجيه
بطبيعة
والبوس
بالالفاظ
##ﻴﺪﺓ
بضايق
ارخص
فاذكروا
للحلم
الدريشه
موجات
متمسكا
نفوسنا
وهيه
جنايات
الفلاحين
انقلب
##ايي
##لاحلام
مسلمات
يشاهد
لمز
الثانيه
الشغل
وكلوا
بتعرض
السكة
##لامارات
##اتكم
تجر
حسينية
الرجلين
كتفي
ﻟك
sos
التاس
تجتنبوا
اعاننا
جیسے
ازلام
حقيقى
للمنشد
##وايد
لهال
واطمينان
تبغون
##ساان
العاشق
ضميرنا
اسكان
القاعده
المستور
يته
ُ
التقليدية
وتفايل
##شتياق
المتعبه
وطب
دعوية
صحوة
تجهي
staracarabia
تطعهما
✨⭕➍
منقلبا
الموقتة
مدربهم
طفلا
ولاحظ
المهاجرين
السحابه
براين
العنابي
تتس
عراقيه
مابيلتزم
اقفال
وقواتنا
الهبة
الغيت
تشوفك
اجتمعت
##وضه
فالنهايه
اصبحتم
ومكتوب
جاهزية
ويجعلنا
عندنا
امالك
الانتخابات
لصاحبها
بالرجال
لرايت
ومتب
الشاشة
المنهوبة
والصدف
وتا
القبر
##لطف
تغيروا
محاصره
mb
تركي
دارن
نتعايش
يلخص
يترنح
يقلل
ontveg
فخورين
الحرارة
يغطيني
التهرب
اصﻻ
الرابطة
ونحبه
امرى
##لنى
عطول
معاگ
بقاءه
##جيات
ماتخليني
نيوكاسل
يسبحون
جهدا
بيسلم
لاصحابي
##هيان
معتقلين
عوضني
للجامعة
حالفا
للجميل
الجس
الفتاوى
لاتحرم
استودعكم
هالف
لجميع
تعتبرها
فم
##ﻠﻢ
تخن
الجزاء
حساس
والتجاهل
##لاام
المشركون
2015م
قرعه
والتض
يامرت
تنهد
ابادر
ريبيري
مخيفة
تسميه
المصورة
يحتار
السعداء
تضعك
يشملني
بالكراهية
┋
ويتسع
توسدت
للفايده
منن
الكيب
صبحني
فصيح
انہ
اصالح
ايفونك
##100
مقاعد
عبري
اكبرالله
جيرانه
😫💔
ببشاير
تدبيرهم
نخفي
##بيبه
بحاجات
دوز
دفاعنا
الاليم
##ﺎﺭﻙ
سفين
الكاف
دوول
##ذاره
ومتابعيني
عطشان
تواكب
##ولي
والطرق
##كاة
استفدنا
الجهل
اميرنا
يدمي
مختارة
القيود
بررد
النوى
تكشخ
تنسينا
بيرتاح
تجيب
##حبا
ورم
وهامة
وجهها
##ميمة
😭😂😂
تلتف
مداها
##كنها
يشغل
بنصرة
يتقدمون
##رايط
ﺑﻬﻢ
ﺦ
مكسل
الاقناع
سالب
اﻧ
تخطو
حزمة
حصولهم
##غلش
الشكل
مقبلات
بنجيب
يابس
🕺🏻
##قوب
##جعت
##اخير
انفذ
##يند
درمان
city
فالهم
ومنطقة
هربان
الداهوم
##con
وسعى
##اجون
اتولد
العلق
مسوولا
وباني
فظيعة
مليحة
㊗
يفزع
بقطر
القني
معرفكش
انهه
بعلبك
للمشاريع
وعينه
##ﺬﺏ
ولتعلن
##quran
##🙋🏻
شلح
الروم
ويوفق
مخترق
حثلين
يستحسرون
##جية
الدفا
شفيج
سحرا
الاساسي
الحنان
حلووه
يصحي
لاتثق
##ودكم
قسوه
ماتحبه
موذية
تضخيم
##ايفة
ﺃﻧﺖ
محكوم
يظلمون
هتبعد
خانته
##ﻨﻰ
هشتاق
رجلان
##نش
تمنعك
##ضعه
##یده
الخلطة
للريتويت
مبارايات
بسيوني
تيتي
لولد
ﺵ
اﻟم
كانيدا
واريد
فريج
##♩❋
الق
يتخلون
بيصعب
الكاتب
يرفضك
رجولك
قانوني
١٣٧
يبعثك
متطورة
امثالها
ولكنهم
an
##ﻴﻮﻥ
الزهراء
post
##ذل
kn
يسان
سخنة
موقعكم
يلقاها
التلاوات
والفشل
##عوس
والمثوبة
بضحكتك
##اعت
بالحكام
شنقا
الارهاق
بشرق
السكن
ڳل
للاستعلام
سيارة
ﺣﺘﻰ
ذبح
دله
اركز
##💋💋
النجاه
جباره
بيتيس
مزد
##ﺑ
ففي
اصابعي
ابره
هوات
etis
دخلتي
اهانة
ضد
وسعه
مرجعية
التسريبات
بالمطر
##اكهة
ااخر
والسيء
فاذكرك
##599
اتنين
فصله
ناموس
##كارا
علاقاته
ونعوذ
والتقدم
تتحلى
الفرق
المستعمل
هبل
مرتي
تدو
شات
المتعلم
للسيتي
يسبق
bus
كافرة
مكانته
الحماقة
بالامن
بمالي
تستدرج
حاضرنا
##اليب
واشفق
عقلانيون
ساقها
##جی
ﻭ
بتشكيل
##یم
##afa
افواه
ياساده
##مهہ
لاتستطيع
لابوه
##رتش
تصب
وجدان
تهون
الاماراتيه
المدفون
يونس
وبه
ﺧﺬ
ناداه
البروست
##😍🙈
المن
ومثير
متواضعة
##لتك
بالقصايد
متبقي
اسيادك
هامة
حاملين
التبذير
تختطف
واغفرلنا
🚶🏻
الادخار
ρɪ
هتاف
سترزقون
قنبلة
بحنان
طبخت
tunisia
الوقت
##بااه
##ﺧﻟ
شفيته
تكتب
##ذاكرة
كسرك
العقال
يصلحون
##ﺎﻭ
الفلسفه
jeddah
##wc
شايفني
فضلها
اظهره
المنسي
##🌷
لايع
چاي
##سيوم
تميزا
خبيثه
الهتاف
حتح
ماقولت
ولندن
مصنع
ناخد
مطولة
يزعجني
بحته
مستوطن
شايفهم
##است
##ذفه
مايقول
سفرة
افتكرها
##ضل
نسجل
القروني
تاجلت
دعايه
نفرا
ويطالبون
الراكدة
تحرص
##زقتني
والضعيف
الاكسجين
##لومه
##غسل
##🙈😂
يستهزا
شهيدنا
يازينب
##لطم
يتركوا
##وسين
وبرد
ever
تمنيته
جديا
##٤٠
وحاول
انقطاع
##ثمان
وسن
تستفزني
برايم
ريقه
ويخليك
ثمنا
عدلوا
هيضيع
june
بامكانهم
rolex
قبل
ستمضي
وتنظيم
نارا
التجول
ولاحد
تنساه
✯
چنت
انتاجها
النفطي
والنهاية
شيلو
بالعلاج
سالتك
##فظ
ونهى
تواصل
fl
july
##عاني
ب٢٠
ٱحد
اسماعيل
وامتدادها
لصار
رفضهم
اياه
شعبان
دجاجه
استنت
هنكسب
للامانة
الخاس
لتستمر
##░o
حدثهم
مفقوده
الليت
قصرا
لغايب
غيرة
لقادرون
بالنظر
efhmbrjk
فرش
بتعام
امشي
تتركوا
يتحكم
مقاتل
الاصلاحات
حمده
جمد
وماك
##ب
وهاد
ويساعدنا
نيفيز
لعظيم
##رابة
دانة
كالص
##حاف
##114
سياسى
الرصيد
التاهيل
لقيام
##رة
ﾟ
موتور
##اهلين
##ﺳﺗ
وبق
بالاسواق
بغد
ﻊ
فاتت
اتاتورك
التراس
مسخر
##وورد
ﺳﺌ
##فور
وجود
احتضنت
غالين
سواا
تحتاجهم
لاز
dw
وللغ
وحدة
راايع
جبان
تجبرنا
عجاف
##دعوا
باطنه
المايك
جمالها
##تويتر
##خاف
امب
للادب
نايك
##ستية
يحفظكم
المنكسرة
وقلبها
النفاق
قوليلهم
$
تبوي
يدمرون
وذنب
البحريه
بشاعر
عبداللطيف
الثانويه
وصرنا
للاصدقاء
دقيقتان
تتصالح
نيف
مقبلا
عايلتك
حتما
0599594479
##ستمر
اسعد
بالخيركما
ربهم
##فير
وروساء
خدمتها
ستت
لصق
وتبيني
⭕لمتابعة
حيز
##🍺
##ديق
نظره
زملك
روحانية
لاجلہ
وتصرف
يلقاك
بطاق
##اكت
التجارب
##زا
الخايفين
بالواحد
##وقة
متطرفة
جدوى
يحسون
##وسطه
فون
الهيكل
فحتى
اريحا
dx
عسسى
صامتا
##💩
الشامية
بيختلف
بعبارة
الصباحية
ادوات
حسان
والدتهم
لشركات
وتث
تحصنوا
وولده
##ﻨﺔ
مخدتش
الشيخة
##فيني
التحضيري
١٢٨
ﻳﻘﻮﻟ
➖
##طبقت
##▉
المحرمة
بجبار
##وتون
مظلوم
##inking
بيسكت
وينفع
منيف
فديتهم
هدول
لقيمة
سيتي
ودبي
ضايقك
لنترك
ابوكم
مايستاهل
يوذي
الحراسة
قرنا
والكاظمين
😂😂👊👊
ناين
صجج
الزنج
بمكيالين
مردش
مروحتش
متتاليتين
اتعرفون
يتابعون
مسرات
وزوجي
الامن
follow
##ادلك
لبني
اعياد
##قدون
ﺍﻧﻲ
الجوزية
قوليله
الكذوب
التميز
تسعدني
والاكتفاء
وتاه
الاسد
فاهم
استهبل
مفيش
متظاهرين
انحرفت
صحافة
اجحد
ولاعزاء
ركيزة
الرويه
بتحكي
حققت
تريدون
الظفيري
مغربيه
##بتسامہ
ﺍلله
النتيجه
ضنك
##نفذين
كارفور
خلو
فاير
الۆ
الرضاء
الوسطية
واتفق
يحبني
يساعدني
اقطف
الايم
التشاوم
وادام
دلل
##ضامن
بصعوبة
##اک
يجه
وسيل
ليهم
##سكو
المثلى
يجبرك
التماس
التسجيلات
سيقدم
مغربها
بهديه
نابولي
وكلمه
التذكرة
النبيل
مغتني
الطابور
من100
الوشوش
حافظو
ويصل
الشبابيك
##كوك
بهاء
ولاتدع
الخلفية
##كبرين
دونالد
اختنق
##يوا
تاه
وماا
الاندرويد
تبذل
نشتهي
ويصرف
مسلحي
فرض
اعمي
عاتق
ملابسك
الجريحة
ويموت
الموسى
##والع
اسررت
هحط
##ارجي
اجبرني
الاحتجاج
النسايية
الهولندي
الاستديو
بعدن
ونجعلهم
امتلت
##ومنت
غشاوة
برزخ
مقتدون
عزوز
يلزمنا
البند
💪🏼
والعالمية
اللامحدود
خاطره
اكاديميا
بوكيل
سمعى
ﺍﻻﻧ
ساكت
الاء
اقامها
اء
مسجل
عثمان
ومايس
تخيلتك
تنفذون
والصراحه
يحسبون
والعا
وامتنا
الشار
شعورهم
يخاطب
تمحوها
العود
عاجزا
رمية
دعواتي
بتوبة
##رتب
##زاج
واحينا
الخلاء
بشخص
داخلين
##ينغ
##فاعلين
انساه
ابدية
##raph
حنان
تواجدهم
##ثوا
##وحشة
حين
##one
غلطات
جامدين
سجلي
نطلب
الفطور
ex
القاسيه
ومالها
صقورنا
##ian
عمقها
شوفة
لاصار
غلبك
التفاهات
يبداء
افتى
همنا
والثانيه
تحجب
يديرو
للدوري
وفر
٠٥
هالق
الاعتياد
جيشه
📢
يغتال
شويا
جواه
تعاملك
هلق
تريند
##ارسات
الالهية
الدينا
تافهه
مرخصة
التكبير
والقادم
##بكيه
ببرود
تكبرين
زراعي
##ګ
##تكى
يدل
ادلة
ﻓي
عفو
نكير
اهلي
ايهاالذين
اسنين
مابعدها
تبرية
##ﻳﺔ
توفيت
بالهموم
زبا
مبعوثون
حالي
بتاعتهم
البحرينيين
وبماذا
دافية
تقييد
بفقر
خت
الناتج
هلقد
تبتغي
تفعله
النوافل
cont
اسى
##yr
والو
##سرني
ريجي
خلا
ماراح
بشوت
التطهير
الخلي
##رابها
##ﺘﺐ
يدافعون
اتفقت
امح
يلامس
اخبرتك
مصطلحات
تديم
الموثر
وبرشلونه
بیمار
##لہ
ميتة
مسخره
كلكوا
قادرين
بديش
وتنساني
يسيرون
بانيها
مغلوطة
تدقق
##فلورز
جزاها
الهالكين
اشعال
موتة
اشا
تجامل
مكتشف
تثقي
##ﻣﻋ
تسويقية
اتمنى
ومقاطع
سبحانک
جو
البر
ولماذا
واض
والمهموم
##سمع
توفكون
تلاقيني
تقولك
دبلوماسية
محبة
##وامش
اطرد
##ريل
رادوي
ربااه
##ay
تفو
##ديز
برجع
بصري
بحقهم
بمشاعرك
كفاني
اذكرك
##ايية
قدموا
ابنه
الموظفات
##وقراط
تضعونه
للفتاة
ميه
ابكتب
ضاحي
اتحد
هيكمل
ناخذها
وتوس
فقدتك
يعطونك
تعيشوا
لامني
يحرمك
الكرك
بالاشخاص
اكتماله
مفهمتش
فرحان
عمامة
طعامه
الحلف
احسنوا
اوض
##خصصي
حبات
خالدا
رفيقك
واخص
اكتوبر
يعتبرها
لامك
الكيزان
##قتهم
تخف
منيي
ﻓﻘﻂ
عيالها
##عتذار
وغرف
بوعود
بالسيف
الخطط
1988
ميست
العامري
فالبيت
والمرضى
##زوق
لحكيم
احتفالية
##➎فولوباك
تسافر
سيقام
فخمة
##حقك
الايقاع
مخاوفي
480
تربيتنا
بشكل
وربما
تكترث
نطق
مفقودة
##oum
حقتنا
ياابا
##قلبه
المسوولين
بالعيد
##ﺒﺮ
ملهاش
وصم
##urs
انتظري
يتلقون
المش
خرجت
تستنى
لتصميم
جهوده
ماجي
مثمرة
سالفتك
##خاذ
##🎇
##ظاهرين
##فرا
النيه
زخ
سنبل
تفشلا
خلفان
##⛈
برايكم
بالحيل
الزنتان
عارفهم
محبوبتي
يتفقون
##بيت
النفوس
بغيظكم
وليه
##ﻥ
##فذ
##ical
القضا
يخطيء
المقاتلين
زفافي
##ديكم
اعتماد
بخارج
ثباتك
دنياهم
فطبيعي
الخاصه
##نىء
بذات
##رجع
ياخويا
والرح
##ver
راقيه
ذايقه
##حزن
ماقدرت
بمفاتن
بعشقك
ومحاولات
والاشتياق
ويزرع
ضيق
الهدف
فرانس
ﻭﻋ
شرفت
ميكونش
المدامع
والتمثيل
وقعد
شسالفة
##حة
نسلخ
جامعية
المستحقة
تعاملت
وبيد
مسيولين
تناسب
شيطانا
الموشرات
وراشد
متكيين
عقبه
وكالعادة
##امى
ظلالي
ويروح
الحقيقيين
ثقافته
مص
##نتهم
الاحوازيين
السنغال
بالرت
حقوقهم
فتره
الحمقاء
جروحنا
نملك
لساانك
##ردش
يرجون
لمجزرة
فهو
ياتين
المرشحين
والشدة
مشتاقه
العثم
تربطنا
اسعار
عطرك
واطال
تحصوها
عنان
ماظ
تصورت
شىء
ﺎلدنيا
مواخذة
وفجاه
مواصفات
اعانة
##طاعم
خور
بكر
ناطق
يبهر
☹♥♥
##فاضي
الحاضرين
ايجابي
تجيبون
انصف
ومافيه
ﻓﺮﺡ
مغرم
وابنايها
سكع
convers
اشتك
محظوظة
السيرك
اونلاين
سطام
والاقتراب
الاخت
الجهني
السياسى
مخلص
معاناته
النيجر
ضروره
ارهابيين
والرابع
لكنكم
##بيض
اخبرتني
خطف
الحبشي
المستوطنين
ينجبر
##اد
ونهار
المعبر
المنصة
فعلية
هيجان
بصورة
يللي
ظاهرا
والعادات
انجح
##بقون
واولو
الناصر
ara
شايفه
باهتمامك
خواطر
اطلع
ابرياء
عا
لوكاكو
عاملت
بسببكم
كنب
##ندسة
ﻭﺍﺭ
##ﺤﻖ
بمق
تطالبون
ساءت
يتوجع
يكرر
تنسحب
غيرتني
حاطينه
ە
وتريح
##فيہ
##تما
##air
##ثمارات
منشطات
##انويه
بانتظام
للمرضى
يذق
مبدعة
يوج
بمزح
العطش
نقترب
وانتهاك
روحانيه
العصاير
##برعات
سوو
ليزيد
##نمارك
قلوبناا
ol
للفرح
المغضوب
اغمى
استجابتك
##اريها
##دونالدز
بوحك
الححب
ياف
cy
لتنبيه
مجز
ويرحمها
العقوبات
للسلطة
بايخه
هنع
بمخيم
يصحيني
لااحد
نفسک
الهاشتاغ
اليسون
السديس
وصوف
سيرين
مبتلى
انصره
مجري
برة
وصولي
تخافي
وسطية
المحطة
برتقال
يردون
ونجاح
٤٤
يدفن
وحرقة
وحلي
نوكد
الموسسة
س
للمعلومية
لاضافة
بزراعة
فاتبعها
milit
مسك
##ﻏ
الانفاق
خزانة
ابقوا
الحافة
بنلعب
التناسب
سبك
رسايله
التويتة
قالتلك
والجميع
وابعث
كلميني
نايتس
العمانيون
يحزنه
خير🌹
فليتنافس
##🏁
اطلاله
##ﺎن
full
┓
بصدره
الباه
جود
اشتباك
##نشاق
##🇰
بيك
بالطريقه
فعليكم
الحب
خيم
دعوتك
الاستراتيجي
خاوية
اساءوا
المتسع
جرب
الاثنان
اوفسايد
الدجال
لغيرهم
٣٣
##خمة
حليف
##درج
صحة
كهاتين
وهتلاقي
اب
نصيب
👫
والخب
##جمع
##ros
##ین
امدرمان
توزي
لی
خطورة
لايخيب
عملايها
للدين
اجزايي
##اسی
🌼🍃
البطانية
مرييا
##فارقه
يناجي
وعارفه
بطبع
الشق
التيمية
وقرر
يخليج
تحشر
##فيفة
ليسجل
سنينا
امنت
لافي
##ايی
ناصيتي
بعادي
ايووه
واتممت
ترجمته
بوجع
يقينا
بيوز
استقباله
امامك
باول
غترة
والحلو
صبحنا
الياق
كراتين
الالهام
باخلاء
اذلال
##ata
فقيل
قرية
موقوتا
تياغو
مقابلات
النصايح
مدب
وامنحني
المقبلة
مايه
##عافيہ
تتغير
لامور
الطناخه
خواف
ادت
ﻟﺤ
فلسطينيا
الغذ
النسمة
لغوية
تشكو
بارك
بسييات
پور
ضفدع
ومستقبلك
وثيق
يعتقل
##ﺘﻬﻢ
شلون
لقايمة
كدت
ولايوجد
##للمه
فضول
الساجد
ويدور
ملك
معدية
##صح
جهزي
الاباضية
فلان
المهر
ايار
قوموا
بيلعبوا
الضوء
الماتشات
##ارقه
رزين
نہ
وادعم
ﺑﺨﻴﺮ
نجومك
المعجبين
وشق
البلدان
توهقت
وطري
المواط
ﻣﺎ
باقرب
بلوناهم
حسبنا
ويط
بالاهداف
craz
ميزو
يرتاح
الاخونجي
وبسم
للطقس
kurtlarvadisipusu
ازحته
امما
البيضاوي
🔞🔞
حرمتهم
والمجوس
للموضوع
ﺎلعمر
رفقة
hon
الجزايريه
بزياده
الحبه
❤✋
##نياء
هالحكي
اعتقالات
مثمر
الصبيان
ماقاله
##ﺟﻊ
بلطجة
بيانات
بعقولنا
##التح
هدت
بسداد
انتصف
كابت
السنية
##حه
اشته
اخوي
الغبار
يتعاقد
بااب
جوة
ﻳﻮ
كلماتك
وسخة
اخييرا
كوهين
تاقت
تتشابه
بحاجته
يارباه
وبشرني
اصايل
##ﻣﺔ
لايتغير
التهذيب
لابسة
والشمال
تجميل
##ودوا
##لفين
صفالي
📖
تطالب
بالكون
##ايقين
ستن
المزي
بينكم
بجانب
لاخطاء
اصعبها
بمقام
يقولولي
البروك
نشتاق
وموت
##👿
المقبولين
واعت
يعيبون
مساجدنا
ڈاکٹر
كالبحر
##122
##عولي
وشوفو
والذ
وشفيعنا
واخلاقي
ita
الجدع
يتحدثون
بهل
بيتوركا
الاال
احاسيسك
المثقف
##وير
وتضيق
ايامنا
للست
سمه
استهانه
عاهة
تفاخر
لعيونكم
تسيير
يخصني
لفل
الاسراءquran
مبالاه
تبل
متيم
فنزل
##ﺜﻰ
##red
نفتخر
بحسنات
تجرات
مسلمي
اللى
يعقلون
جالاكسي
وعليك
##لحه
فانقلبوا
حسافة
المط
الدراز
فراه
الملحمة
شرموط
تسبيحة
##صحت
المقدره
واستغ
الاثاث
معيد
##🌐
يسولفون
جالسه
الهداية
##بس
##اون
المحد
اكراما
الدن
سلسلة
اخذا
يضغط
ﺭﻏ
العقلاني
الدوام
بٱ
مستشارا
##عهن
##لونه
بالمنشن
نشكر
وخطايا
##اسات
بجداره
يسوى
فكونا
تاليها
لاتط
تصفو
فندقية
حيرتني
بالشيخ
لاترفع
الفروع
زار
للتطبيق
والمزيد
تطلعون
لاتر
تبصرون
##عتري
کہتے
والافلام
باغتيال
job
بالخرج
فحق
اتكتب
لوكاس
يميز
باپ
كشخص
معزتك
شاتمه
210
##ديوهات
ﺈ
##وولية
وبط
خويلد
للضيف
يرمينا
بحمص
كلك
بامكانك
تاليه
بذ
يتبر
طبعنا
نحتفل
لبكيت
عفوا
ﺃﻳ
يقطعون
كلن
يغتسل
🐪
افعالنا
يااد
##رسول
##گی
ابيك
نومن
انانيه
ويفيض
ويزيدهم
ويطير
ورتوت
احبها
بهدوء
مرسلي
##☁
صارمة
فلسنا
t
ﻧ
سلبياته
ردت
وابي
لتف
سخر
الغفلات
اتراك
بتواضعك
حدين
يوازي
قالﷺ
استعانتك
##ونه
الامامية
ساقتك
##ﻧا
##ووا
##ﻣﻚ
وموم
ثلثين
مماثلة
لرايته
##كملش
وانقذ
##ime
er
مصرين
before
بالكري
ويسبب
سرني
##كتبت
حنجر
195
##volution
😭❤
افن
##ﻬﺮ
سوهاج
##كيه
مايبون
المجموع
السبا
##امعي
سلامت
الطم
بندول
ويجلب
اللغة
لعن
خافت
انشراح
والصين
باعتبارها
رجاك
يابنات
صوري
خوة
بيديك
بكثره
فاغ
نطيق
متابعتنا
كوند
عبارات
##ضيفني🔛اضيفك
مميزين
برول
سيحاسب
يركزون
فياتيك
##للع
##ناقض
اوصى
جبينه
يتو
الباك
يبلغنى
العادي
يخلق
هييجي
مشتري
حلالي
عنكك
التصنع
كرسي
##ضيني
done
ارحمو
❤😴
الاندومي
رايقة
تتوفر
صمويل
الخبيث
تفيد
منظ
وماتدري
رقيب
الدستور
جانبية
استنكار
صديقته
##فتتح
نحت
فيتم
كوفاسيتش
ينتمون
كسها
##زعزع
##لوع
فتمثل
##نقت
شاهدتم
ارحمنا
اوصخ
اهداك
بالصدقة
وكالة
ببدء
پرس
الصينية
اخوة
فووق
هالصباح
الحذاء
للمصلين
عمل
حكا
احوالي
لانتاج
المذي
لقط
##كلم
انتح
مامعي
مشغله
المتامرين
البراعم
وضعفت
زهره
بالاسك
الصفويين
التقينا
بتاثير
القنف
##دايية
##reet
##ابتين
تطورات
هسه
فقبل
الراعي
الخرف
وضيق
تعبان
تنج
ويحمي
مترك
مهبول
المحاسبه
##رجي
ghad
##عتاد
##inal
والعدالة
ارسمك
سابعة
سقاها
والحر
راجعة
المطرب
العظماء
ﺣﻴﺎ
نتصالح
##نابه
اري
الموث
تسمعي
ونصرك
مارتين
مسافرة
##وانات
🥇
الشتاء
السام
##قبلنا
وارسنال
👇👇
##ﺴﺎﺱ
##ﺜﺮﺓ
ﮔل
مايو
ريفر
##ياكه
اشتم
الشفوي
وارحب
حرقا
##عور
التركي
كبود
اصلاح
يحبس
متوفى
مطبعي
متنوعه
بسخاء
assad
اقول
##allah
الصعوبات
الغي
موازين
ااميين
مدرارا
##ظاهرات
🏆🏆
المرتقبة
مبقدرش
فبات
ابله
مشكورا
يعاكس
وتقت
مصابيح
احضاني
صالحات
فاقسم
برلماني
لرح
تحاوركما
##ايما
##حملوا
ايضا
محبي
عنى
منازع
مونس
اخاك
الريموت
بالرييس
كوي
للعميد
الانجاب
##خلكم
لعاصفة
الاسماعي
149
متفجرات
ﺍﻟﺴ
حليمة
بغ
⃣
ملكي
والمرسلين
##وفك
هوايية
##تون
كتاباتي
لجسمك
تغتفر
الاغنى
ارحم
بالامان
فيفورت
حاضنة
##امفورد
##🌳
بدت
عصافير
هادوا
حزني
اجدها
المصلي
مذاقه
واحمر
الفور
الربعي
ضغطت
ناريه
باين
صوتا
التراكمات
تصلب
الاليمة
##ﺎﻟﻰ
عبدالفتاح
يسمعك
طرزان
الرابطين
اعي
تعرفو
اسلوبي
وحطت
عشيري
للنفط
سيموني
يوقظ
##ror
hotel
لتقرا
يصفر
والاسى
يامعين
والعمل
واحلا
هه
برف
يبشركم
ضخ
##تيير
##ities
اتقاب
المجاملة
┏
##♡♥
الضامي
والكت
##🔶
<
لاعبه
ﺗﻴﺄﺱ
فوش
##ورينهو
واسرتك
##ضايق
اعلام
روافض
بااقي
##عتني
النها
stc
20k
غيبوبه
##وجهة
محامية
بالاستماع
france
شهاداتك
يذبل
مستورد
والشوا
مالها
مجريات
عبوة
گی
وابني
اﻵن
فرحها
اعتزال
الافاضل
لجع
توه
تعيب
اشتااق
تنحط
دفاعا
سياحي
ويكفر
البطاقة
الصحوه
بديل
##اان
اهد
الشقه
الراحمون
العويس
##╰⇢
التركيز
الثورة
وافته
يفقهوا
##الدنيا
الجوزاء
##بارى
اجمالي
وبر
تذ
جزل
##🙇🏻
سبايدر
نعناع
قسوتك
هيدي
بيتفرج
وعربي
ينتشر
##ياغة
##لعون
فلديك
اخرجني
بجنات
الاستش
ارواحكم
المكرونة
بمشاعري
مرس
مااط
##ظالم
صرلي
التسليف
يعتزل
##تاغ
ويليامز
صوفي
بعيوني
##فاعي
تملكه
تبعه
للوالد
وازد
فاسلم
للموقف
##arabic
ويحميك
الطعن
هواه
مخذولا
يقدمونه
حملوا
يري
اقولكم
ثغرك
بالقر
##قم
اعفاء
برعايتك
##ريس
##یە
و8
الفاني
ودعنا
انسانيه
ننام
برفع
افيقوا
اعوذ
ومدري
نورهان
فسحة
##سكا
والفسوق
فالامل
ياواسع
جميلات
↴
##سنها
##جزء
کند
وحظك
يعيني
واحفظني
يفنى
راحو
چون
ملى
dent
والمتابعه
ɪ
فقيره
المزارع
99
حاجاته
##قينى
##راا
ذيل
يتاثر
##اقوى
##250
##شوا
ثباتي
ياهم
##يامن
يهتموا
##زنس
يكلمه
مفعوله
دعوة
محرق
لاعبهم
عيونهم
وصفتك
لاهلهم
المنتج
##ضا
اعبري
نزلت
الاثقال
يقفز
##💛💙💛
لقافة
ازالة
مديرة
عشقتك
الشيطان
بعقلك
لمو
البطي
يبغاك
بالشارقة
والسماوات
بالوفاء
ويستيقظ
وجهرنا
##اثر
sub
ليشش
منيحة
والوس
يشهر
ويتك
محليين
جيوف
عمولة
البيانو
واستقرار
هواوي
المطففين
اعرفه
احدهما
##فوية
سدا
ثراه
cor
ويخون
وشوفتك
ضيعت
##anc
السكون
##سمه
الرضيع
وحجرا
حله
لتاكيد
ممتاز
فقالوا
تستاهلون
كغيمة
اولمبياد
اييب
يوح
تومنوا
ياوا
##طفش
افهمها
##ثا
##لذاكر
دی
وحديثا
عتا
@
يحمل
يتصدق
بامنية
الحافظين
والزم
المطم
عمالة
عزومة
عقارات
العايد
جواب
عصينا
الكحول
ورعاك
##روون
متبادلة
العلمى
تتلف
مسير
يهز
التجنيس
😂💃💃
طاوله
تصغ
ابتدايية
دفاعك
alt
العامر
##ودد
مخنوقه
علي
الربيعه
الزم
وتسقط
الشارب
كونت
تفزع
ويحيي
اساور
نتحمل
قديمها
واكتر
فزعتكم
اقرءوا
الزيكاوية
##iy
حكمت
بالاردن
تنسيني
ننطر
لاجات
والاستنشاق
تمنيتها
اححب
ت
ومنسوبي
وامدهم
المرير
عاداتنا
العنجري
بالفصل
تها
##فيان
نايف
شمسي
ﻛﻨﺎ
المذيعين
اخلاقه
متكي
بمسح
##فونات
مننا
المياه
تعرض
انو
ويعتمد
يخت
##الد
القيد
اركعوا
بالوطنية
تفاجا
##واة
للسيارات
الحثاله
زودت
##جويد
##فيها
فزعه
قمامة
بانزين
نسامح
داي
المستجدات
نک
عرفتها
وسلمو
##املهم
##وارة
فص
والسنتنا
النمس
البوب
عذري
كلها
##ﺂﻟ
الاسك
الكونغرس
ضهرها
كنتى
اسكرين
اعدل
ندوس
تزاعلنا
يغادرون
الخيانات
فيلما
امتاع
شاقة
الحيتان
الابلكيشن
اﺟﺎﺩﻝ
والشاعر
محتل
قلتي
يكملون
المح
ادرى
انفرجت
ترتكبه
واربح
هقيت
##🙀
بحثي
ومم
153
##رجوا
كنزا
##الان
##راز
واعطيك
ملايكه
والانتماء
ايمتى
والصديق
التنسي
mel
التسامح
ﺃﻏ
غافلين
وايفون
قحاب
الشفاعة
العطية
رقب
العقليات
فقدت
🎁
افريقية
##ays
يشتمك
فاب
gt
بيومين
بحرق
مايصحش
والمقيمي
هتخليك
كملوا
والدعم
مطبل
ﻏﻴﺮﻙ
سكرت
##ﻣن
اﻹيمان
صفوه
##💨💨🚈🚈🚓
هاهم
يسيرة
شكره
وبعي
الموض
التحصيل
اليل
لعقول
بارسال
تلتفت
ساكنيها
ريبة
الداعشية
سيفوز
ويوقف
لوصول
بالنقد
##وسلم
حلقات
للحملة
فاضيه
شاعرنا
werej
حقير
##يرتنا
اوسخ
بالخروج
الفاتن
ترح
لاغاثة
ينبغي
اقضيها
مفارقه
فسنيسره
الشروق
تشجيع
bama2015
حاجزا
التطوعية
قولتلهم
نحسب
##ويدرات
الزفت
يمتلكها
سواتك
ينفخ
ces
##دنيين
انكسارك
وابعد
خزاينهم
تعار
غفلنا
جديد
شطر
##كة
##لناه
فاسدة
ارضكم
مواعظ
لجهنم
التنظيف
ومعرفش
##واجس
##عدن
##لايية
العطر
يخربيت
ستون
ووجوه
سويفت
##ﺣﯾ
والدعوات
1977
بدايته
القان
اد
##ٺك
كيفنا
will
وفي
نكف
الفواكه
بهين
غدار
يستنكر
تصادف
حرارته
فكنت
يكرهه
بردا
عزايكم
0546
##ada
ووفيت
الكبار
المغردين
تصلك
بمسب
##غرب
بجانبك
مجانية
اعيدها
##احسن
اكبر💜
لاتحرمنا
المذ
والسك
قطف
اتابعهم
التقلب
مامر
باكستاني
الالبان
والتكنولوجيا
الطه
##نجه
الاصايل
perfect
ياسعود
العمود
اغلبي
##سم
##صوص
للمكان
##اشن
يقولهم
الفعلية
واخفي
تفھم
اندلاع
وسرها
بمصاب
يودك
والسنين
العبر
##118
للعطور
الزيد
اصفح
تبسطه
مهين
اتقهوى
##ter
📮
لازيدنكم
الدعوي
يعاد
والرض
احزنك
رابغ
غينيا
المجاوره
اينعم
كربلاء
وتجعلك
##ذينا
ترجون
حروفهم
##ورن
عتقايه
يرحل
مزن
##ﻳﺪ
الارضية
ريكاردو
ag
بالاجماع
احملك
والمشكله
يظنون
شالكه
بصد
لاتفكر
حلاتك
اخرجت
##انہ
ماخوذ
اوليه
اسج
وفكر
وفرصة
##➊فرصتك
حولا
المهارة
اجاملك
رياض
##83
فنه
هيخسر
توقع
وقرار
بالطرق
والعدل
هسال
ياسرني
تفسدوا
المخيف
🌴استغفرالله🌴
المستث
واسترني
وابنه
بوطني
تموتون
ﺭﻭﺡ
ضرورية
واحاط
خسارته
الفحي
##ولاه
عطاالله
وحدو
نفتح
ويجرح
استاذنا
##ﺬﺍ
عديل
مااج
وجنا
السنابل
بابداع
زعلك
##يرة
الشهاده
street
وحب
امارات
بريطانيا
قبيحا
التضرع
صعبا
وبرده
##هلها
##ince
المنصورة
حاولوا
العصف
الاذان
اغف
احببناهم
تجلط
جبد
##والد
والني
والنفيس
##تابعين
اللغوية
التعديلات
المحتل
وخطيي
لاحياء
##4⃣
الميلاني
فقي
حالى
هالمد
وتحد
واشنطن
تحسروا
##ished
المتسابقين
نظرته
مقتدى
الخامسة
محاسب
لاتزغ
##🏃🏼
180
ينباس
بالعين
420
تبغ
##يابه
تنتقم
تنطبق
بامرنا
ناطره
فراش
##مرة
##ﮭﻢ
اسناني
##👇
الجفى
وجعلناها
انكد
بدرج
السكنية
j
يونغ
##عمه
فى
بصلاتك
##ﻘﺮ
وايدهم
حلويات
للمرحوم
الامبراط
هفت
والعملية
وتقطعوا
فلكي
وشنو
دبا
واتحاد
برهان
بالمنا
معصب
بالسماء
محروق
تتنافس
البياان
##berry
🔁
اوحينا
عده
مسيلمة
لافك
عنگ
يحسنون
يطفيوا
سريعا
استي
##ﻳﺎ
عاصيا
يخشع
يتز
ras
##حلي
وقبله
ومشايخ
##رجاع
تتضايق
cair
الانبار
ارحلوا
نقي
لربي
حجتي
عطوان
علموه
تفرض
لقلت
لاعلم
وعانق
##عيم
ترهقني
مشهدهم
عجرم
💭✨
كعادتها
حكايه
يتغلى
##رفزك
😂😂🏃🏻
##ويتش
تحط
متغ
مااعظم
شرابنا
بالجايزة
امدد
بتقولوا
علاجات
جعلهم
والص
بوسا
وعاش
نثر
زحمه
مايمحو
لجهوده
وخايف
علموني
با
لوبيز
استمتعنا
مطلوبة
السعيدة
يصاد
يوفقه
انبي
استعدوا
فتات
طموحة
التشريع
امط
وصلنا
رفسنج
يسلكه
فتنت
لدكتور
حوث
السلماني
احترامك
ندعوه
بالتقسيط
طريقتي
عشاء
مساعدتكم
هاتى
جلي
كابيلو
عفوت
توهق
ال7
الابراهيم
انتشارا
##ﺮﻳﺐ
مشروط
فالقرب
ماجاء
والجن
يلعنم
اوافق
محنه
والجفاء
لتسالن
رحل
انقى
ويرفعون
حبيبتى
موهبتي
واستر
بالتب
عينة
بسكين
الاسماعيلي
المحك
سيتغير
عورت
هيبتها
المتدينين
ولعذاب
للاب
وجل
يحسبني
##قيم
امتداد
غصبن
##وضى
ياعرب
##ذهل
احتاجوك
##ل50
دونها
اتشوف
##🇨
##◦
توصل
##طاني
يكفيكم
ومسم
وثبات
وسعد
disc
والجفا
قوارب
تفاحه
لبرامج
رمشك
متزن
##فاف
ونواف
ظلت
ودة
ﻋﻨ
وجوع
ينصف
##غن
وليسوا
وحللته
ودرك
💓
##🙂💔
💔😩
نفع
النصاب
تحرم
##حالة
مغام
وتحققت
انصاره
سلام
لاتلوم
يهديكم
##نبوا
قمة
##كتوره
##ضين
ليرضيك
اكفنيهم
تسل
ﺟﺎ
##حاب
🇺
مخا
اعمالي
↓❃
عندها
دهب
لامورنا
##صيبك
افعل
تش
تايد
المثير
##45
والست
لحاج
نون
اتعودت
تنقي
فورت
المجنونه
فﻻ
بروحها
مهذب
##ivity
ويعا
منجي
تراودني
ناديتك
المنظ
خاطرك
محف
##شطة
soon
وجودهم
العليان
##عوثون
يذكركم
سعد
احبش
حلي
تنقذ
الغاص
انباء
##فرص
باعراض
العقوبه
استفدت
للاخلاق
لمها
طلقها
كرهنا
یا
وتحري
المداخلة
قابلنا
😴💭
😂✋🏼
##لاديش
ونفس
لاشت
واعيان
اغبياء
##لوش
##كه
80
الشغ
واور
اندبندنت
العاشرة
##ﻫ
الصالحون
##صون
⭕رتويت
🚑
هنخرج
بالاسم
عبث
لگتا
لاعبينه
وناظر
ومابت
الخروصي
والحرص
كيلومتر
كمن
##غيز
الهير
و20
هند
للهلال
ياح
ااذا
المعده
9665
ياقي
##ﻬﻮﻯ
خيانه
وعافها
انقلش
تفسيرات
##ادمة
ماركت
اعاقة
تشارلز
سفر
##شيش
العاري
ودلع
بالكلمة
ابٺ
mbc1
فقرا
يتعمد
مزيان
وشفتك
لقسم
يقتلها
##رتون
تبليني
اياهم
بشد
تغيري
عزمك
المهيب
75
وتصدق
##ضييع
وعيا
تبداه
##عبل
الحفره
وتنهي
##udan
الشاق
تعطيل
بيري
مزامير
مدرسته
الهض
ويرزقنا
فقدناك
التجاريه
النحاس
غمر
سلاحه
✰
##ho
المور
bab
تمثلني
واستخفافا
هادم
pay
صديقاتك
##ضحگ
داون
ﺎلي
##اقين
bi
يتركونك
##توش
##وسية
نكدا
صفحه
السوهابي
تمكنوا
قلبين
النكت
وظهر
يخي
صاح
فاطعم
يعمي
اعملت
للملي
##روس
ويتحول
فحت
والفس
يحققها
والقايد
##شرات
##انتم
فلسطين
يدوس
بعيونها
##شفه
لسانها
انتهت
لاسرة
واى
وعسكري
افترقت
اقناع
کشم
اعطيت
منوو
بامن
فكاهي
عينا
##lan
مان
عاجلة
متواجدين
ﻓﺎﺭ
صانك
##ناءة
ثقتكم
محسن
اصطفاك
خرافات
الجلطة
لمومن
##ιﻟ
ﻭا
ذكرته
التلاوة
هزيل
جريحا
وماين
الحضيف
كبيرنا
##فلات
طعون
ويرا
ثنين
عاادي
الكاميرا
هارفرد
امانيهم
ملوما
الاصفر
العينان
ضايعا
محرما
بماضي
##قدر
##قايق
الذاكره
بالزمن
اواب
بنيانها
دثر
##oice
وللناس
التوقع
لشع
##💪💪
وتواصوا
وموتا
الوردي
ضخمه
ونبلو
وسلامه
العجاب
يناله
##غيير
نحكي
الخليجي
##مضت
##ce
طلعوني
كالام
معروضة
لفسدت
معتدلا
ببالغ
الهاشم
الرايات
وفرح
مادروا
اسراري
وبطاعتك
ليحب
واقعه
ارشادية
لوحدنا
القدماء
يكن
يتفر
##ماغ
القاعه
افتحو
قنابل
##ember
قافل
##67
فانتي
اياتنا
طيوفك
تعداد
مايع
شعاره
سفريات
ادقق
وصمتي
##📲
السعود
الريا
ونج
وطمن
وبغداد
صيامها
للاي
##ناش
الرم
##رصاص
تقطر
الزبون
للوقت
لاتشغل
قصده
➊
##ويي
##لامات
مفعولها
ميصحش
الطبط
غايبا
والسر
🙍
لراجعون
fara
##انيتين
قهوته
للمتواجدين⭕لمتابعة
تقدموا
عتمه
المترفين
وراسه
لميسي
لخصت
وروح
لاخونا
جني
خليجية
٣٥٠
مدف
بريدك
يعاقب
وجدتني
الكلا
عيدروس
##😰
اللجوء
##30يونيو
##وزات
لاخي
##ولت
الحكومة
nour
ملته
ضحكاتي
##👄
وابدا
وحاجة
##00
لاعبنا
لبع
ثعلب
استار
بتنسى
الكاذ
اسسها
وبلغت
نفسيين
معندهمش
ﻛﺎ
بحلب
##ol
موقفا
قعده
الرف
بايدينا
##ﺧﺪ
لاتمثل
الليسن
المرور
التسوك
ومواد
الوكيل
وتعويض
لتصلك
دعو
مخرجات
السلطاني
بتقولى
عايم
وخلال
الجريمه
اسياء
سيرفع
##نايا
وسلوك
بطلب
طرده
لمقاومة
وجهك
داري
الراضي
صفات
يفوق
##لدنيا
كثرك
فيزا
الناجحه
باليمن
نضيف
نيك
##رحبا
احزنني
مصيبتك
التلاته
##ﺴﺘ
ولاهو
##♦
يركض
مولو
##ws
00970599
##غلوا
خسرني
يتبادلون
0536
راجح
للفصل
داهية
الافتراضية
وخلوني
ستبقي
واجتهاد
الغايه
تشجي
##ملك
##قرب
نجيد
الضريبة
انسرق
وحرر
التدريبات
الناج
ابيكك
مستخ
الغاليين
##يفته
تفاصيل
الجرحى
نعوض
لاتع
الكرو
کنه
##صد
وسيا
##قوي
##بته
تعنا
الهي
تطوعية
الجوده
طلعتي
صراحتك
##ونش
العاش
تسبي
##😢💔
لحضرتك
الوكالة
اوبشن
ارقام
وقفه
التقشف
وقلة
وتبع
##نوت
كق
##صحاش
##وراه
دماغه
يبخل
وتدمع
حصولك
واحبتنا
يسجلون
##برس
##ويح
تعطيك
رسام
تقرب
جنوني
وتحرك
بعبق
ماحقق
سيرخيو
ولكنه
هحب
تديني
يدعي
والوصل
2009
السذج
حدني
😄😂
اقف
انتحارية
اشره
الرغ
حفرة
عايقا
##ﺒﺢ
##المتعثرات
اشتهرت
المبيت
الحجري
اتهم
فراغه
هوايته
بصفات
ميال
شخصيتها
ﻭﻫﻮ
ياحلوها
قالنا
الارث
بنصح
مختصره
واقولهم
ستان
##ضلين
##سطة
طايش
مايسمى
دعي
العشم
وخدم
تسره
لايل
ميشو
اصبح
بالمنام
وذويه
##زون
بريية
سنا
الفردي
ديره
والوقوف
وبدات
بيتش
##ظهور
للعدوان
وامري
والفار
تردت
##⌒✰
اعتبره
اخذته
ونخلص
وسعادتك
##🔄
الجنهہ
مايسعدك
مبارح
الخيري
##لاني
ونار
##درات
ابالغ
وعلو
##ﻬﻮ
العيش
تخيرني
عناء
جده
لخلي
👎🏻
##يكا
ﺳ
جنوده
والوضع
العيص
بتكلمني
##celona
يستمر
وتشرف
اللخ
هاع
وازعاج
الجنس
##oy
مرتب
اللاعبين
تجاب
والد
❤🙏🏻
وتربيتك
المتاس
واو
هالفر
##بير
ﺗﺮﻯ
##يراز
##ڨ
بنحبه
وجوها
بصدرك
عميت
الباين
وعبدالله
##ﻋﺪ
##للش
المعتقدات
open
فطيس
ماينفعك
رداه
##ﻸ
🔔🔔
لرويتنا
مشروعنا
750
درنه
دارين
اختفيت
اكواد
واكفينا
كنها
تعطيه
##وول
المجنون
لسيارات
##بتن
بتاعتنا
شغله
مترب
لتشجيع
🌙
بكام
جوب
##فيا
همم
وبطريقة
تدميرهم
عزالدين
لحيتك
تنكسر
اذكى
قضي
ﻜ
الكايد
الفاتح
تخسى
##لاوه
ارتجي
##وصلها
القاض
والطف
الرشيدي
تنفر
برايك
مصبرني
واشتباكات
کہ
##بتا
وانتا
تونسية
اختباراتي
مسموح
مسوية
واقي
البغي
للدول
الاماراتية
##حكام
التسوق
##ax
ويحيى
عالبيت
الضرس
##لع
مسنة
يكون
ده😂😂
🍥
الشرف
##بوط
🌝💔
يعور
صحتهم
التحكم
خلوق
وتعيد
تكفل
دمعي
##ﺢ
واهتما
خرووج
والرقي
الزلة
رق
نبغي
مشيك
النكبه
وحدي
وشاف
ساجدين
باغيه
لمكافحة
##طاليا
المرشدي
تخيل
تعجبك
اسكن
تنط
تذكرتك
تت
علطول
اخواني
لور
فمعظم
بداية
##غبى
بوا
تاريخ
احبو
رديت
والروا
ﺑﻴﻨ
الجماعات
الخوازيق
المستحق
عدوها
يقرا
اونس
##لالية
ملجا
يغش
سيور
نزيد
لمح
ياجمهور
تسرق
تصحى
بتشوف
لتخت
بشرح
##واير
حم
للواحد
جبناء
الاعبين
بتحبوهم
سبايك
عشية
عاليه
متطرف
ايراني
نتصرف
تريزي
جالي
استعراض
الفايزة
##اريت
التربوية
american
يشير
الفقهية
##ملكة
##adh
ورابع
##صلها
##نهيار
ومحبته
ساعتي
##اجع
والاطلاع
الكافيه
بهن
مكاسب
ياقوم
الطمانينة
mahmoud
الرهيب
اقصاء
عقيد
اخووي
السمع
طريقنا
مقرن
بسررعه
ﺈن
##غيني
نوازشریف
بالمل
وهاذا
يزحزح
##ران
ra
بتعليق
ورقة
📹
بخاطري
##ربط
لالت
ومسلمة
ونرضى
يرفعه
##نتش
نسبي
فايزة
ارتقاء
وليوفيهم
❣❣
##نح
الوقفات
اختارت
مالهمش
دقيقہ
وغيرك
🍃🌸
احضنه
ويرزقه
ننصح
المروري
الحياتية
باسوورد
موضوعك
ابتد
ربانيا
سدر
##ثل
العمانيه
وانقبض
ﻧﺤ
تنهر
الغاف
اقسموا
ﺟﻤﻴﻠﺔ
كسبته
##زلت
اوانه
الشمع
اتينا
##وبہ
الحبل
تمنعني
##شرنا
##تاحت
ادوا
الرافعي
تقذف
##لاسيكو
تشوي
دكتوراه
كريمه
سبام
الكيميا
وتجده
نسميه
واشوفه
الاحمدي
##لايم
فتيل
وكلتك
التوراة
##للجميع
„
معر
طرفها
مبارگ
##ﻠﻨﺎ
##فرقه
فقدان
والمشاكل
مانش
باق
البريه
حبابي
بالطريقة
برضه
١٥٠٠
وهمة
الافيس
يحملها
عضوة
عاشرت
ﺍﻷﻧ
لہا
لاتحتاج
مشقة
يناشد
بتعلق
يقبلون
##راحہ
المعفن
واعاتب
الاورام
بالنوافل
شايفين
يفضل
##sm
سنموت
حزنه
حسون
##افرين
محجوزة
والاسوا
تجني
رغبتي
مورينو
وتواض
تقلب
بالعجز
فانظر
اضرك
##ٱس
بوبو
تقه
المحاسبين
اللط
مذهبي
هدايتك
نتفق
حيره
صورتك
وابتسامه
قناة
فانا
فضفض
واذهب
دايخ
##ساء
❌
الاوبرا
اتمم
تقرضوا
المرتبات
🇦🇹
لادع
واتوا
والتالق
lm
تحدثت
لمستخدمي
مخاطرة
الصباحيه
ﺑعض
دفع
والطيبون
وسيقال
perf
للكسر
قصدها
ميدترم
فرقاك
وانشروا
يشن
هزيمه
وللمسلمين
خلقوا
يفرض
لشباب
##عجبه
نعرض
المهجورة
متمكن
لوم
##يج
هضا
تبسم
دايت
##اسيتش
نمنح
ابايكم
##طلت
واخوه
اديب
حقنة
ارفعها
وعيه
ياكريم
##رعة
كوبا
التردد
تضايقنا
الشجاعية
شبي
يرويه
##درز
لقوى
##عتمد
ابتسمي
غفيت
وتسحب
##ارتي
لاار
##الما
🎥
رسبت
شدته
المدرب
ينقصنا
##كتير
##rica
البدء
##روعي
وراحت
##😿
القضية
تركتم
البسيطه
ورايي
مرب
مواجعنا
##افلين
وزحمة
تواجهنا
طلبو
sal
يخبي
امش
بتذاكر
فرصه
اقولج
لعيونه
عليھا
الاسبق
ينصرنا
ehs
ولاتح
وامراة
مختارات
يثبته
لمق
متعرفيش
طبت
وفرحة
وقود
كاليفور
ومحتاجه
خس
##ﺒﺂ
دعينا
ماتبيني
المسلمه
ينسفها
ۅ
جوفه
##enyehia
خمسون
##عله
مااروع
الاشراف
المقربون
متربع
اطرف
تمتحن
يحاولوا
ظننت
دامت
مايصير
##طفوا
’
المعاشات
للرياسة
##hinking
##هامه
الانثى
ماترد
اجتنبوا
المرام
وقيادة
انعش
##ﺎﻣ
لعلكم
بذوق
الواسطه
ارادني
##قشك
لاننا
بدنيتي
الويندوز
للعقل
الفوزان
واشعل
بالسرعة
وهاهي
رثاء
رييسها
غفوه
جددت
عجولا
##♕
فهم
موصول
##قابله
##ahly
توسع
وادخلهم
┈┉
اخلع
للتاريخ
يمنعني
تحويلك
تجذبني
يعيشه
خفى
##وطنات
ضغطك
لعلمك
لكنہ
بالانستغرام
واستنصرك
فستان
الوا
منزلتك
ارا
مقاليد
برض
تتوقعها
بمث
ادعم
##باقي
عظيم
تغلب
والاسرة
گد
بحادثة
##انت
ﻓﻴﻪ
الوراء
بعضكم
حكايته
بيتن
معاويه
المعلا
التبادل
شفاها
اطي
##كيين
ويعرفون
وات
والمقصود
برازيلية
حليفنا
جماهيريه
يتواصل
##ca
مجامله
واستمر
داخليه
##ٱد
ﺧﯾ
وهذاك
واخبار
تسمعين
exam
ذراعيك
استثمر
المديرية
باشت
والوقت
##بايا
صقور
لباك
الصاد
تغض
فانى
بالاهمال
فهذي
سفير
دغيم
##ullah
الخيرات
القلعة
220
علیکم
اخا
كلاسيك
بالرحمة
اتع
مستانس
الواصل
فبيس
مولم
##فاجي
ms
الكردي
خاصة
البوت
الديناصورات
تصبر
زوار
ماه
ننسا
نحوي
اللقب
ماوى
باغلى
الاسوار
محاكمه
الزوجه
فرحات
وسلسلت
٣٢
ﻭﺟﻮﺩ
يسفر
##شوق
الهمايل
مغنية
صفوفكم
##مانع
امسي
اغثنا
ومغ
المفس
والنقاء
رجالنا
ورو
راه
صعودا
محاورة
##ach
وينصرهم
ناسفة
اودى
العرادة
واثقه
الجوار
تاكلي
متزوجة
ضربه
وفيات
والخط
##اعب
وعظمتك
بسمعي
تلغي
يالحبيب
##لاجه
للمرحله
وبتحب
فالليل
شكوك
كلمه
التكرار
نشكوا
يخيم
نوعيه
##فره
كافرا
تصبح
معرصين
للمذاكرة
عهدك
بروتين
المرتقب
الغزاة
وملوك
ينشرح
مطايا
دروبك
نتعود
بشعار
اقابلك
##لانية
وصدورا
شموع
نض
اقلك
الواسطة
تعدنا
##دعيه
حضاري
تک
بالتحديد
ماسجل
خبث
الندى
##بلت
ياماما
##فعه
اخيه
الفردية
وتثق
خبيني
واخوات
اعترف
##وفو
متحدين
الاعتراف
يبقوا
الراحة
للاد
الحديثة
وفهد
الصخب
هختار
##وبتر
ﻓﻬﻮ
كلناا
ويبلغنا
##wh
##🇯
صوتو
بيية
الحوسني
##غالين
حرمتني
مبكرهش
قالهافي
والاكرام
㊗➐
بيتنا
بمعرض
ادوس
ماند
بخش
مخفية
فتيلا
والتزم
فبد
##هادي
المصلحة
##😴💜
والرياح
الال
smart
خطايانا
##ريقه
##oz
المشا
جاكرتا
المختبرات
فمزق
ووجه
عبادته
تتع
وعندها
للجمال
خوف
مره
استغفرالله
مصيبہ
مروقه
الدقة
تصريفه
##غبة
inter
##زلهم
قبره
كالجبال
واحشك
واذن
وسفك
اغنيتك
اختيارات
يخذله
دعواتنا
اهملت
ذكروني
##لاهتمام
حسناتنا
بالدا
نومي
ترعاه
المهنيين
سيست
هيزعل
اخرج
تعيسا
##امحة
كاسك
يضعك
وارحمهم
صفعه
🤦
ضاع
البلغ
سمحا
خشمي
❕
قشرة
واعرفه
وملا
للامان
رجالها
اسبوعين
كلم
استند
عشانهم
ماذنب
فوالله
##وسات
متعبة
صديقى
اسنانك
الاقتص
##نافس
ختامه
🆗
لاخبار
اتحادي
الشبع
##ركية
قلقة
كادوا
هشاشة
خولة
##قهوي
السفينه
امتحانين
زب
##hs
جرحين
##😍🔥
##ايمه
تحفظك
رخيصه
هطول
##اصيل
مكنتش
مماتي
الباث
رسالة
##ليمان
حليفك
كنجوم
تعشقني
##ﺳ
مساجدها
غنج
##urk
المسو
فهود
##علا
الفنى
الكرت
عقليات
جيبوتي
الاصابع
سوبر
والفرقة
وكله
##اراتهم
بحكمه
ib
بقلوب
المختلط
تنتفض
اطباعه
عيونكك
##ship
ستق
اعم
بالر
بتحبك
رمان
الفارو
ث
جرو
حينيذ
عابس
ونكد
##´
اعوض
بنبرة
الفلكي
وتندم
عنابي
ياحياتي
##قفين
##جود
حنا
الثروات
d
الحلاق
تنسونا
تجنيس
صاملين
وفاكر
##للمتواجدين
خبايا
کردی
##الكلام
بكرم
وايوب
خبرنا
وسترى
🌳
يستدعي
ونقول
مطبوع
تحريك
الناصح
معدودة
وهزلي
##واقفه
يوذ
عمريي
الايجابيين
واعدة
طحلبي
الانتق
سهولة
تغنيك
فيجب
جيبه
##ابيح
##⿻
بينما
يحرقون
الطاير
المزرعة
##ونخ
بخفض
الممل
لاغراض
بالحرية
السلة
تقتضي
الحبيبة
🌌
العمير
♦استغفر
مواه
•
بملام
اذاكان
😂😅
لمحاربة
بفرح
ايامهم
يسلملي
الزيت
وحياته
الصراف
edit
##الز
##اخلاق
والكلمه
يجب
يصلحك
ومحياها
ﻋﺎﻳﺰ
شهداء
وشخصيته
كوتش
ومعلم
ازعجتونا
احتويني
##وصف
ﻭﺻ
مكنش
انزلها
للحفل
مزال
ﺩﺧ
استغناء
زعلوا
is
يستحقوا
##حوذ
الهاج
وجعها
بالشخص
كبارا
يابخت
انطونيو
فاحسن
✔🌹1⃣
يضمني
##املات
اعرفوا
تهايط
وحاض
تلاتة
الحجاب
##مى
مبادرات
يقضى
قيثارة
غرين
بالكتير
تدفع
بوقبا
تنحر
خصوص
بسحر
ball
##عاء
هدفه
اليهہ
يحرمون
والجو
صدقي
تداعيات
ماسنجر
لمبعوثون
همووت
##ونم
الصفر
واللهه
مانرجو
عاملك
السيلفي
##🌀
خروجك
❤🙏
ﺁﻟ
نفسى
مابت
يشقى
جفونك
##ﺛر
التنظيم
اتجوز
الاغترار
اسراره
##اڼ
وقانون
تجه
##اراته
اسعده
khaled
گوش
والاخ
##ممكن
تجس
##نسي
لعلي
##فرض
بالنبي
بزاف
مبالغة
وشاب
الاباح
المنس
##بدوب
تنه
بحكي
الانقلابات
بنت
اياما
ومحا
انقذك
##رهما
المهملات
٨٢
ﯾﻣ
مستمتع
ذوقك
##قافي
مولده
##حياة
لاهنت
😂✌
مهرجانات
انتظرك
ممتلك
للفوز
شظايا
چنه
ويكفي
تفضلو
##abujoda
نصوص
عايله
مليانة
والكره
لاتحاد
للمحافظة
شهاد
التسويق
ﺑﻌ
مستحقة
تنفخ
##يحة
وفرج
تعاير
##واني
والاسعاف
تشيلسى
وغي
السلحفاة
واكثرت
كراهية
وللم
هل
النجاة
الواقعة
احاديثك
ججدا
تهجر
بيقدر
وتبغى
لمقتل
coal
وصوركم
چاہ
العافيه
الاعتقال
وبكيت
##ona
ذاكرين
مهرجان
العادل
بالفي
اسيرا
المعيد
المنشورات
الارزاق
لابنايك
لاداء
##نجان
##فروض
اهتف
🌝
تسديدات
بمفرده
1945
وضعهم
يعتبر
ابتلي
الشهود
الهلالين
ومايت
بشعبها
يوناني
البيوت
رمضانيات
##ℓ
##اير
تتجاهلني
وغيرة
لﻷ
مولمه
حافلا
ذهبوا
اسبوع
ادخلوها
المحشش
##جارة
خليجي24
فيرو
متنساش
##بها
بالحديد
وارقى
ونصي
يقولك
معافا
الكوماندوز
بقعا
##اجد
وتوجيه
ءء
##▒
كتمته
٭
فصلى
الزبدة
روحين
##اخه
مبر
صعبه
قلتلهم
ابلغكم
نسبة
وجنه
الركن
امنواصلواعليه
alturki
##ديولا
وتشيل
مجاراة
برافوو
##حرز
##فتات
😂😂💔💔
##ييح
##امرين
يمسكون
فتعرفونها
اعج
نفسي
معاوية
لتصحيح
وتبتعد
ياريم
شارع
##يرتي
والصيام
التاج
الباجي
سلق
شوربة
للوزير
جمعتها
يراك
خريجي
المتكامل
الموحدين
تنشط
بينونة
ہی
الخافت
عافيته
الغرياني
مبتسم
القصمان
خاض
##ﻣι
وتخت
خوات
##ونال
فيغو
شغفك
بيغلط
اللغو
خالقها
الخلل
رسلت
حلوها
الديربي
کہا
حطيتها
والصالحين
زهد
فااش
##یدم
⏱
احصاه
رضوى
تكراره
##kn
الحشود
ضجيجا
تتطاير
مقهى
معتدل
##رافات
فاشكروا
البراءه
استطعت
بنتي
كلبوها
##ويل
اسبابي
##اهدين
##صده
مذا
تفرحه
باعوا
باسم
قيمة
بالوتيلي
الان⚡
00965
ونعمل
##😂🙈
كوارث
استوطن
ههع
بطوله
مزاجه
عندالله
تعليمك
244
نندم
لنيل
والسماء
ومالنا
مقيمه
تناديني
واحسنوا
##لتة
##رض
الراحمين
احترمي
فس
بالارت
امي❤
نيوز
اللوازم
ﻣﺨ
##ouse
دايمة
barca
1985
##زول
ياكلاب
المولم
بازالة
كنم
كافح
##مايم
ﺁﻟﻤ
وتقص
لسداد
الغايبون
حاشي
النا
ضيافة
موس
مدح
الخالص
ماشفنا
والفكر
خدام
ﻭﺍﻟﻤ
الوداد
##قلبك
ارفعي
mess
خالطت
مطم
ولاتجعل
وساعات
1441
الخالد
##rahman
ومحمود
اتغاضى
وقطع
احتساب
الهجمه
انبيكم
لايهينك
محبيني
قدركم
تتجدد
يشوفوا
مميز
حضني
اعملو
وقفى
تجاهر
ميليشيات
لنهاييات
سوز
##🔛اضيفك
الخفوق
مسالتي
اتقمص
المشغول
اليي
السنوي
بمعاقبة
دوت
تبح
##غفور
عجلت
فهنا
بالشراكة
##ﻣھ
غارقون
العجيري
يلعنهم
متعصبه
ياهوو
بك
المر
ﻋﺎﻟ
تردد
##ايين
التعميم
متالم
وقوى
الباطنة
القطامي
خطتك
وانقطع
النصر
ياعز
للحقوق
كمدا
##گى
اننا
تفيدك
واخ
##بالي
يبلش
ابتدا
احمله
##il
اهتمامات
المحنه
السهو
😂👏
سبقه
توضع
واحقن
ولموتانا
الغذاء
رخيصة
تطلب
احتااج
##har
##الاتي
اتوفى
مداهمات
للفنانة
ويكون
الميليشيات
يغادره
##اطا
والتقاليد
بفرحة
معصي
##ٺ
الاحتمالات
مراسيم
وبب
بيسامح
لرءوف
نصرنا
مااي
رسمى
##4479
الزحف
فلربما
club
لاتريني
مختلفة
##شخاص
قرار
ﺗرى
ماتشوف
##ريفة
متوقعه
لعمرو
الفوا
بمنت
لاتنسى
الطايره
فاتتني
تشاوم
دخولك
عوني
تنهيدة
##ories
مضغة
يشعرنا
⛄
الثم
##leb
المتقدمة
##كمه
البشيري
العنصريه
الفلسطينيون
##العربي
ﺻﺑ
لتكريم
نتقابل
وعالم
يخليلي
عاطفي
سمي
تتراكم
الدوي
ابت
لطالبات
الظلال
ونضحك
##رعن
##سترول
عبيدة
ميتنا
اخرت
ويض
والملح
دمي
##سامر
اسهى
بفي
وبف
وانسي
لرياض
ينافق
ايطاليا
نوفر
الاعلون
فتخسر
ريال
##لاناتكم
لعنوا
##قدها
لند
والاخذ
اشتهى
المرزوق
رحلنا
زارنا
بالنتيجة
ستشرق
للشعوب
الحرفي
عاصف
تصدق
مايية
هيام
المعدل
شعوور
##73
##news
وجعلت
عامره
يتلو
squ
غزالة
##ﻔﺴ
تبتعد
البلوش
جابلي
عدد
المتراكمة
##alat
بشم
future
مخطيا
الدحيم
##وارث
المطربة
تقار
009627
##لكيشن
⭕استغفرالله⭕
لايموت
بالخليج
الامال
##es
برزنتيشن
العسكرية
السفارة
حكومتنا
🌚❤
##زيت
##flix
ۍ
##يهما
المدفعية
ظاهري
##صك
اجند
##ﺎﻥ
##وبتها
نجاحات
سلمان
بصحة
البريد
##ذاق
##ذيان
وعهد
يسارعون
موكا
السواليف
بالايات
💙😴
##قلل
83
عنقي
يرتدون
المجال
يرقد
يحبونه
احلي
كربهم
المعجل
##روفي
🙊❤
علاجها
موازنة
##لb
يقعد
للمحبين
##🤣😂
بالصلاه
فقربة
منكوا
عرفناه
ثوانى
العساكر
قدوه
انتهيت
ﺚ
##ﺿﺎ
##abd
يخيفني
جميلون
حاص
بعرض
موضح
شافع
داخلة
اقمار
افتقدك
الملون
يفهمنى
مغرو
ويربط
مااني
##راس
اسهم
لنهتدي
المديح
##نجوم
ودنياي
راش
##لوں
ياسي
##ﻠ
تسد
الانس
خلي
يمنعنا
المتقطع
muslim
العبيدي
امرت
اال
الصفحات
ينصرف
فاقد
المجيد
ببرد
نامت
الجرعة
مررها
ونوا
يمني
##بده
etisalat
##وجو
كلفت
المشنوق
الغزالي
فتشت
المعل
وجعي
تخريج
اتبعون
غلطه
اشراف
الاميال
نرتبط
نحبك
ونجني
بحبيبتيه
##word
احافظ
##ﺩﺍ
##سامات
المشمش
زبط
انقرضت
زورق
ٱلو
الاضافات
خياليه
##لاحيين
##هذا
اجازات
##ful
كالح
المغني
حبيتي
طيارين
الرحلة
يباركها
يلتقي
وايران
باللا
##جديد
تقصر
وتوفنا
التبرعات
يريدك
بتروج
نقطه
بشت
##خلفين
المقدرة
السنادى
ولرسوله
قريتها
امثاله
للمشروع
ضيعة
فالاول
ﻧﻈ
وحصن
الجيلاني
##69
😓
كفيلة
يشتد
فالفير
تاسر
الاصدقاء
##fs
عيوون
حرامى
سمك
يجلط
##ليمية
اطيقه
اوجد
الكبيسي
عاصي
المعمورة
تظن
قدرها
〽
وارت
واصفا
كاميرا
تسري
الض
التجاره
الهضمي
تعاتبني
تاثيرك
بالاماكن
ارق
away
##لنا
لغسل
اتغيرت
يبذل
وتوزيع
باجتماع
##لوت
مسرورا
مدنى
##ﺟﻤﻞ
مضاعف
سوالف
اقصد
سيارتك
ويصيب
صايره
يطق
الحبوب
secret
تباركت
حديدية
التوك
وخبرة
🍉
مذنبون
اوقاتا
ﺍﻟﺼﻼﺓ
الكايدين
##نسوش
تليها
فارجو
##غضوا
طرح
متقد
لولوه
بدويه
##awi
##طلعات
والاعتدال
وتضاعف
للنجم
وابيها
خليكي
عبيطة
تافهة
مسلمة
يسمن
━
##غشمر
الامانة
والحضور
rio2016
نهايتنا
وطلبت
احبابا
xp
وشعب
وتستاهلون
##وينه
xs
ﮱ
شوارب
##للھم
##ﻧﺎ
##اللي
الوص
سامحك
لايخ
الموهبه
اقتربي
نومتي
ونصراويه
لهاد
##صموا
##حلة
حكوم
غراس
اهب
بعديها
نسمعه
امتك
رجليها
ورد
الكوابيس
علمتنا
##ناقش
لاخوف
##❤💚
##ﺒﻪ
الستات
##رمى
متعدده
ﻟﻜ
##ثنا
تحداني
copy
سحبه
دراستها
الارف
الندامه
غيرهه
يتح
البنك
باستهداف
تكييف
وش
غبتي
اخره
وحشت
يباشر
ممزوجة
يقربكم
نشوف
##للني
كليهما
##صها
ومكت
تبطي
يدير
اكبر
العشوايي
المخدر
هيعرفوا
وماوه
##سيسي
فرج
باحتلال
بصفه
تكونت
اللوج
عالف
يكت
##نهام
يزهر
احرسه
توجهها
##لبين
يابيبي
تبكي
والتهديد
بريالين
##جل
بالبرلمان
ﻭﻛ
##هدل
ستطيب
129
رفضا
البنكية
بالرياسة
يجد
والشراء
قضيتها
طلبوا
فرنسية
روضك
بايق
يوسف
واعيا
تحادث
##ﺎﻝ
##غريني
##جام
مفا
##زهر
وردي
ﺃﻛﺒﺮ
وغناهم
هيلتون
املو
مااس
ناسية
فليستجيب
جبارا
##ضحكون
صحتين
والحم
##ذرع
يضربوا
→
##n
ظنهم
تلاميذ
للاعمال
العنقود
الغيمة
تستطيعوا
حيلتي
السنة
الحاسم
الاهتمامات
الانسان
اوثق
بالخي
لاشماته
عليهم
بتحديث
البوا
الصيام
اتج
والظلام
النيادي
ب50
##فقر
اشع
وصيته
المخيس
غفور
شمر
يفقدنا
للزملاء
ومنتخب
بيها
##خرة
ياعراق
الاممي
سعوا
طلابه
😍💙
مقصرا
باخرين
##تكس
استماع
بڪ
ب30
وتقي
فطاير
ومباديي
تقليده
وعدتنا
الايلاينر
ومساندتكم
بوروسيا
سحب
لاتنام
🌿
انتقالية
يسوقها
قتلي
ﻓﻜ
قلقت
دخل
فظن
##ﮨ
تبون
ادعوک
وفهما
بخاطرك
الروى
واعداء
الطوابير
المستفيد
مورا
تقسيط
وربي
القدس
بالطايرة
##مايه
فانك
لادخل
الزجاج
بصدقهم
ياهي
قدس
باندا
متوف
العريس
السرحان
تنظم
تسعدك
مااريد
سيف
الشاخ
السنتكم
ورمت
عذابا
المتنا
الثلاثين
ترابهم
تلمع
##2
ويعرف
مدخ
جربتها
الصنيع
مورينيو
والرم
الريال
معناتها
ولين
فسيكفيك
##ساكر
وحتى
189
لحياة
ليصبح
وسالت
توليه
##ﻨﻴ
الاعتصامات
سبح
##تاق
##يباد
##سرى
اهديها
نودي
اخواته
##hing
نقابل
الغرف
##ison
للتعويض
فولفسبورغ
🎤
الامنيات
لسماع
بالفلاح
يبعث
الايتلاف
الميريا
لنثبت
وسات
يسالنى
##خلة
الخضراء
بشاره
طراد
للسياسة
الاشهر
عنج
صافرة
##راويح
برتغالي
وظروف
توفيتني
وهتعدي
يستخدم
🌍
##كث
وساد
وغنى
اطعموا
كثار
اجدك
بتحبهم
##غات
واسطه
الواجد
نستطع
النورس
الحرس
اخاه
الفخر
المستح
ولمة
فاقرا
مقعدك
والظروف
ونقدر
بس😂
مثقفا
ليها
جمعتنا
لاتكلمني
##حلم
احبابنا
سما
ياكلب
يسلي
ومخرج
الغلبان
😕
بتنه
بينت
يرتقي
##اديث
ثقيلة
ميكس
##oad
ينصحك
برويته
##وجه
نقلق
الاستيطان
مرضا
الطبايع
كاميرة
حرمك
لحلمك
##راحات
المكان
حالم
ساعدونا
يبكي
com
عي
💔💔
غبيا
دش
يوفقك
##صايل
##لغل
##اق
للتغلب
##سندر
مكارم
لموس
يتمشى
ونامل
##رايض
##ظوظين
المزيون
الاسكن
##زيته
السعادھہ
للربيع
مايخص
🌹❤
✋🏻
لذن
تقضيها
بالعربي
##كمال
شارل
همتكم
ويجمعنا
فوكس
##پس
##فعية
الچ
##كونه
ﻗﻴ
منتهية
مشغلين
واصابات
يبي
الخرا
مسافات
تخدر
##يتنا
وانسحب
افتراه
##يفة
مغصوب
اتبعها
ﺩﺍ
♦➍
ببعض
ابقاء
اشواقه
##بات
قفله
جمعته
##ابعين
سكرات
هيتم
##مض
##عمك
لتحرير
التقيد
يتحدى
##اض
الدوله
النشبه
وٺ
يخوان
وحمل
يٱ
موبايلى
bama2016platinumedition
يسواك
##البات
يابعض
ۆي
اذكاري
ريالا
sorry
##زونا
ودوره
ديبورتي
النظرية
للانتقام
👰
لعلوم
لننصر
ظا
##خيا
القاموس
##ذلك
يحض
اقطع
هنيا
القراءات
نهاييات
نشر
هاهنا
يتي
للبر
وصغيرنا
بتصور
اعفو
فالجميع
باستراليا
تنشرون
واجمعه
العبث
تلهيني
وصرفت
تحكموا
اشوفهم
بهالكون
فاشغله
للقهوة
ﻏﻴﺮ
اصلع
##معت
انتاجه
بحرب
بهه
حارث
الكعبه
الالحاد
##فاجات
الضاحية
##ادير
##خيو
الفيحاء
سعرة
يارزاق
اسرعوا
سوط
والمواقف
منت
##لوعي
الجمعہ
##زيون
لمرضانا
صاحبها
مكلفة
فداها
قادم
عباداتي
الخطورة
يبينا
مفض
البخاري
لولوا
هالمرة
##ظنه
ﺗ
وهيدخل
ياد
بى
الملونة
الان
تلقين
##صرية
##شوت
ﺗﺤ
قسا
نكتب
##راقبه
لاخواني
لوال
لیگ
بيموتوا
يعرفن
يصدق
كلمك
خلد
يصرخ
الممثل
وسخر
خله
يحبوننا
حماار
شسم
غادرت
الشرقية
سعيت
ساك
احبنا
ونشره
راحم
الحار
تجدون
##ستغفر
٩١
للمتابعين
##ﺘﺎﻕ
##لالم
ومود
العبيد
الحليم
بالشتا
اشبهك
🔴
مونت
##جايا
ابداعا
مكسيم
عطوها
تزيده
##tiskat
متطلبات
امحي
ببق
##لقة
استرها
تكذبان
المتعافي
بداخلك
الخدمات
ليست
تجاوزت
التبكير
##طيش
والمقت
ترا
ريبورت
اﺳ
##ثلنا
وولاة
مر
المون
ناب
تربك
وحجم
اتامل
وتزعل
مشفت
صمود
##املا
مايروح
##شهر
بهش
صنيع
زوله
بمدرسة
بهالس
##🏹
تواضع
⭐⭐
لتومنوا
وعمل
وفيما
ستنعمون
البريء
المندوب
لايط
قاص
سينتهي
مدوية
وضحكت
👌💙
والمعوذتين
الاستي
ادمنتك
##nn
ic
تراهن
اهميتك
ارجاع
المناسبه
acc
بالفراسة
ق
##مايل
عملته
معرفي
واذل
ابوها
تمنعوا
والاق
تخافين
##ency
نساوم
هادىء
حكايتنا
يااخ
النتايج
الاشادة
##❈
ورزقك
اشتعلت
##دخ
ويبتعد
الوفاق
ماتعرف
جيد
التخصصي
بلغني
وتفهم
اوتيتم
##غلا
🔫😂
يكشفها
وتقوى
ثرثرة
يسمى
##act
ومحتاجين
قضايا
اصحي
وغناء
مخاطر
تفريق
الهندوس
##لچ
جوية
الخبر
صرفه
ارسلك
ومحل
الناتو
##غفرت
اقفل
قيادته
##ena
بتشتي
😡
تسوون
سمبوسه
الفارسي
بحجز
واصلة
اليتامى
##🔖
بداعش
سعاده
##🌷🌷
وصف
للشعب
الحية
ومعه
ميغ
ماراحت
##صيب
##emy
علمنا
فيحبه
بشركة
بالشبشب
##الاستغفار
##جها
بتقلب
متكررة
🍃🌹🍃
رقة
تمثلنا
ارتوي
وحلوا
##ساوى
الرايق
المغتربين
اقراص
ضااق
المتعصبين
المعاد
روقان
٢٠٠٨
##لاحقة
الفريدي
يزرني
##ليمة
مطول
ايجاب
محروم
ياني
باطلة
##لافه
الدينيه
لمواجه
اخلاقيا
تشربوا
ماقلت
لاتخسر
صغرنا
متواصل
##فسدين
وعشره
نزلي
##🌟🌟
للخطوط
ﻣﺸ
دايره
ﺑﺲ
الاسم
واغمرنا
ﺑﺼ
عبارتين
عقليتك
93
وتتمنى
ثوره
خی
وواحد
والقراءة
رب
الكثيرين
فعدم
وتسجيل
متعرف
ولازلت
والبصر
ﺍﻷﺣ
كدبه
بمعرفتك
ومابقى
##ندو
بالهجر
الذاكرة
الجريح
الصاعد
تتكلمين
##باعية
متوسطة
لتعلموا
الدوون
فادع
والنية
بقولك
##عطني
##💖💦💎
تعلمو
##متهم
الايمان
قوتها
لامه
##ەم
بالوسط
##فوس
يحلق
البايسين
المهزوم
منكسر
يلوع
مطب
داعيه
اماله
##arash
واهش
اعتقال
والجوع
نعملها
اخطط
بالصالحات
براسك
لافع
سريعه
ببع
ينعل
ابنكم
التاييد
الفلب
الرقاب
en
بيروحوا
الغيبات
اعدام
مغروره
سكانها
رحلتك
وعظ
ماقل
اكمل
والتويتر
blue
##نده
الجامع
f1
عرب
##🌹🌹
ويصبر
##لاوي
##فاضة
##جاة
عملو
نذكره
ﺍﻟﺴﻌﺎﺩﺓ
لدلوك
بايران
المحمل
سعيدة
##ختار
البيض
نتا
تداهم
لوحة
سلمة
نتج
حلوة
وبيل
انتقام
final
خطط
مقفله
##fli
فالمع
واسكنهم
وجدة
ظريفة
معندوش
شاركوا
##خيلها
خيالا
ابتسامہ
ملصق
يريكم
السجده
##si
بكرة
عرفنا
وعبادته
باستشهاد
احلامه
الافتار
ماينفعش
لحوم
االلي
التكت
يضيق
##ستراد
ماهيب
هلم
طياتها
ابيض
بناس
نرسل
فكانت
الاية
حديقة
شهدها
للعلوم
##راهة
فقيد
يتابعونك
##23
mans
تفضحنا
ماثر
##oul
نجدها
جهدي
جوالاتكم
وظاهر
المختصر
ہونے
يطي
123
بيحكم
##بوا
اسلوبهم
تتحدثون
##اهہ
ولاي
ذكراهم
يصفقون
تخلو
##iful
##atinum
عق
واليكم
##خابيه
حصوله
يشكل
لايام
ناصع
اليومين
##لفون
##بلك
سبني
لايعجبك
كولو
🙎
##x
الزبداني
##باهون
المهمه
شغلنا
للبرنامج
خلصتي
card
ونسى
كوكبا
ويستاهلون
فرخ
لحين
ﻳﻘ
العاطفيه
نسيج
🇧🇷
لبلدنا
ابوي
الاعتدال
📕
والتدخل
انتهينا
##ﻴﻔ
بالعربية
صحافها
اماكنهم
وحطها
وعض
##ah
##بيعك
حميدان
سيزون
##زنا
يستهزيون
النمو
produ
لطلبة
بيثبت
خميني
جوزها
وعدته
والس
##ذيك
بفق
تفتقر
بنحتاج
بوصلك
##🤓
##ايفية
بتسوي
ومعاك
اعتقدت
٢٤
يرضى
المحن
ضيعني
طلعوا
##ٺگ
ماساوية
ملعبنا
عندا
بصراحه
العوده
فريقين
بدنياي
بطولتين
وربيع
العاديه
اخبث
موتمرات
جواتنا
بوتن
بوغبا
يفهمه
جيمرز
##فاده
وليت
انجازاتي
شاكرا
كميل
اتزان
اقارن
المحتوى
مهد
المتقلب
الحلز
كولد
كونفوشيوس
يصغر
يتلاعبون
مبالغ
كونان
الجمري
لسما
milan
فريدريك
علمونا
ترديد
الغاليه
يبات
المناديل
##اريس
موجب
اخليه
##ral
الشايعة
##فرت
والمساء
وصلك
امالنا
منک
##يااء
وامانه
kol
ماسويت
احساسه
احساسي
لياتين
ﺁﻟﺤ
اعداءنا
مذهب
كبدي
همسات
الرستن
ديج
يحبونك
الخنقة
بيمر
الافضلية
بنخسر
مناع
مشين
ﻳﻠ
ويلم
ماں
واقعيين
الحافلات
للمتصلين
dm
##han
##لتقى
المبذرين
فاستجب
كوستاريكا
##سوال
ولقيت
جنت
الاحصاييات
حالش
الاساسية
##شتي
رونق
يجيه
استمرارك
مليونير
##برج
ظلالك
طعم
اهالينا
اجعلك
لهن
##oth
##اطه
فبكت
تخا
وشهو
الدكتات
زلي
كوم
بيفرق
اكيد
وخالص
المتصهين
حكيتي
الاختلاط
والعياذ
فش
تخلوا
منيرا
استجيبوا
مبرور
وابدع
الشاملة
ويسعى
عونكم
والجود
تلبيسة
تعليمات
##لضع
##لفل
ﻳﺮﺍ
والتم
##طنه
الجيب
وشغ
غربا
عرايس
يغلط
البابطين
been
مشروعه
##هاه
##٢
ميثاق
عارفها
الوجہ
ﺍﺳ
##ضيء
تجا
الدايره
sat
كلتا
واعو
##لاكسي
which
##واهر
الحوادث
وسحر
شعير
الجام
بلاوي
##eer
شمت
الغيداني
##وعظة
الاطباء
الناعم
##لf
اعلامية
الخطابة
جرايمهم
اضاء
تاثيرات
شينه
عصمة
تلقاك
##نتيجه
خروج
تانى
##درالي
للناشيين
ban
نسويها
ملاك
##ل10
##لامك
تعاال
فروة
صيامه
الفاعلة
وياكي
تصريف
حلوات
جاريدو
فورتويتو
حبيس
وجاك
يطفيها
فتش
##شمت
بمشكلة
قدرتهم
باشا
الاحرام
بطاطس
يتكفل
التعاون
##isa
ينعى
rep
الطح
معطف
##هايم
يتركها
رهن
القسمة
وخلفي
جفاء
طلا
تخرف
واقبل
وانادي
غبن
جديه
##ﺮﺃﺓ
شفته
🌸🌿
##لقوا
سجلوا
واحطها
والجمعيات
مراهق
مبذاكرش
الولع
هواتفنا
##زهقش
نسلك
الحبيب
فطري
مايوصل
لڪ
يتذكر
حيازة
يشجعني
التمويل
بالهب
اصدقاينا
بالاسلام
معافي
وبقوه
لابناء
السامي
سماه
لعلم
##خنق
##لانك
ضاحية
متاحة
يطمن
##قام
##اار
الصحراوية
داعب
وقض
نحذر
الاتزان
المتبقية
تسامحني
المطور
##ﻌﻠﻢ
الاستخ
##الجميع
##2012
##جيناه
فوجد
باهم
الاسترالي
فضحهم
##ley
بسر
للراغبين
لعبور
مستحقه
##ﺠﺮ
لكنك
المطاف
والمصيبة
##زقني
ايتان
##load
ماتصلح
العمدة
لذيذه
ببلاش
عاجبه
ماخد
كربتنا
بنتك
يتوضا
بدوني
فريد
التنهيدة
ترضاها
تجارة
بهالشكل
يضيفك⛔
كالمجاهد
تصمم
يثمن
قللت
خطاء
ونسبه
الجبال
راديو
مديرك
البوكمال
رقمك
للتفاوض
##ports
🎓
المظلمة
##by
بيشتغل
تنكت
التابعي
حالت
صباحه
باستمرار
ينشاف
الرج
معنويات
##ڼ
بیا
بالاجواء
اغتيال
البلوك
وتدرك
##اروخي
رسال
##لتون
ريتويت✔
انزع
اباط
لتغير
ليله
##طات
##اتيين
يوسوس
gp
##ﻮﺓ
ﺗﺒﻜﻲ
##اج
والجذام
##عار
صلوا
تسير
العقار
##نبني
قضى
احتل
سجاد
مكروب
فاهمك
##ange
حمدالله
##براج
واحببت
مسسا
املى
ويسرت
الغوص
لنكن
وامها
جالبة
ياسيدي
الانام
نست
##اقب
اليدين
يصيبك
ﻟﺴﺎ
قاال
##شنة
فيريرا
التمريرات
يانب
##اليين
والعافية
الرابح
الوصخ
فذه
ياشيخه
##400
##fe
خليلا
دانييل
ومجال
عاقبتي
اقشر
تبكينا
الجنسية
ساقوم
مازلت
ودعا
قمتي
الذبح
لطيفه
فستانها
نرتكبها
متجها
باخلاقه
غاسل
كشكول
خدو
بالخفا
دمت
العذبة
تطرق
يكفيها
##هده
نحسم
بمسمى
##ورتة
بقطرات
ستبحث
لاتحسد
بامة
وعافي
زليت
ليبرون
##راحي
الضالع
ظهورنا
ﺃﻧﻲ
ﺗﺸ
الصبر
الطيبون
وعددهم
برايفت
المتطورة
##ثوم
اذواق
##طيور
قريتي
##riy
فوتو
تسخير
الاذاعة
وعلي
شكرا
ﻭﺟ
طفيت
اندا
اسمي
قلبہ
اسفه
بفضل
پا
العاطلين
##ربة
البسيط
تنحل
ט
مجته
هتد
نلقاه
##سوا
صادر
١٠٨
فيوفيهم
الريالات
ومتش
١٢٣
##ہیں
عملهم
وثناء
تقسيم
##فكت
##متلك
فيدرر
ﻧﻄ
بهدي
اوسعها
تميلوا
##اليا
باكثر
##هاوي
فطن
تناشد
لمقات
ﺑﺎﻟﻠﻪ
فضل
اقتنع
عقرب
مبهم
◎
تتمادى
ﻣﻔ
بص
تستمع
يتعذر
طموحاتك
معصيتك
للجوا
لقبايل
مبشرا
عساني
التحكي
زادوا
وسواتر
مانتي
المدام
##عيني
تزيد
الكرد
يشتهون
للاح
للمذاكره
##ماك
##ماات
الازم
got
للي
ﻶ
جاسوس
عاقل
send
##خسرين
ومطبخ
1981
##طش
##ضاء
ﺃﺷﻴﺎﺀ
الحممد
حاجاتي
بتعجبني
##of
الرضوان
مشددة
ﻣﻴ
👹
##الہ
ملايكة
الاقتصادي
عمليه
النووم
لخالد
منافقا
المجاهدون
وتحق
وعبد
للعنف
للحبايب
الاعلامى
الفراق
لغات
سماعة
ناام
سمعتي
جرم
بالتقوى
عبارة
😂😭
بالية
نعيمة
يقويهم
yas
اتلانتا
يبغض
##اناقه
بالني
اضر
وماواهم
الجناة
العبقرية
المساواة
اوعية
بزرگ
شاركت
الباحثين
شفى
المستخدمة
احرصوا
مفاعل
تنفقوا
##داعش
تواجهك
بش
حنك
الزقازيق
رضينا
جاور
ضاري
غيبي
والشعور
شفايك
##ياش
lovel
البيرق
كحل
##ﷺ✨
بتفرق
ويخرب
شهادتي
تلحقه
زعتر
انسج
تعتقد
وليكن
ahmedgamal
يطيع
محكم
افزع
ولك
ويخليهم
لايامك
تناوله
المجمعه
وتتحدث
##غا
##فقدت
هقوم
②
وتروي
العميري
ضاعت
ننطق
للمخ
بيمن
##he
كبري
##ﺮﻙ
ويامن
عجبكم
وتقتل
ابني
الصبور
واجتناب
غثي
السعاد
وزارة
الجماعي
واخطات
وعفوت
بمشار
العاشره
10k
حطني
ماتسمع
يفضحك
واعمقها
للاشقاء
اضاف
محرم
والافراد
❤
تاكيد
شغلوا
##صبة
لاشف
##فوش
تغيير
ديمه
مذهلة
شعندك
↓
حيااتك
حمارة
وكانهم
البشع
ماتكون
ادركنا
##ﺪﺁ
عاام
##ودها
اعان
##شيهم
واملك
رفضت
فالنهاية
بويراز
انتصرنا
العارية
##سرنا
##وقك
الاهليه
الغرفه
ورشة
للفار
اكتسب
يتفاجا
التانيه
تجحد
اﻟﻟ
رسمتها
يتفهم
الحجرف
المكون
اوحش
اصوم
١١
تبلع
وسابقى
##صبح
ياحبي
الدار
قاهر
ﺎلص
خا
ولحظة
وحدى
##💕✨
لمست
فقدهم
ﺎلجنہ
يتمني
ديزاين
##ondon
##احش
ايامه
عوجا
بوست
وحطوا
##ترجع
المخط
مستقرا
stat
اربعه
نكرر
دامهم
امثل
سيات
##ذاك
تكاثرت
عيالي
##ذيعة
##ياهم
رقمه
كفاه
يعافيك
يكول
ياويلك
ب١٠
##غنية
يغيرها
##وابق
فيہ
ﻧﻔﺲ
وهمه
مفشوخ
القوافي
اعذارك
والسفر
محرر
عطره
وسعديك
حناني
مار
والاهالي
معليش
ﻭﺭ
جحيما
بق
ماليش
التيمن
ياريتك
شايق
للاحبة
059
ماباقي
##صيا
قاسيه
هيبقى
##final
كواد
فنسينا
ماتحط
للمم
قدوتنا
##تز
ثمانين
تفي
قالتها
بيع
النبوة
##وثق
##بيانات
رضاه
##راجة
عبدالرزاق
##ختلف
الجدل
يراقب
اجلا
مظفر
افوز
سوله
مقا
اعدادات
ومصاد
فيني
تبسمت
برابط
##حياتي
##uae
مخيف
الاستعدادات
الفرقا
سمحة
##🏻
لاتق
الاراء
بعيدة
##ha
الواردة
مواقفنا
الاخلاقي
اللهب
لعناصر
اكتمل
للحق
قلتها
الضغ
وعملت
dis
##٣٧
ملخص
فوات
المطلوبين
بجسد
##☂
##⇢╮
بالمست
كذوب
mood
تجربه
الهم
الاستشارات
وغايب
##👏🏽
السبورة
##ational
المتفجرات
وقو
هتتغير
تفقدني
بيكلمك
الذگ
غري
الموا
يضع
ﺳﺒﺤﺎﻥ
##😭
الهزيل
والبحر
اختفى
##ﺘ
صحار
مايموت
لشك
notific
انشق
النس
احذروا
وعشيا
وطاريك
قهوة
##👊👊
تخطر
اسرف
عالسلامة
بالسلام
سواه
مزاجى
بالغ
سعدنا
لتحسين
تملوا
الرجاء
التقويم
ياخده
الاضح
ومحياي
##ٱء
احكم
##زنة
خجول
##عون
##عدة
ادايها
قراية
ﺃﻧﻚ
##ريقة
##👀
ادخلنا
تتمسك
##ﻠﻮﻥ
التي
والارها
icc
##بك
##متالقه
##قتل
##گبر
##🙌
درر
فكرتك
نعلم
تعسروا
بحت
##ێن
ويثيب
الاتجار
كلله
هني
الموك
وتستمتع
رطبه
صرا
ذبول
##نبوع
فهدى
ماكر
##لبن
##جميل
بريال
لقدر
صدقني
##ﻮﻳ
╭━🌹
سيرت
ibtissam
فكلاهما
وتتاثر
لزع
گانوا
الهامش
اعود
ثابته
لجين
##✔✔
يستفز
تواصلكم
ابودا
اعمارهم
0500
##ويتر
الغذايي
والبنت
##لولك
سطوة
صدقوا
اللياقه
باخر
بتحصل
دلالات
ماشفتها
ماتدري
##ضباط
العواقب
ﷺ💞ﷺ
كومة
صياما
##سلت
كهرب
مواجه
مستحيل
صراصير
هبلة
كدابه
الايموجي
فوري
افتراء
ﺟﻮﺍ
فعلها
💚
ياريس
صححه
للباح
بذرة
وحقيقة
##press
لجمهور
ماصار
يولع
بعته
##مرت
ميشيل
الاحترافية
بالصبر
##هامبتون
test
حلوه
بسجدة
العر
فعاليه
الفري
ماتكفي
للسعاده
ذنبي
##نتنا
ولينا
##05063
يجلسون
السادسة
بتعا
الباقيين
طلت
##ليوم
##اهب
السس
وجيء
فيعطونك
توقن
بريح
للخلف
للطباعة
شقيا
لحنا
مرتااح
المارد
##لاميذ
something
كوتينيو
وسبوغ
اقصي
لابعد
وفقني
موهوب
الملازم
يفداك
ثقي
##ردون
##ضعاف
جليد
الكيان
الغامدي
خمسين
الشفاف
اخترعها
الصراحة
فلفل
حقيقيا
##وارق
##مانا
ﻧﻔﺴ
انشغ
مث
تناولها
تجتاح
محسنون
الجوهري
والثلج
وتالله
ترجمت
😍👍
الجاير
##افرة
مخلدون
سادتي
ﺍﻟﻨﺎ
##سنوات
بهات
الاسواني
وقمرا
مجد
##صرها
والسيد
استاذنكم
وابيك
يانا
برييس
والمخاليق
العلامات
##نغ
شفتيها
مدرعات
فالحكم
others
غی
الفها
بوكر
معيب
انتظار
سايب
ينظروا
مشلول
بحن
##بعها
مصن
عينها
وحيد
وحزنك
تلد
##ذيل
فنان
العادية
فاتب
سيطرتها
خلكم
المغردون
جمايل
مسرع
وشرد
كتب
رابح
فدوة
الانهيار
غاليا
بامه
ويحي
خيرا
##صبا
للاف
##راده
الامع
##اجعهم
يفتي
جولتين
##تص
تجاهل
العدي
تلقون
لتربح
فكذب
fi
بيدفع
مرضية
العيدية
يارب💙
##140
اشاهده
فقره
##ida
عدوا
وديه
##احنات
التعرف
والدم
والابكار
فاصل
ماعليك
تتخانق
ياكرهي
الماحيات
يتسايل
##ہ
مكسورا
##قوش
يوتى
وحاق
يعبي
الاسرية
##حكوم
والمواقع
😂😎
الانفصال
##بطحين
فوقنا
يج
للظ
##عرض
##zayed
صلح
متشوق
ﺷﻲ
رسمة
تحذر
معدوم
##واعش
التخيل
يعول
بيقولي
بكار
قاده
کن
يثقل
وجميع
وعط
##لكل
وابسط
مشاعركم
مرف
تعرفه
يتكاثر
والهيية
مضاجعهم
البله
الصحبه
ماشي
منسي
كهربايية
ﺍﻟﺪﻋ
المعتمرين
ﻂ
لنسايهم
ويسبح
للف
ترده
##اره
فاخت
saudia
يانجم
للج
ﺃﻟﻒ
##زاني
لاتت
ابتلش
فل
مستقبلى
يثبتنا
بتوق
المقاومة
ولبس
الفكرة
##ظليل
ﺍﻟﻌ
##cloud
2007
💛💙
💙🌸
مق
ظ
بالوصول
تل
سلامتك
مخجل
واعتقد
##نته
لعيبه
##انے
smile
النعمة
سس
احرجتني
الانفولو
الاتحاد
تمارس
تعترض
بالعرب
👋🏻
عفيفي
التردي
لمجلة
##ﺝ
احببته
العريض
وتميل
معرفتهم
bama2016
نووي
وزني
موثره
ابري
ranasamah
تضليل
وتفكر
ﺗﻤ
واخت
تتحرر
##sg
كمد
ويتس
هتقول
فلست
والمسجد
للخطر
للظالمين
طايقه
عناا
ببس
فالالم
ماحل
والامتنان
كيفها
قيا
ولتبتغوا
احتويت
الخثلان
##aman
واهت
ويكمل
لاغفر
الخياط
بلاقي
بالافراج
تجع
بثينة
##قدره
قهرني
عاونه
معكن
mi
##alahwa
للارزاق
الابو
ﺎنا
درجاتها
اللقيا
التناقض
اليه🌸
الحبشة
وجلا
##وايه
mp3
##ۍ
ارسل
الحاسب
الفيصلية
وترحمهم
##ᄋ
المعارضين
خدمتكم
حاجز
لغيركم
بحاجتك
ابتغينا
عرفك
##خليج
الاخون
حققنا
ويوما
ومايم
💛💭💛
بمل
سج
غاد
قام
وقران
مجيب
بيتس
اليووم
سعااده
المكي
rm4a
##popular
ٱلم
ومغرد
ابوز
صبرا
القتلى
##🤝
قطر
تخصصي
ننوي
تشريح
امثالهم
ويهدي
العاز
يرفرف
شرها
للضغط
كسرى
##ويك
يوكل
تتكلمي
الاستثنا
كنترول
قاطع
مسكينا
جليا
لابطال
الحوض
##المجيد
المستديرة
ماظنتي
ونحوه
بجهد
احتر
يحاصر
24
واصبروا
توحشتكم
پس
germany
ﻴ
عوام
##لايين
ليغفر
العاهرة
اضافات
سيذكر
##زداد
راحه
المصيبة
مستفيد
تقنعك
تمشي
سيعلن
والواجبات
q8
##ﻙ
محال
الكيس
##ياھ
والعراقي
جهودها
ومعناها
وحسبنا
الوقي
٤٧
الخشوم
بالمشاكل
فطلب
##نودي
نتفلكس
سيجار
اخلاص
المعاش
تهاب
اليوم
##موع
المرحلة
اشرحلك
وحبس
📱
احسست
##لاص
بزي
الخليل
وللس
تعليقكم
المانعة
النفسى
الاخطاء
جارا
فرطنا
سيحضر
هبوط
اوديني
طرقها
يرجف
تطلق
##روش
ومدرسة
##الفر
148
كونس
البترول
##زاقا
يرتل
البلك
مدورة
لقصة
نسلم
ذايقة
والميليشيات
البويات
شكليات
ونتايج
شهب
يشاركك
بقا
راته
##اشه
##فيه
شعبا
وبعدي
وتصرخ
اختباراتهم
##ري
هيبه
جداد
المقاومه
مناخير
للاموات
##خدم
اختلافنا
wine
لغيرها
april
تكاس
##ظلين
مازالت
والاقدار
وداعا
##قار
استيذان
اعتراضا
ثرو
ولاتا
اجركم
فاسده
غنية
شهيق
الرشايده
امعه
الغواص
##طاق
ايت
خلصانة
مقدمات
ذلحين
##یہ
متدين
لجزء
شرط
تمسك
لذكر
الصليبية
##ug
زمالك
بمز
اصداء
##بابوي
ضلالا
الاحجار
لاتسوي
بذاكرة
نبتليه
لاجمل
بارادة
ووع
فتمسكم
عى
انقذت
سالما
جيسي
##ناوي
##قشه
##ستهلك
غيبوبة
ويختفي
قلق
بلوت
مبين
تلمني
سيصوم
##😁😂
وقفتك
وتوسع
يرفعك
دعك
مسووليه
وايق
الزنزانة
##لڤي
وابدل
الكوارث
👐👐
لمه
هديته
ثناء
يتمناك
غريبه
بالجو
العوايق
السوجو
##ينيه
والمس
جنات
والتق
يسركم
ﺍﻓ
الكارثة
بدنى
##واليس
##👊🏻
دخلني
ليظهر
الواقف
مكاتب
ستخ
سياسات
بالمول
مراقب
مغسول
شوفها
٢٠١٩م
بالده
مقومات
كعرض
نحن
والعظمة
عمتي
فاصبروا
خيول
وحديثه
المزرعه
يخلو
محدا
فخري
الكنيسه
🕊💛
زهر
بضحكه
بالمواطنين
بالاحتياط
##بهو
الاغ
والعقاب
وظاهره
استعيذ
ايكيا
معتدلة
واشتيا
بالحاجات
بشفايك
هذا
##كتاش
💏
للمساعدة
##عبت
بالانضمام
ابش
ينتقدك
نمل
دلالة
يرهقني
##404
المتخلف
ﭑﻟﻟ
نفس
البدو
الاوب
##سفش
لعدم
تبوظ
😍😍❤
##اعل
ضاربة
يعرفونك
##زى
نمام
اغتنام
مراة
وزدهم
##حامات
ياج
اكذب
بسرقة
فاتوب
يخطط
ثمنه
بيذاكر
##هال
##زنها
🎶💙
استعيذك
ونازل
بقلق
بيقف
المتخاذلين
اذاقهم
نافل
تدع
جواري
الموضع
دانيلو
والوفد
وصحت
لروحه
هييات
ملقوف
طامعين
وازمنة
تغار
##📯
سعة
نخش
المحيسني
لسنة
يلاا
الحقي
اصدقايهم
وعقب
واحبه
٦٣
اعامل
abdels
ﺗﻀ
##طوط
تعودنا
##فعله
##اذه
الميك
##يشيرت
راسل
المسبحين
شعريه
نظامية
الاجرة
شعله
win
واقوى
اياكس
لبلاده
ابوح
اجمع
شوك
ساكنة
##روت
غطاءك
الصراصير
##انهم
وصرخ
##ﻣﻟ
##هودي
وضرورة
اكلمك
يتد
سنينه
بيعها
فستق
هيح
بالجهل
شصار
جبور
تكتبها
والثقة
يجن
##جيم
بتمناها
خطانا
حولكم
نيہ
مايخيب
الهواري
جايه
دوبي
للاستثمار
##ونہ
ويمددكم
كلفتموهم
واحر
للايجار
باليسار
##🤚
متوازنا
احببناه
ﻟﺴﺖ
يخونك
عاهدتك
اندب
فقيده
وجنته
خريجو
ناطقا
وكبيرة
انهزام
بالضياع
الالماني
محتاجها
يركز
يميل
سمحوا
دونيس
##١٥
##شمها
واصرفني
تكونو
اجعلوها
وكانها
تداخل
##هنا
فاتكم
تكسرت
يفي
محتج
ظلك
##ct
##azine
##ستغرب
##حميك
##صيص
بافت
تقدمت
مضطرة
ودر
دخي
##any
المتداولة
موذيه
لتوزيع
##شلونه
بجمله
ذكي
##وها
تحد
للفن
##زينة
cal
قراة
المحترمه
ماض
يشري
الكرات
ﻟكل
##💕💕
رقمي
الازواج
فاستبشر
فاكره
ويتوب
جداني
##ites
برقية
مستقيم
والصدقة
منذ
upd
وشري
ماعمري
يرسمها
تحت
وشهر
عهدناك
اتظلم
هتفهم
خذ
الفاضية
##ﻔﻪ
اغيره
اشتكى
forc
ويضحك
سحايب
وسهرت
##ويهري
الملحة
تصدي
لقطات
السفراء
الاسلاميه
بالماضي
لشو
ليغان
تطلبين
اخطا
اقفيت
مشاركتكم
##فوني
بالطاقة
وارتفاع
تشغلنا
ثلاجه
حرجة
##ﻤ
اخوه
نستغفر
##فيهي
🤔🤔
حکومت
والب
بدكم
العاب
مذكر
بحما
محزنة
الفرس
جوبر
tab
حدهم
وسري
سيعجب
ليبهرك
تشعرك
حلوو
عامر
لاته
ياخدك
##ﺎﻑ
انفي
زمانى
sy
مشرفا
يشتم
ﺍﻟﻐ
##★
توحشني
سنابات
باكرا
حاسب
##معة
الة
رغباتهم
اشتقنا
##😔💙
اخفيك
##👋🏻
وكسرت
##😊💔
##رامية
رعاياها
شهوات
مكانا
الروبوت
ونشوفك
##طارق
للتعذيب
##🚑
##adel
اشغلت
وتقد
😎✌
بطريقته
تعمق
سوريون
بياعين
محستش
اهداه
خليجنا
مقولتش
بطيي
ارتط
##يهم
##a
والهي
والحسابات
عسرا
والوحش
##احي
لجامع
التشي
المتميز
التمني
اخوته
مبنعرفش
طيبين
عودوا
اكتبوا
سيدخلون
يتعم
سبلا
ابا
نستغرب
woman
##ﺨﺺ
بالسب
ياشارح
##امر
الشديدة
سوءا
اردتم
سذا
فلبينية
##اسن
الكنب
##باهان
بيقول
تياس
خادمات
aime
نقل
مۆ
اﺟ
عصفورة
##زعلوا
والهمني
وتارة
##ربته
انقاذه
موبينيل
والعجز
##صورت
وماعرفت
واسلم
والقريب
محفورة
##ﻭﺩ
اقداره
##لاب
منقطع
هاتها
طماعه
عيت
بالشمال
##rm
##حسس
##😷😷
قرو
الدهشة
##اتبه
جيا
تادي
##جعة
تقفل
وحش
العزيزه
وضوح
صحتنا
لیے
##ايق
رافاييل
والدور
حدي
تداوله
نبعت
تنسوه
##سطه
والاعلام
بارا
توبتي
اريج
ذراعك
بفرق
فانت
ويذرف
طارية
الرجاوي
نطبق
الشنيف
لاحمد
##ury
المعتدي
بطايرات
وترج
بترجي
نقولها
والاقدام
ارحمك
اللحود
فمابالك
امهاتهم
اكلتك
قربك
بياثر
غتر
انفر
استبشر
وفوز
بيشرح
المترشحين
تحدثوا
بيعبر
باجواء
##🖐
انتهي
فيد
##😔😔
واعاده
۞
خصوصا
غدقا
اخذهم
مسمار
##داي
العصرية
##زحه
گلہ
العوفي
التل
fun
طبط
فقهني
اخبارك
tri
بصيام
##عابي
يامر
متمسكين
القبض
##مشي
##۩۞۩
وغنية
##ى
ask
غرو
مسعود
فاهلك
يكفى
##ve
بروفي
ومور
##ونتادا
يصنف
مارجع
ﺍﻟﺒﺎ
مرشحكم
صاعد
عيدنا
لافت
الزهد
ادورك
بهالم
##خصة
لقني
لليفربول
تركيزك
الدحيل
العراب
ميجا
انفصال
##💙💭
ازالته
ينادوني
##غلي
مدريدي
المايه
الاشخاص
مضي
وعايشه
💎💦╭⇠
رهبة
bt
ادعيتكم
المكسورة
133
وجاد
##انها
creat
عمار
عقاله
فاستخف
تختنق
لوكوموتيف
والسكر
##حدث
فقالت
لنصر
اورويل
##كمة
حبت
##♦➎
ونسعد
عاملني
##فقود
بصحيفة
جويل
تصبك
وبركتها
رخصت
تقاب
الهجر
ومايش
بحبل
عضلي
اليمة
وتقسطوا
لعزيز
بفتاة
ونثق
الربانيه
تواصلوا
الاهداف
واهمها
الساحلي
المرتبة
ولايعرف
نخون
##💜💜
ذاكر
ينتفض
##roid
هتن
الشرور
مالعب
والمراجل
ياالهي
الوابل
الرفيق
يغنون
##تدي
الخيريه
children
ﺍﺣﺪ
##لايا
ودخول
##ذال
##٦٥
##📚
ويومك
اليديد
المقبور
خاصه
تكدر
الرايه
اخرها
سوت
##eb
تاغ
سيسجل
المقادير
خمرة
وعافيتك
الشاذ
ﺑﺎﻟﺤ
نفض
كت
تلب
اليوفي
اتباعهم
طوال
قابله
لتمحي
##ماض
تعايش
❤😂😂
تعطوا
بكلمة
##ts
كفاءة
عاصمة
المنسية
لفهد
##ويتي
بخالق
الجنب
سميك
##صار
واعظمها
##ﻟﻢ
الاوز
صورها
فرانسيس
واليدين
وصحيت
صديقه
الخارقة
الطموح
تضيفني
الايتين
هتمشي
يبيح
وجنى
خطيية
شنايدر
البشارة
واحباط
السجون
الاصول
التطوعي
الخمسين
الصديقه
##ﻮﺍﻝ
كلہ
دايماا
ونورها
##ليين
##لعظيم
##ace
🍇
حافين
##sn
ليكى
المراجل
##لاويه
لوسم
الدعي
يوتيه
ذنوبك
بطبيع
نفوز
فريقهم
تتقون
بی
تزوجها
حسمت
😺✏
##طيه
وليد
##طوا
##كنن
الاسرار
فاني
##غلت
رويتك
الرواس
🇰
##اطي
جرافيك
اطلق
ويدخلهم
تلج
راسج
رحله
فرات
اختج
##ﺮﻑ
##يش
تضرك
بحزنك
عرفتي
حضرتها
وباي
الموثرة
دورتموند
وحقيقي
##رايم
بالمدرج
##ksa
ملز
ياطويل
ورغبة
ياشيخ
دعانا
لمعرفة
ياسطي
المستعملة
الابحاث
الكرتون
الصو
وحص
اظل
تطعيم
يخرجون
هيف
الفذ
بالزواج
يتولا
اصدقه
منافسه
قراي
اعلمكم
افي
رايق
منگ
يمگن
بليند
رايتك
ندو
تنخدع
نستطيع
طبيعتها
الاغبياء
فاتته
وانه
التايه
شيخ
ولايب
##دتش
هالحب
##وجي
بومة
هبقا
##ive
ظاهرين
لايهمني
تطا
##يوم
هيمن
المفرق
زايده
العماره
الحميدي
الول
تحسبني
تقشعر
شور
ويتعب
##وبد
بالغت
صاعدة
##بطه
##سيع
الاجنحة
##💙✨
celeb
واهجرهم
بحفظه
بوجودهم
تنزعج
الغنيمة
يسهلك
مانجا
كسم
زاير
حملة
##قرير
بضعفك
لبنة
الماث
فليكرم
عصر
واحش
المنتسبين
المونتاج
المهي
تسميها
وحزب
المجيدة
التشريعات
يشيع
2013
بزيارة
المشرفين
خواب
بيرلسكوني
ومعار
##اطره
بمم
🤷
اترفتم
حد
ابيہ
الاكف
التجاهل
الضغط
##زق
بكدا
بحص
ينهض
لقلبك
اﻟع
غافل
بب
وربه
المجتبى
عنقك
وتعاليت
معنديش
تعجبني
والمطالبة
يستهدف
96
##ۆ
تجاهلني
ﺗﻐ
ملخبط
فشوه
##تدين
##5
قصيدي
فانوس
00م
املج
القرابة
##ل18
🍒
بجواز
قعدتي
يحشو
اجر
بثلاثية
##hi
تقويم
قطوف
ماسة
الرياحي
ذباب
احذفها
ففيها
🎼💜
##بيبتي
يستوطنه
يطبع
الشيوخ
المعقدة
سلبية
👩🏻
شجاعا
اعلانا
يدوخ
تشيلي
قسمنا
جروب
##لمون
حشيم
مغ
مويس
القاسمي
واطلاق
وروحه
بتقولو
##ღ
الجوايز
يستجب
##هار
واربعين
اليوميه
مااست
ﺍﻟﻴ
افتتاحية
عنيزه
هتتحل
بدينار
غصه
تاجي
بالتجربة
فمسح
يثبت
بسج
مووي
الابراج
الاخص
طرطوس
لاحلام
مباح
تقلبات
امنوا
نعرفه
نفطي
##راهن
##احية
توگ
لعملك
لشدة
وممكن
تبذير
ناتي
ودود
بتحبوا
نوو
حيس
خطوتي
نقطتين
الاقوياء
غديت
يباارك
سورية
اغا
الجوادي
البقدونس
للاطفال
فقنا
فقلنا
مقتا
تحكمها
##فاره
رشت
فطوم
غمامة
النق
افتخر
حدثوني
##لبية
المداوي
##✍🏻
بالنص
بغيابك
😞💔
##ييا
للهوى
بالرش
منصات
ويوسع
ثرثر
sick
##نعيم
##alli
لافروف
سيرتي
مطالبنا
عبدالمحسن
التعديل
الاقنعه
goal
##دي
وحضارة
cc
القديرة
تقصيره
كاظمين
💙بطريقة
ٱلله
مجدا
اعتداء
لايهم
##شوفها
المحمود
سگ
مابغ
ردو
##لستر
ويضحكون
بالفترة
الشقاوة
بامور
بهزيمة
العقلانية
##طية
وعملا
سيدات
تفقه
مشع
بالعشي
ستاردول
واسعد
اتوبك
̇
والمصري
واليك
الدعوات
عملتلك
الياس
وفيصل
dance
ﺩﺭ
الموقرة
يبعثه
##فوها
🇸🇦💚
##خلونه
ساذ
والمدارس
يذم
ﺗﺠﻌﻞ
خلقكم
##ته
يسلمو
##زيا
##ﻠﻲ
تكساس
وللص
وتحدث
ﻭﺍﻻ
##ستاذن
عربة
┈┉┅━❀
📻
الزبادي
غسان
تمريرة
##امنا
میک
قلا
كومنتات
حديث
تحدث
وسلاح
مردا
##وصة
طبعة
محدش
هالكلام
تكن
##واقع
##رفض
حبگ
🛑
مولانا
تعجيل
اقبح
للبطل
ولب
##ظك
الثقلين
اجتما
محتاجه
افراق
انفجار
بسقوط
وفضح
ومهد
الاصيل
👉
ملاذ
اجهاض
الرص
💜💜
##بادر
سخروا
الجذع
لوطنه
ومات
وفخ
الانجليزية
الصادقه
استمسك
3d
##قالة
الملت
##ہہ
البسام
محيي
عليين
جهدهم
##ذبات
ابتهال
ثواني
ومعهم
واوقات
تحفه
ابويه
وعيال
يمنعه
راكيتيتش
ﺍﻟﻤ
برعايه
الرافة
##انينات
التابعه
##فسي
التحايا
وقضينا
فصايل
مدعو
ووجيه
##راند
قالتلى
لليوفي
وصالك
اتابعها
تتولى
ناصيف
ندرك
راايعة
##وبية
##سافر
ﺣﺰ
المواويل
فاحمد
اهديتني
سابه
##❉
يعده
لنفسي
للجنون
للدرجة
سعادته
وجودنا
😢😂
صغار
الفواصل
والعافيةفي
لانس
وعلشان
تفادي
والصيف
وتشريد
يراقبك
##لانس
تفاول
ادمي
واغلالا
اطيل
بلج
ابعدته
لعنهم
قبيحة
توفيقه
المسيب
بالفلو
محايد
##ump
اجتهاد
✥
ps
ترتك
🏹
قراراتي
مرو
ﻭﺃﻧﺎ
غافي
جافا
جيلنا
الاضحية
كشخة
حواري
توسط
الثمانينات
وهدية
الكول
لجعل
خال
نبيا
تذكروا
ولغة
برودي
##omy
الحصانة
##261
يتحدثوا
🇯🇵
امنيه
##للان
براه
والشيوخ
##رز
ظامي
احباطك
بلقاء
قلبو
المظاهرة
فمعه
⬇⬇
ﻭﺍﻷ
شاء
بيكم
السنان
##→
##چھ
وتعلن
الكراده
دبل
اكاون
عاجزة
مناديا
باستطاعته
ميامي
يبيعون
3
يشعل
تغفر
العدوى
🇲🇦
##عرفي
ووضوح
الفتح
الاضلاع
الاكتياب
ولايح
ڪ
الجمرات
قشعر
اتيحت
اتكل
نبه
اتعلموا
سک
تجمع
قناص
اهدافي
که
##ﺘﺢ
الموب
الريح
غاري
المقارنات
طيرك
امواله
حقايق
ينامون
##يريكم
للصناعات
احوالهم
هسة
فهر
تتطاول
اعارة
العالمي
##ﻓﻲ
تعريف
##f
والوعود
لحضنك
ببنت
بكفالة
يعلقون
اكلات
##ﻔ
🤣😂
انزا
han
الكلاس
كروز
تودى
يفاجي
ودعواتي
##حبت
ثلاثين
تمتلك
ولظلمتهم
راجي
وترجله
للصم
وتدبير
الفاحشة
وميسر
زوروا
احضني
##ظاهرة
مصي
يرتحل
مومنت
العمله
##قبلكم
هاشم
news
شتى
بامل
بلوغه
وزمان
بالصالحين
ولوطا
الطبقه
حصنا
منعش
##لالة
وعلا
سفاح
مراهقة
ثيابه
مب
بيبين
##صلين
البصري
المقا
العزل
مرتده
النمام
بتي
المحت
الاتى
ڤي
جوع
##phet
تاخيره
الفداء
يق
ⓜ
پارٹی
مجزره
لحفلة
١٩٢
يتوقف
##خاب
العتاهية
يصوت
السلطانية
مايسد
مواعيدك
يعنيه
##يالات
death
ماتقوم
بالنظام
##ثن
وهارد
انوه
الاخونجية
💭💗
لسيارة
##طت
مبرر
والمرء
المالكية
والسل
فاقدينك
عرضت
حواس
فرانك
ماعندي
وتاب
المعتمدة
والصافي
جعلتهم
الاعلي
ظروفنا
محمد🌹
اتوكا
بيخسر
##ونص
##iyah
اعانكم
للمدير
مرات
وضحك
سلوكي
والتوجيه
اسط
ونف
محمد❤
##ستها
هيقولوا
اتري
وقهر
للاتفاق
تغش
منحها
تتساقط
يكبر
متسلط
وجيه
الاعلاميه
لمجنون
##انع
نكهة
ولطيف
ايرلندا
تهكر
فواد
معنوياته
الدوار
واح
واتعلم
##رفين
والواشمة
للسعوديه
تعددت
نظام
السنتين
بالهو
caf
مخلدة
النفس
والاماكن
الديرة
نذرت
انجليزي
اشباه
ﻧﻌ
ہو
الهت
ببور
الاقلية
تصميم
##دم
بتحرك
باولو
افتقاد
الوسطي
نوعه
##ows
يجهل
مبسوطة
ز
##irthday
مجهولون
سلمك
الزوجيه
مخليني
البشرة
ماقصر
يالبى
درزن
والعربي
##board
##رتين
ﺳﺒﺤ
الغاب
الشي
واشتياقي
الباطل
برقد
##سرت
واعذر
وجماع
يسترنا
ڕ
وانواع
were
تقابل
##وطه
مستريح
مدها
ولزم
الدرعية
يشربها
اﻷشياء
عبلة
##لم
بدعي
##٩٧
ياسمو
توذينا
##صاح
##رتو
ﻟﺼ
البندري
اقتنا
طاقيه
يخلون
😘
🏁
زال
كورة
بتطلع
حييت
سيوتي
الفاصل
وخشعت
احسانك
ﺎلش
ارحموا
والاسته
خيام
فاك
تفضلوا
اعجبت
ايف
رياديون
##خلها
كويلو
##ينا
##جيين
استع
بيغني
محول
اتحاديه
##امنة
بكلامهم
المهندي
متابعتك
ﻣﺠﺮﺩ
واخرين
وحنا
بتو
##لعه
مكبا
بتخليني
ممتعا
ونصرها
لاسعار
الفضلاء
نرمي
دانتي
استعبد
وقايدها
تواجهني
ﺍﺩ
مايسوي
عباده
##قاتلين
##خي
والبح
155
ﺍﻟﻮﻗﺖ
زبه
انشغل
احادث
اتاكدت
للمستغفرين
حسنة
عتبات
##اں
🤗🤗
##لخ
الفلسطينيه
لعبدك
وتاخد
لحض
الحلق
ويطعمون
وانثر
بمنطق
فبدا
السياح
شارة
ويعتقد
الهروب
والامن
##عينوا
ظابط
مذبوح
اقنعة
وجز
##لرب
##سى
تويبر
المجتمعات
يعزف
رفاعة
فاقم
##❄
يجمعون
وعيادة
400
##خى
شگ
ومك
﷼
##لقون
الرميحي
وسالم
يكسرك
اسديت
##🤲🏻
〰
00
بقاا
##ياذ
ويغفرلك
بتحارب
واحكام
المبشرات
سلوكك
شبكة
خفا
وقف
هتتح
امراضها
واصبر
##حصلش
يوخر
اللحيدان
##ادثة
وبعت
##عد
جماله
وربك
المكروبين
يشغله
بغداد
خبرة
##🌱
✍🏻
اتباعه
الجاني
##559
##ﺠﺎ
##😂😂😭
غالي
ضيعوا
##جري
مالله
فواز
المفاهيم
توفيقا
تلس
تشكل
والاتفاق
السفر
##قطة
بالقصاص
اكسبو
نظريا
لهون
الحقيقي
هكتب
##وابة
وعالمي
##ﻝ
المنديل
المقامة
❸
تخل
تجاهلت
شتمك
تعرفوا
وجعلناهم
مرتاحين
ضررا
والعاملين
اوي
٢٠١٣
الفواد
فرحته
تلز
الميتين
تميزت
##٢٠٠
##واحش
وتمضي
هاوي
فيرج
اطيب
تطبيقها
مافيه
الموسي
##غفل
الطور
##ﺪﻡ
اناا
شعب
بقعاء
##جيء
##زيارة
الغير
##ual
نسمي
##olly
احترم
ودان
##وتش
قواته
مدافعا
##👏🏻👏🏻
وخبر
حصرى
مايقوله
التيارات
يشاهدون
مسيار
واستحقاق
يمارسها
150
##⛅
اجمد
وعساكم
دويتو
🤚
اسالها
الكويتيين
##💙💙
الديباج
الماضيين
العضلات
بالكورة
##ba
السويط
رعب
##بورغ
cour
تشرب
وتستر
👏
الحقيقة
بوقتك
اقتداء
والطبيب
تولعت
الناشطة
تخجل
لعبدالله
بقبول
##وازي
مستغنيا
لنقل
يستلم
بطلتك
##جف
اريك
ويقولوا
يتكلم
بقبره
تعويضات
النعامة
بحساب
الضلع
الجماال
تطبيقه
خونه
اعطي
الضفدع
اطلت
كلامج
تهبط
تكفه
وياريت
سووا
تريدين
الكويز
عروسه
ابتعد
##اصلة
جسدا
متشابهة
الدفعة
الحالات
ركعة
الخطابات
##ربات
البراء
##وثر
تثق
بقياد
اطف
فاتحين
خوفها
بجنه
نفسكوا
🤲
هيبتك
ماغرد
عمتك
ايحسب
عزا
فروق
الهلالي
مدرسه
بانك
شياب
علی
##وتهم
محجوب
وضاع
كرتون
##بيون
امتلكت
بشفايه
##واله
لحمة
سمرا
شايفك
##فاض
مايضرنا
##💯✔
لمزة
##😌
ترش
ⓜ②
##ودنا
بنحبك
احتجاج
##كاتره
تقطع
لحجز
وانتهاء
السيده
سيجبرك
##ash
سبلنا
واحترامي
جهو
وبو
الاوزبكي
نجوم
غالية
كارد
للصيد
االف
وصيانة
als
وعلانية
مباراة
تجعل
صعبة
الشوك
جدكم
##👬
الشربيني
##قيقية
بعمليات
شعرى
##ابان
ربهما
باقصى
عاشقا
##گذا
سناعيس
##جير
التاق
يتسنى
طرى
تطلع
##لايي
والبه
مده
ٱلج
ودرع
وضحكه
##ربيع
گبير
بمركز
##ينيس
المنى
صاحبتها
تشره
اجلاء
البغيلي
باضاف
##att
##عبدوا
عزك
بضر
واكرمنا
ليبقى
₎
الفاسقين
ابدلها
التنظير
##حاز
والتذكير
الغيب
يتفاهم
فبشر
العينا
بالكتب
همزة
تتاقلم
الكشافة
ﻭﺍﻟﻌ
الاڤ
##ديقي
سداد
تواجد
ووضع
##وزو
كفاره
line
تابعه
اعلنا
كون
##انی
الصبايا
اقالة
الملحق
اسامة
والقناعه
##يی
وسعة
لظلم
الشيت
فاكرني
لشكر
عايزنا
الدخل
##وغة
فيستجيب
145
وعودة
لمركز
بياخدوا
والاستفسار
انشيت
يملون
وزينتها
وخساره
ساهو
هرمونات
عالسريع
استخدامه
مرادها
##تكك
شفايف
والاجمل
بالشاحن
كاظمة
##غيوم
وفجاة
وحن
msn
داتا
رايعين
##😩❤
منهجه
لاخره
اخذنا
الاغا
وساند
حفظها
تعذيب
اوردتي
يومياتي
بدفع
وقياما
يستهدفون
العشاء
دلوع
وقاره
يوث
يحكيلي
براڤو
##ere
يعلي
برعايته
مابها
الزعلان
يستلزم
الريش
لبعضنا
يجمعه
رييسهم
تداويه
والاقتصادية
لقنوات
اختر
وياتي
والظلم
💦💞
ونورا
خليتي
ماشبعت
روابط
math
اخذتني
##irat
الحل
عناصر
##شط
نگ
الناقة
##يركت
اشكوا
والرس
فعاليات
men
صارخا
سرنا
الخزامى
اردنية
عقابا
##وحشنا
وحلوة
الفوتوغرافي
الاسري
دہ
متك
نكتبه
##ebai
##✅
##rist
وحديث
بكك
سباليتي
مايضيع
الشقر
وهلا
بارواحهم
السرعة
اللسان
يعجزون
قضبان
ft
ويخوف
سامبدوريا
ماهى
فيزيا
وكملت
تاملوا
للبطولة
اخوتي
حراك
كثيير
فكنا
صلاحيته
##✋
add
يباس
بحبي
##ھل
اتاقلم
فولو
🌹اللهم
وعايز
ممارسة
وااحد
اساعد
صوتگ
اماطة
رص
اليماني
السماجه
غزاني
هيحط
للموت
##ضرب
🔥
والتين
انشهد
بﻻ
طاہر
انهيار
فننجو
##حينا
🇱🇧
حيلته
شيق
الصوره
شيءء
no
وماعندي
وكلامهم
ستتحول
##ثهم
وماهو
سولفوا
بالكيماوي
تصلى
ﺞ
بمد
ولاني
call
تنطقها
لعيني
ياليتنا
متعد
مرضي
كاسي
بالاكتفاء
بيدنا
وحالا
لنجم
😎😂😂
والفرص
وتحسين
##وجات
للحسابات
ومحبي
ثمرتها
##ﻮﺍﻟ
##ہء
عينيگ
نبذه
رتويت✔
سميتها
ومليش
بالف
##سهم
##05
تفجعنا
يخيل
روبرت
وحلمك
المكث
شتم
مرغما
فاخبره
اهنته
ﺃﺷﺨﺎﺹ
باال
ذلک
لوگ
الطويل
محماس
فشار
بالنسباله
##طهرك
اهاليكم
الاولى
المتطرفة
الفلس
بنحاول
##اكلش
يكسره
##ood
##💔🚶
المعاق
ورده
المعيش
متعبا
نيج
ﻣﻋ
اطبع
اطلبها
اللهي
مشاغل
احترامى
الفضفضة
ابتساماتي
نصفا
للمعاقين
التقلبات
انجام
تعظيم
الاسماك
ايدج
يواخذكم
هايدى
وسطا
شايلة
1960
تكفيني
al
يتدا
خﻻ
العون
تصفيق
المعلمات
وسيبك
انجر
سبيك
الشهري
##hammad
بيلاقي
التبرج
##abbas
لعيب
متابع
البرغ
نكلف
عزيزة
ليكبر
اغمض
كافرون
dub
##شرين
الكهف
زيج
وتفرق
داك
نقضيها
##هاء
فعلته
منحة
يونج
فانزل
احشم
التدريبية
كل
ﺃﺣﺐ
للشرع
crush
تعوذ
يربط
اوريجي
اقوول
هذاا
جانبك
##كش
##ز
اليهما
اانت
##ودو
##edd
┊┊
ملزوم
ahlifc
لدول
الشرايين
ستدخل
زدته
ومتاكد
وعايلتي
##ارهم
الشور
يقار
بتكسر
هدومك
جمعاء
وكون
##gin
بالعرف
يسال
يامع
منسية
عالبال
##خلص
it
يغلقون
طموح
يزعلني
مخدوع
الجهله
البليد
الجايزه
##يصال
وتعلمنا
مواثيق
نازلين
##عكس
##صيد
المهتمين
😂☺
وبداخلي
جافي
جيعان
ينقص
##21
لاتح
##🌺
الاثي
خصوصية
تشفير
طبيبا
##ويله
نتجوز
##ڳم
اطباع
المقدمة
اهلهم
النقص
وتناس
عانق
lbc
وخلاك
ﺗﻨﺎ
لاتسمح
ونراه
##━┅
عاب
وجدناه
اشكركم
تلفا
شخصيه
##week
المروءة
رواها
جنگ
وصاحب
##وز
##51
ماكنت
غربي
##فتر
للشيطان
##💃🏼
وفير
اطيعوا
162
تفاعلكم
بتعب
فكن
الاشت
والحساب
لتطوير
##c
##جبال
##انكم
حسناء
تخبرهم
ﺍﻟﻤﻜ
البرش
🎼
##ايفين
بعتني
نتغير
##العم
وحصار
##الكل
ومفت
حسابي
حقوقي
##caf
٧٤
مبسط
يسلمكم
حبيني
##عيشون
مﻻ
خاطرى
يامحب
بقايك
التبانة
التغير
يسرها
##تيي
رعايتها
بجلس
رمادا
##وسبورت
الزهرة
##ماال
احجار
والمقا
مراسل
##نازل
te
زالت
الفصل
##يره
بيعدي
لكتاب
نرفعها
واللجان
شخبار
اعصابنا
اصدقايك
ch
##٩٠
##صحح
ﻕ
والفض
فليحفظ
##form
انولدت
🇦
للشك
وامنيات
السييون
رتوويت
وترزقنا
الاحتساب
والاستاذ
بيعجبني
وجلد
تطفي
##صحيح
ولعل
مرار
يترك
والياسمين
قضايية
كلماتهم
مايجيب
وبالاخص
لشرك
لوحدة
كاتي
لماتت
يحرص
الكان
وتصدر
مخالفة
##ذري
سنرضى
المختلفه
امنواصل
وخطي
##enge
##١٤
##لغ
شتا
الدفى
الخيم
##🎊
ملوخية
بلم
علقة
مجبور
فبركة
ترخيص
view
يستخفنك
الضمان
🏃🏃
للصوت
توصيات
والود
مدى
قولتهم
012
ثمن
##ﺬ
##رتويت✔
فع
الذي
تفاج
الاصلي
السمكة
وسط
زعران
بشري
واخجل
اتطلع
متوسطه
ليكوا
بالتاق
غسلته
يكرهون
شسمه
المشيقح
صكيت
دفين
💔😢
موشك
ودعواتنا
مومنه
تهني
respect
مقوله
سيجد
الكشخه
معروف
ﺍﻟﻠ
##عودين
الكن
والنجوم
##قرع
للايتام
الصداقہ
هيشيل
مهره
لروما
مبارياته
qurani
يجزاكم
جذابة
الساخنة
فراغ
خبت
تستعج
طايفة
قرر
##شهري
يضحكون
معصوم
مالوف
اتمر
فسخ
والبسمة
ذكرتهم
112
غروري
عجلان
علاوي
##عضو
رفا
طمن
راهنت
الذووق
##دد
تشغي
خوفك
🇬
اندلس
غضبها
ضيفنى
ديارا
##ﻬﻤﺎ
هوي
##azz
للاه
لنعمك
تملي
nike
وسحب
ramadan
الضايق
قبولها
اتكلمت
اكلمه
تبيض
ايفل
للمعلومة
##نانا
##ﻂ
تمعنت
والجبال
اتركوا
نوه
ﻳﺴﺘﺤﻖ
اهتميت
اندفاع
##الن
##aper
تعمقت
بعقد
هينفع
ﻳﺪ
ﺃﻫﻞ
الانبهار
اجممل
وكلاهما
بركات
عصرا
الرفقه
##ﺗى
متسالش
##وجوه
عاق
يااحمد
يعيدوكم
يبه
تهجرني
الامريك
متنا
يصارع
بهموم
لانفضوا
عسيرا
وحصد
وبلنتي
##ڤو
ظنون
المقسوم
ستعلمك
ورزقكم
نتجاوز
مايطلع
ﻣﺴﺎ
طويلہ
##ايمين
##طلين
وشيطان
السياسين
للريح
وهمومها
يعترف
بالجميل
##رفش
##لدة
وتابعني
تسنيم
شورا
كانون
غام
القايمة
بالذنب
نجله
السايح
##وتى
##😭💔💔
اتا
لطفل
عشناه
##abdul
##😆😆
ذوقوا
العصابه
المظاهر
ساهمت
العسكر
##يص
وسداد
##faisal
الكيما
##قطر
متخفش
والشت
كشري
حماره
يتوصل
##صوره
وكرامة
بتصل
هتبدا
وكرامتنا
سيكونون
اعتدنا
بتجيب
تعامله
اذكاركم
بالمعلومات
مميزه
متبع
انهردا
بعهد
تمامها
مشجعة
نضيفه
تعالو
والاقوال
راضى
واللحظات
نزلو
[SEP]
يمزقها
الراج
دروبي
مايا
بشوفتك
يواصلون
المبرر
الاعباء
هتلاقيني
يخلفه
اصوله
الفراولة
##لرو
التاجر
##عبلات
-
ثلاثة
منفتح
الشلوي
النجاشي
وبحاجة
استغلاله
المبتعث
يظهره
المبصر
ملامح
والصحيح
تاكسي
اتيكم
توتنهام
همزه
البليهي
جمعا
ﺛﻘﺘﻲ
الگ
لدي
لايخاف
بايه
قالي
وعطر
معروض
والنشاط
اخبرت
خصبة
يووم
ممتلية
بغزارة
الشمسية
يابوص
استهد
قضيتنا
##ﺇ
توست
تغريداتك
##جيله
تهدية
للشوارع
بتموت
تغمرني
يمكنه
بالرحمن
##رت
استكمال
ماتر
قضايه
feeling
##شور
امازون
##دايا
وكسبت
##ايبي
بترقص
وهو
ماتريد
وواضح
##يرنا
##زامن
المفهوم
للقرار
##ﻧت
لاتف
طفلين
مخاليق
اغننا
وارسلت
يفيدنا
ظنوا
النعمان
هامش
تحاكي
نبوح
##ذاكري
##كر
وانهي
بالنور
انجس
حوض
فاغفرلى
الصاروخية
اكره
##ايهما
والقصف
الانتخابي
مديرية
مغريات
ونشرها
ابقيت
كجزء
اسماعي
##منها
ونبكي
ﺻﻼ
##تمامه
##اعلى
وبشروا
فلتاته
كونك
##البة
زبن
الاستغفال
تنالوا
واصفح
وجنات
التليفون
##ﺎﺀ
المعجزات
178
وشوفت
الكونف
عطى
ﻛﻢ
0540
الوطنيين
وسيارات
قولته
الضباب
فرحلة
يقع
فريسة
الشيله
كبيرة
بالمدارس
تعبهم
تصد
الخياري
المختصه
كورس
افط
كلاود
والكبير
ﺎلب
##كانوا
##🚬
طاعتكم
ارسم
karaparaask
اجرا
محفوظة
ناقصهم
الشهباء
up
الخوه
##ta
##ووح
ممتلي
صفاته
متقن
بتغيب
كونيه
##راي
مستو
##ident
ورفي
مكفول
صفر
للاماكن
تشعرني
ممسك
وجاري
##❄🌷
##افيش
نلف
الحرايق
تصدقت
يشفع
رومنسي
شينها
وتودي
النزهة
ابدااع
##ذر
سكارى
خرساء
تسعين
##ويب
غلطانة
ورايت
بيفهموا
╮
##ذكره
جبار
وحديثي
يعيش
##27
##هيق
حاسبين
خليتها
اختصرت
االه
ايجيب
##خلهم
بالش
المحفظة
ويعطي
ودعمه
اقصده
متقوليش
##✌🏼
منفردة
مسوي
وبسمة
ولدا
هادين
التونسيين
tit
بالخاطر
فرامل
🚨
يسكنها
##ذيفي
الكميه
فهي
aw
اصرار
استرخاء
بصبر
انتمايي
بمهاجم
فطرة
💔💭
ماتريده
لولاة
##ذكر
طلق
احترموا
الفنجال
بعيوبك
ضف
اهدابي
تكتي
##لشان
كبريايي
##😃😃
وهتبقي
مقرنين
##orl
نهاركم
كعبه
ملاحق
اللهو
وكفن
##يرون
الدهنية
متاعب
اكتفى
ناكلها
تخليه
فاحفظنا
الخليوي
##radu
يرانا
رنوش
العلة
وكدرها
حسك
مشاكلهم
وراها
الفارق
للقهوه
##🔙
يعذر
المشاركين
المصابين
جراحي
هدي
الاوجاع
الدايمة
اوراوا
ضميري
يعلموا
الطبيعي
يسلمج
متابعني
نحفظ
تضي
شااء
##mp
شاعرها
تواصلنا
الزنازين
نبيلة
الكنافة
وتذكرني
##الدعاء
نط
التفا
والعيش
عرباوي
سعادتين
الله🍃
الاحتفاظ
مااشوف
##فاصل
والفخر
المقد
قري
عادانا
يوصلك
ولعت
##ودور
پٹ
بالمهتدين
الخندق
محيطه
##شيز
المكتبه
طعنه
مفتحتش
##عروض
کورد
الوية
عاملا
مهر
##ثرات
##68
لمعه
اﻷولى
بيعملها
قاتلا
المعاكس
##ودعك
ميرنا
يداري
##فاسك
حالها
البلوي
الرحماء
##😂😂💔
وحالة
##روق
الطواف
النبوي
حيااة
يسيرا
##٢٨
ιﻟ
1
##نوات
كشخه
الميمون
النذل
سيمت
ومنطق
توريس
مواري
اعدت
حلولا
تشعر
لغ
مانحتاج
اطوار
يظهروا
سفيرة
وعن
صارح
انسنا
تزكية
الحاس
البطريق
وقالبا
جزيت
دولتهم
وكشف
تنضج
الفقري
عمقا
تخير
داوي
التحسر
فاهمني
هازارد
الكورس
##فيظ
اتوق
تلفون
الوجد
##الجمعة
الغابات
sem
١٣٩
بالتنا
التعبان
نهض
##كاه
الحيوانية
صروح
##ool
للمسي
##😂😂👊
1438ه
##ﻧﻪ
عالراديو
السالكين
افضحوهم
يفطرون
القيوم
##شيط
##ترة
يقولوا
واجر🌴
الحملة
متبا
الطيران
##لاوية
قبيلتي
تربينا
فاتحه
يتجوز
الهاربين
ترافقها
هوه
##🗓
##اجل
##هلاويين
##ahine
هتم
فنفس
##ﻤﻌ
اجعلهم
##تيجة
##كرش
هبد
المرحوم
مونديال
زندگی
انت❤
محمدﷺ
بالرصاص
والخداع
##شينا
##ضة
وشموخ
يقدح
يشركون
اطلقها
سانتياغو
بلعكس
مدنا
اصدق
mode
مجرمة
للاتحاد
والكلمة
ويتيما
الحصين
اتزوج
يراعي
الخصوص
فيء
يوقف
والاعلامي
كتبتك
كمال
##عيلك
وااي
وعرفان
يابوحمد
نفسنا
راحة
📌
الانتقادات
سيواجه
ماكنش
وارض
##ريني
تغلط
انهي
بعمله
متحمسين
تبدون
ليصلك
خدامه
بمشي
شرابا
##☇
وانكسار
فعليها
ياسف
ايمتكم
سيخبرك
##وحي
مرگ
مجيء
جربتي
موبيل
تحملي
الاستفاده
نغمض
##خستان
##خص
الهادي
يتعرضون
جنبات
1⃣
مابيننا
واكد
التحيه
##حلون
ماعند
عصبت
١٣٠
waiting
نشرة
والرحيل
﴿
النوور
طلابية
الشاعره
مجبرا
بتتع
بدنيا
الفارسية
اعتناق
##اية
وصولا
تص
دعواتكم
اكرهك
##لار
لرسم
مملكتي
##سطو
النبوية
ومسجد
وتخر
وزعلان
##لري
##ﺘﻬﺎ
لگنها
بشير
تمص
وامسى
##رورية
للمجلس
تعبيري
ﺎللہ
متاكدة
المنخفض
##بابي
وشددنا
##تحان
##ﻐﻔﺮ
التسلل
باعم
##بلة
العقيل
زوود
##اسك
اكلنا
##حرف
##assaf
##urn
وانطلق
باير
هالمساء
رساي
سرقني
مولى
الفاصلة
مانبيه
##chat
##كرها
وافرحني
الواطي
ويولج
شاطرة
ساحر
لمنا
تهمه
جلا
السجين
الخارجيه
الاحتفالية
العزم
##رحوا
توريه
صواريخ
والقلم
يضاع
والمسا
ابوظ
الحوث
خلطات
براية
يقتدي
يخلع
اصيل
وقناعة
بتقدم
##اراتنا
البراميل
هالس
##ريحة
وانو
بارسا
##داقة
الخاشعين
احبتكم
ميكن
تشم
العيدين
العشا
##ﯾل
اشہد
الرايعون
جلدية
بيسمع
بالخيار
جايیں
صاحت
واعبدوا
ﮪ
وابقى
قيمہ
##كونت
##تهج
خدني
##وت
##رافنا
الواحدة
##ester
🙅
والشارع
وتز
ﻭﺃﺻ
لليوم
السعودين
اسفرت
كفيل
عبادي
توی
الرسمي
هذة
✩
يقسم
جراحية
ردنا
بفساد
ذمه
نظامك
تهب
التمديد
pak
المحاضرة
اخراج
بلازا
المجنونة
والمودة
موسمه
كلوو
الاسرى
باكيه
نيويورك
مااهم
الحواجب
هزي
سواي
ويامرون
العرس
##رحال
المزز
##╱
افيض
اكمله
ماتعرفون
التمثي
ارتباك
##😭😭💔
عيالكم
اللامبالاه
بالصورة
مسكنه
pal
جماعات
بحسنة
اكرمنا
##xy
record
teench
بضان
##٤٧
بالعي
تقولوا
وكبراءنا
عشوايية
لار
اعط
معامل
عاشه
حشرة
دولنا
بنميم
فسبحه
نيستا
ءامنوا
الصناعي
🎼💙
طباع
واتفرج
المسبح
صوره
##وی
##😚
##سله
رحيلهم
بيستف
وقدرك
يذبحون
قارب
ماوقفت
احواز
اخت
ورعاه
خاص
بقدرة
اﻟ
الديكتات
يلاق
##خض
يفتتح
وطاب
تتسلم
كتيره
النصف
يوديك
حام
الاشراق
نخبره
حققتها
نوفا
وقالو
وسيعلم
اخوك
##لاقات
استهانة
وبالفعل
ويدبر
واثار
بضيافة
اعتقالهم
وولي
منها
لكلماته
منحت
##وودي
##دف
باعتماد
يونا
الترب
والخسارة
na
كرامتك
سيناريوهات
والمغفره
اويد
الكات
mall
وبرحمته
عزيز
تدعوه
يقولونها
الاعدادات
امتا
حقي
ويع
بتبكي
ششيء
المث
جير
عزيت
زندہ
##😈
اطقطق
ﺗﻘﺮﺃ
باقل
وقربك
ولقد
صحابه
هست
قانتون
وسليم
يتكرر
النكد
يضحكك
ويفك
لتشغيل
جفنك
الثقه
♦➏ضيف
شفاهي
وزينة
زهورا
kurtlarvadisip
##89
وسيصلى
لعب
شعرة
لمطالب
المثالي
القرنين
##واتك
بالفم
الرمل
عالمى
لحبيب
عذرك
اهليهم
انشلوتي
بوايقه
##ذكياء
المميت
##ir
قير
قدامي
برايي
روش
░
عابدين
بالفلوباك
فوقاهم
ذس
low
يكسب
اشارك
هالارض
يحكوا
تميزه
الهدي
فارقين
جواتي
الهذال
##967
وتوق
ابنا
apr
للاعبين
استفزازي
ماتح
لعنكم
##جمال
عدلا
عزالله
مزاجي
يتهم
مخازن
##ﺍﺍ
للسماء
الصف
تفسد
els
##منشن
تشربون
السوقية
يلتقيان
ثقف
keep
##عدكم
الجسر
واعادة
مخبا
سعته
ﻣﺜ
بالقطاع
وريدي
🥰
##ياسات
كاب
التعاوني
الهاش
غراما
##یلی
##الاتك
وشخصيات
##لادب
☺♥
ارتكبها
التحديق
العارضه
بنتلي
فشلنا
نوبات
للزعل
اراك
وتعطي
مدرس
law
وشو
وجو
اسلاك
الموه
جليل
##باعة
وحرمان
برجال
سوير
بالعدل
كوب
التاريخيه
اعذارا
ح
نفذ
السيح
طلبتها
##تيز
##تكبر
نزار
السطح
متهاوش
الديك
العانس
وندخل
چاہیے
للعباد
##فتان
##✋😂😂
التطبيقي
ادخل
السماوي
تخلينا
##حتاج
ماجعلته
القمم
##كتمل
تنشرها
عبير
الدعو
كاه
نقسم
لیکن
الغفار
بتبني
رحيما
يرتوي
##يط
بورما
##عة
عاريا
##تانا
وجعل
وعنكم
وازدهار
ترجى
الاستهلاك
انخلق
معاليكم
المارك
تياقو
بالاخره
واريدو
لسرعة
ساعدوه
للولايات
اعتن
شدد
الاسط
وجبر
##ﺣ
توجيهي
لقت
البرهان
سبتمبر
لمرض
##130
بجاه
واحلف
وبينما
وضعك
اية
بذلته
ادفن
🚶🏿
حصانه
##مروا
وتو
طريقتك
العمرة
احتري
##رفة
وقفي
عالجميع
لشاب
⚫➐فولوباك
يجيبوا
بصغر
##ليني
الشيرازي
تعت
بذور
عليهو
الاسف
يدوب
الممتد
تسليمه
##٣٣
سنريهم
##us
واتابع
سابقه
السرير
##وريني
لكلامك
خجولة
##دريد
يفعلوا
له
##راق
شنسوي
كلاك
##حح
##inc
##وكلي
وارب
مسييا
alb
##🇬
##عينات
بالتسامح
متقطع
##ظري
الواو
بالقوارير
اخدم
##كررها
يقتلك
ليجمع
ولكي
##تبته
ومجالس
اثيوبيه
وذهب
المعه
يارحمن
تكوني
سهران
بخماسية
طعن
رسمتي
تعويضه
مهاره
che
نزغ
امشاج
وثالث
##ثرثر
برگ
المعافي
تقصيرنا
قريشا
للهد
واخلف
طباعك
##ﺪﺭ
متشابه
اتلذذ
بالاجازة
فاثبت
lu
المحفظ
os
##وضع
ﻟو
وابتسام
تكات
داوم
حواء
البشعة
يغرم
لدعمكم
ﺍﻧﻪ
kara
هبة
الثريا
واهلكم
وتشعر
ثقتها
كواك
المظالم
التبيان
النزاع
الباف
##كتورة
والوزراء
بعقلية
يبعدهم
اعباء
الثامنة
مجرم
طايح
اغفرلنا
احذر
نسايي
مجازر
pnu
الاقربين
##lack
واجعلهم
مملكة
اتقبل
قنديل
هرفي
تنعي
الجزايريين
والرضا
ﻓﺈﻥ
تساعدوني
👍
الارهابي
الفلانتين
##كنه
##فيفي
يكفيه
بكثير
والهب
حشرات
##amakhoul
واضمن
تاشيرات
تخسر
لدرب
واغنني
والعاقل
الحربش
للحظة
وتجدد
اليم
وحاجه
##✧
واتبعوا
يحييني
##وغل
اشش
جيدين
ركنية
ستقابل
يعرفها
مساء
##سال
التحفظ
##بتك
الطيارة
¸
##فاخ
الاكثرية
##ﻔﻚ
##حميل
بلداننا
قره
العودة
خدلك
شفي
مانا
جهة
يعيدها
##وسط
بتنس
الاتهامات
ٺٺ
##وح
الرشيدة
لايجيد
غفا
الميه
صلت
بتقلي
جعانه
نظر
للتايهين
عفرين
اتصدم
العاد
لجر
السويدان
مضاربة
نبر
لاهم
اتيناك
لجايزة
يبان
نصفي
##زيع
عطني
السويداء
خوانا
يغضوا
المال
المستثمر
وتهب
اقرا
احدى
مواجع
معقدا
##ويض
واشتاق
##ﻮﺁ
والحصول
فايسبوك
خيرهہ
تصيرين
وخاتمتي
وتسمى
انوي
المنوفيه
العلماني
مسيطرين
قليل
الفاول
تاخذها
اغبر
تفرون
الجاذ
تكفوون
##زاير
مولد
عدسة
الدنياا
لهولاء
##لاتي
الهلاليون
مكتبك
##تهت
##ييين
ومستشفى
الهنايي
كبديل
الملوخية
وهرب
ويخافون
وزنوا
الحيلة
يغضبون
ضل
رايتم
##سبير
جرحتني
❤🌸
سقى
والمكر
المنكسر
السلوكيات
ﺑﺠ
واسبوع
التقاعد
تشتعل
بيشتري
جيتم
المنكس
مربي
فتجد
تشعل
كبريايه
عط
##عبدالرحمن
قربني
سيمنحك
تذبح
##واجيس
ريجيني
بكرهها
موسي
بالايام
الاهات
الممكنة
وتوج
بيحترم
ﺳﻌﺎﺩ
تبصر
علة
##ﺪﻳﺮ
وتميم
##يارب
بكميات
القامة
تحاور
المفردات
الخنقه
العط
abdelsalamzayed
ﻟﺤﻈﺔ
دجى
##بطبايي
زويد
##وارى
المعلن
السخ
احج
فنعم
زوب
ظالمه
نعال
جرير
سخيف
منتجاتها
ويسلمك
وارقد
ويطلق
حمقاء
يروح
ومشاعر
يجتهد
التكييف
هونها
بذاتك
الوث
ثقته
الموبد
تصويرها
##وغاد
المعونة
الشامي
خدوني
واخذ
##ired
👋
كفل
##ثال
حرك
منعت
قحبه
اعتد
تتولوا
ﺃﻣ
حيوانه
احتار
عييب
الاحتفالات
لعبو
التشيلي
والضغط
صال
ويجز
كفايات
ﺷﻲﺀ
التكن
##قدرة
الروهنجيا
😂😂👊
وتحمل
نخلي
سجلات
الرزين
مدربا
مارو
٢٠٨
كمس
اخرة
يستجاب
وساخه
لطفي
يااع
نخل
تقنع
ضحك
المقرف
واستريح
الجما
تكونوا
ازعج
اشمعني
غاث
المساندة
السريعه
تفصلنا
دمنهور
دنياكم
تقولين
sur
وضحا
لقمة
مسويه
##لادباخ
متظ
مساك
دوك
🇳
اهانه
شفتهم
رجالكم
ورايق
ونايف
ﺣﺪﻭ
التسوي
النقاش
العامية
داام
شاهدته
الصواغ
دمايهم
شرهات
تبى
الارض
الكفوف
الاستبيان
امبارح
ضحكني
صحفهم
بسهم
##ﺘﺼ
paris
رش
وانشاء
استحالة
##ريال
ومف
##زو
لذكري
همد
##بض
##md
##عتي
فلله
اسمحلي
ﻭﺍﻧﺖ
##👸
وصحتك
الملا
حج
##قابلة
فينبغي
جيني
اثنا
الكاذبه
مرورها
ميهمنيش
العض
الارتفاع
للافضل
استديو
ياشعب
##em
وحذر
ماشا
ابصار
وضياءا
براتب
للتقدم
تعر
يرجعها
لناس
المرارة
واسعة
wor
##ami
##عا
##اذن
وعايشين
ﺃﺩ
وفلو
الرييسة
بتقوى
لتعيش
شلالات
والعدا
الجونه
بعونك
السموحه
جلدهم
وتوفيق
اسافر
وزعت
ذروة
التبسم
##ونكم
##ربينا
يوصلنا
دنت
المخدة
والحظ
بطبعه
بردية
فاعت
👍👍
##وظيفة
يدخله
زايفة
يتقاسم
##اربت
للغاز
رافة
##غلنا
اخلاقكم
left
اكرمني
لمباراة
لبدا
الطع
الاقوي
حكم
صوتك
محجر
138
الخلوات
ويوذ
الجذ
هجمه
##فك
##سترو
وفاي
خضوعا
يذمك
لاتغرك
مديري
لمن
يتراقص
مولدي
المساهمة
تعجبكم
جودة
البصير
الكنترول
وامثال
ووفقهم
فتبارك
بالسعودية
الكفين
افك
ومكافحة
صحيحة
##ساه
نلم
يدعها
١٤٠٠
ياعيني
مشکل
دور
تنفيذها
ينكرون
##📍
مسحتها
##لقاب
قبعة
كردي
فاوض
مارايكم
0501164905
39
اتعلم
##المن
السوالف
الاعماق
تحلفوا
الاسبوعين
اردها
انفاسك
الصحه
١٢٥
اتغير
صافيته
##كرات
املگ
ماذ
معليك
##الصلاة
الهيا
ونكون
العطا
صديقات
الدكتوراة
شوفوني
الطالبة
المختصين
##زلو
بدر
حسنه
مستجد
والخلود
مايضرني
الشهرية
الابيض
وحاجات
##roup
قدامى
الخص
يرزقهم
جاني
👏🏻
للاندرويد
ﻣﻬﻤﺎ
ref
وعان
##وارك
الستينات
جاي
مواهب
##لقت
بالهاشتاق
الغارة
يحقق
بيتكلم
الاقامة
##سييات
خلدها
تهدرها
وذكرا
ليحكم
##تد
شتاتي
ونادي
الصحرا
تنق
الاكتاف
للح
واموت
طوله
المتاخر
طنط
الامارا
المهمل
فيرض
سیاسی
##اجر
وتقنع
##ومتعب
ومراعاة
مسندم
##ختر
الوثقى
وافيه
##ايزين
سلامتها
ش
يسو
وتتعامل
تمطر
madeupword0002
النوف
طلتك
ردينا
##ﺒﺐ
المضمضة
تقنيه
بتاكد
النباح
تطق
المقدس
بكا
ماشين
وخ
ندرس
وفاضت
سرقوا
اعاق
وتغسل
بعيط
##ﻨﻮﺍ
وكامل
قويت
لانت
بالضرورة
صنعاء
انزعج
##يايها
راود
بالمشاعر
##خذل
ولاكل
الركام
##عوبات
##ماار
خب
ترتاحوا
للابداع
##وريا
لساني
##قتش
##جابر
اقدامها
##جبتك
عجيبه
بالرسالة
الحقيقيه
تحتاجها
الف
جريم
##🤒
الكثيري
الخيام
##وردي
##نبقى
عدة
بالاختبارات
بضم
وبين
واصط
##ياها
والسير
##ديك
الدون
مشبوه
ادان
ﺿﻌ
##ضها
سعادتي
العجايب
##بييض
الغربيه
يشاك
وصفي
بض
عبدالم
نيلها
يجينا
كاانت
وصفت
##الش
والغنيمة
مضبوط
##مسي
وميكاييل
وضحاها
🏡
يمسسك
سكنانا
معنويا
الجينات
والصمت
يخذلكم
يصدح
حواجب
لالا
الرست
##خيم
معلما
ﺒ
وجهري
واجهل
اكملها
ﻣﺮﻳ
يطمح
والغدر
72
للعسكر
كنز
حافية
اشدد
رفقه
اصطف
شراحيلي
جف
زدهم
تمثي
ارزقنى
##نزي
♦➏
دستوري
جاگ
للايام
مابان
حرتي
الاعياد
لاستخدام
وقيام
تسمية
القياسي
##ﻮﺫ
يسام
##ﺧﯾر
قوتك
يعزك
قابلوك
صارلها
##ذكير
##82
لتحويل
ثيابي
البارحة
لدم
##رحة
قضاه
شيبه
ترشي
مطهر
##وفوا
مانفعله
احترت
بالفواد
##ﻨﻬﺎ
انقضى
نصين
وداعية
مقتل
##مضان
ساويرس
والخدمة
##ولكن
ومخا
وتشويه
بادب
المحدث
فسا
اسبانيول
listen
يتحالف
٣٧
تقنعه
وراس
شيي
المته
##لتان
eff
ﻟﻌ
امراء
ارشادات
مهلا
فالزم
اعمالهم
تحاس
##هادة
ايه😂
👇🇸🇦👇🇸🇦👇🇸🇦👇🇸🇦👇🇸🇦👇
احتراف
##للمة
##ويلك
الاختفاء
مكفي
دعوى
الواحد
شكد
السالفه
وتسر
الهبوب
خشي
مضرة
بالنصر
ويحس
##ڷ
##لضيق
تنعاف
اتصفح
البصره
💭💔
فاصمت
فبح
##🍓
ازعاجك
غالى
البرودة
نقفل
انسك
للسعودي
هالناس
المراقبين
الشجعان
سوداني
المجا
الاوامر
الامعاء
واظهر
ينطقون
وە
لتوفير
##ديدة
فالذين
عرسال
اعزي
##يرمو
صدگ
وبند
يشرفني
وزيكو
##ايمنت
فالاخير
##اركات
##فرحوا
ابناءها
نعشق
بكلمات
ﺗﻄ
ويغرد
المصلحين
تالتة
##زران
المضاد
طاقة
برى
٢٢٣
يعيشك
يساوي
تبع
##رايي
يجبرني
##غانستان
علاقہ
الملاح
موبد
الاعارة
##قدري
يضايق
ثوم
الماد
اتفاقيات
وجده
يطلعلي
الحقيقيون
تليت
براعم
bat
جتكم
انماط
حطها
ونيك
##🇧
##سبا
rah
ليص
معوضين
##للغ
يخسي
للتحرير
شرايين
بحبك
لبى
تسلك
hay
ودمي
ﻋﻠﻴﻨﺎ
مغرده
حفاوة
تنبح
تقومين
الغ
بالنجاح
الحادية
##ﻌﻪ
محتفظ
علتي
اسيله
memories
##امي
السبورت
##شفى
وتظن
فلافل
##قاوي
كمية
البلدة
لبداية
هنعوض
نسو
تهيا
قراتها
نصية
والاولاد
فرحتكم
ولاخ
ليك
زباله
fat
💔🚶🏻
الحارس
المشايخ
احببتني
##لاند
##شي
نقوله
صاار
صق
الصعبة
اواجه
الشوكولا
مصلحتها
ينتبه
ak
كتابيه
قرين
للنيابة
##ورته
تعلمت
اطمان
اتخيلك
عساك
##🐣
الرعاية
لغوا
غموض
تنب
اللينك
قانع
التوعوي
يصرح
حالتنا
عزل
وادبار
والتفاصيل
مستفزه
بيتجوز
والم
والتس
ادريانو
thinking
ﻭﺍﺣﺪﺓ
مودك
رحماء
استحوذ
معدتش
ماشيين
ونساله
office
فقدته
التحضيرات
دیتا
##😂👌
دينك
ﺃﺣ
واستقبل
متو
ارهم
جدته
يزعجك
##گاه
ينتظر
امراض
نفضل
ثقافتنا
bur
اتصور
درسته
البلنتيات
رضي
##صول
##ايح
الابتسامة
ومعنديش
يحاسب
جيتي
راكي
عايذ
محاولاتك
##ﻠﻴﻞ
جبيل
ارجعوا
يتمتع
118
الاستثمار
وسج
بقوات
اينعت
والسناب
نوقف
زرار
قروبنا
تتزوج
بجدارة
وتفس
تطاق
يافع
قطعان
السحابة
نهاييا
والاثارة
وتفوق
والنهي
احبابه
والفيديو
##اهلو
الدكة
ويسكنه
اخرهم
ﺍﻟﺪﻧﻴﺎ
حركته
الامنة
تشق
الغفور
احمر
اللغ
##ﻜﺔ
انافق
ويطعن
وسو
##هه
کیون
##ذبلت
تذقني
ۆا
ال16
##عامه
##رادو
بابناء
##🎶🎶
المصدر
اعلق
عبدالغني
يصمت
بقصف
خواطر11
سجادتك
يقوموا
##راقص
بتسمية
كنتاكي
اعادته
ومحاربة
يعاب
##٢٧
حركاتك
دالي
ابح
تنم
الديانات
زيارتنا
الزول
لسوال
ماذگره
فنفشل
##18
ذنبهم
نضعف
##💧
كازا
##اركها
اتكالي
والتفايل
خافق
وتصير
##مارس
واستخدم
ہمارا
فيگ
البروفيسور
الليبراليين
ماعنديش
ويسكنهم
استغاثة
خايف
خلقته
✨♥
والاسود
رشاقة
السطر
ﻃﻮﻳ
بعضوية
فنحاول
للبوح
بطارية
##ets
##👼
الكرسي
صيف
الحكاوي
##لاتنا
بسحب
يعيدون
مسكم
ومحتاجة
التب
زبالة
♔الان
##illa
le
حبه
حبيباتي
سجلت
غيور
##طعت
after
يرام
الفاخرة
مبجر
##❤😂
ومنش
##لولي
سايقي
اوا
مشب
بالكشف
هجوم
##حث
تترك
وطنكم
قالوله
باعما
بلطف
غيثا
##حتفل
لاشهر
حالهم
ويعذب
متخلفين
حوبتي
نقوى
يسالوني
##ﻨﻌ
ينقضي
لهہ
مبررووك
الاسراييلية
##ظارات
الكينج
جماعيه
يحا
نقصر
##علان
الجني
وتحبني
الطوال
اخفيها
عودتك
هولاند
البيج
البييي
فاغثني
اللوح
بمحل
مكاني
الفيدي
وصح
##طرين
ينظر
وامضوا
دراج
##راب
صفت
وبالنسبه
السويكت
##رافقة
يقوى
غشاش
ابعده
تستخدمها
سالوك
breaking
لتك
اغص
بيتمنى
والبرد
🏼
تضيعها
##زيادة
الموص
نضل
الغار
ثرثار
يخطون
كنافه
الور
ببعضها
يفض
مشركون
غز
اليوزر
يدفعها
25يناير
##ese
##صحف
يتخبطني
الشعراوي
وروحا
وتشكر
ماعاش
انهو
اجراءات
وشدة
تشدد
اذلف
لاله
ماركي
##ووره
معارضه
دمعتها
الجوارح
بمعدل
ممر
صرت
وتعطيل
تقومون
وبمشاركة
الصملة
يوص
صحه
ويبلغ
واهمية
##ﺘﻰ
##aleppo
تضيعه
لبشر
##وادر
وطني
شتيمة
درام
الاستشاري
مرفوعا
بكفك
للطايفية
ﺂح
لانفس
اتوقع
العمارة
مبحبهاش
ولكنهما
##دوب
وادارته
##شاشة
تزلزل
##منالك
والبخل
مايهمك
والمحامي
وفتحت
واشفه
للناظرين
وعلاقات
الكلين
شاهدنا
احلل
##ديلا
خليج
##التين
فسيقولون
ثقافتك
شيخنا
##قشة
يابوعلي
اجهله
##طرق
يشاق
##جلين
جمهورنا
نغادر
##امعة
برناج
فانظروا
يصار
ابوبكر
میگ
لعلنا
يبتغون
##ﺎﻓﻴﺔ
الخطوط
والضيقة
الاساتذة
##🇱🇧
بنتا
كليب
ومابي
باستطاع
وامددناكم
##مهم
##فيصل
##يتر
روميو
وادمن
تفاعلية
كوبايه
تحصلها
قلط
حاش
تخبرك
ارنولد
واغتنم
غريق
مفكرة
ادايهم
💟
هعمل
دامني
غولن
hair
ليدبروا
##eck
اخييه
بيوتكم
الخبرات
يستقر
##صش
والخدمات
wwe
تاخرنا
وتعطيك
للذ
اللبنا
الخزام
يهزم
المراعي
للشتاء
وبالن
وانك
نكفر
##خفش
واحت
ولاق
…
بناكل
هونا
فمصر
ماع
عظامهم
ماتبين
حباي
خلالك
##فقده
المرتاح
والاستمتاع
##ﯾم
mbc8
ظفر
ثبتنا
لغتهم
amaz
##ﻜﻮﻥ
تترد
الفاضل
توتير
والشيخ
سخرية
كلنا
منتخبنا
المشكلات
##اركوا
خضم
مضايق
اتفا
ببلدة
للولد
يتخذ
تهور
وفار
ويرده
تريده
##وما
نمير
نايبة
عايلة
سياسية
انحطاط
سيصدر
ساكتب
سلمي
لحمد
احببتم
لني
الصفح
الصيدلية
واهدي
خطييتي
الصناديد
يقدرك
يخاطر
يدمع
مستوطنون
##لهي
##جلد
##منٹ
عمرو
التسوية
يبغى
##وظه
بدهن
لايوفق
متحضر
فانصرنا
38
بيوقع
ريتا
ساسولو
تبات
##حيحة
##هين
##وتن
وفقير
وعافني
dear
اصليه
الريتويت
عبوسا
يبارك
##لتبادل
الضاهر
للدم
النفخ
تلفوني
ﺍﻟﺮﺣ
فقراوي
🌹
##ﻗﺖ
لتوثيق
الشارقه
عجول
مشي
برواتب
##وﻓ
تحريم
المباني
ملازمة
يحبک
دراجتي
بيرقص
🤦🏽
بوابات
بدعة
الكافية
##لحس
لربهم
وتعال
اسند
ليلته
مقابل
عوده
جميرا
ناطقة
اتفش
تخفض
العالية
متنوعة
##كرهك
وتهلك
صف
العطار
##﷼
لبرشلونه
لقبه
لمليشيات
خلقك
للبعد
لتذكير
البيست
##ۆني
٢٠٧
ۆش
نانسي
##براطور
ممكنة
ہوتا
😜😂😂
والزمان
➌
السالب
الناجحين
يعطون
سيودي
الزوراء
١٠٠
تضحكك
ent
رعا
بالشعب
تلغى
معاذير
##💀
السايقين
فاهد
يخالطها
سارح
الحقوقية
اليديده
لوقتها
##🔵
النجمة
اتنازل
المحاسن
##قف
بالظلم
##اتكلم
الثا
وصباحكم
حريات
ليصدوا
عندة
تسته
وقلل
استعن
##برات
القذارة
يلفظ
الشما
مكرمه
توصيل
بوحد
بخالقك
فصاحة
ﻳﺮﻳﺪ
بجب
tech
رشفة
تشا
المعد
تحصل
المشرف
بزران
🚶
لاسباب
##fp
حجمها
مشغولا
علينه
وعزي
لطايرات
والمنافقين
سوكا
فدو
كاذبه
للمعل
السميع
الرمضان
##تهى
تشعرون
والترم
وعصابات
القهوه
وامايكم
##وراة
يۆ
اعتقل
الصدا
المديفر
انست
##تبت
vol
ارسلناك
فتحنا
الجميل
السوق
فولوا
ايميلك
بتوقع
بعهده
💫
ينعكس
شاحنه
مستطيرا
مكابر
تغمرنا
عوى
منھا
تنجو
##ject
يمسكه
ويعني
وطيبه
تسرع
ويبلغكم
معدنية
يسوا
##تيلا
المم
متخافيش
بيدعي
والثق
فالمستقبل
##ﻜﻲ
##يايك
فالمراة
##طفات
ماتحبون
اصرا
اوقفت
بجلسة
يسكتون
وتحصل
لاتهم
مستني
##اجيب
فالصدر
لاخوانهم
##عبني
يضيفك
بقلبه
##موو
يخسرني
💞
احاتي
يهاجمون
وراءك
##سيو
خياط
تتكسر
الاستيناف
يفكروا
وتنعله
تورط
كتمانه
سرو
##صدت
##روب
اتضح
متظاهر
بڑی
بوفيه
بالهنا
بوسايل
##⚠
ماقص
مند
تاليف
تدلع
مشابهة
للاض
😂😂👏
ميسرة
لهجه
##زيزي
وحكمة
اعلنوا
##ايت
الكومي
سنغافورة
وشجاعة
اتبعت
فتحقق
جندك
محمد💖
معادي
##عراض
رضع
##٢٥
بالمستشفى
٧٥
عمانيون
مسالم
الحفر
تصنيف
حيرتي
تلاعب
##زيم
البار
##فوضى
مرتبك
بعضهما
فستجد
وتشارك
تنازل
مختلط
souhila
😏😂
بيا
🍀
##300
##لوز
المشاركون
ملحمة
ذكيه
اتحط
مشبوهة
محفوظ
التشتت
بيوتي
مقطع
مشاة
##لسات
الديب
قداسة
ويمثل
مافر
2004
مسافرين
179
هياخد
عذبا
ترجعي
لنقطة
اغتنموا
##راديو
الوزارات
ننس
ابدو
فيرمين
هوية
فالذكر
alj
بتط
الميول
بداخلهم
##ياا
بالبنك
##موحك
والصورة
algeria
مستعد
##وكا
وتلمس
ليعطيك
وهقولك
يروا
haidymous
ﺍﻟﺒﻌﺾ
واقاموا
المتبادل
افترى
😂😂😭
دحين
##ﻮﻙ
والزيادة
تنمو
ولصديق
الحظر
##ji
وعدتك
تمنحك
##تاء
زفافها
ارن
شارب
جملة
يملكون
ذهبية
يرثى
وحضر
الامبراطور
الانتاجية
⌒
بالمسرات
بالامتحان
think
واخليها
##رهابيين
دامنا
اخيرة
خلاصه
المجزل
الجدال
دايم
عينک
مناك
الاقليمية
##يبين
احداث
النطق
حاك
قايمه
بلباو
ولدكم
ادهشكم
ماترك
العفيف
يداك
بتصوير
يشتعل
interest
الياسمين
لنعرف
💎
سرا
وغلب
ويكسب
ماحكم
ودروس
تهاجر
عزوة
جلدي
تبتهج
التعاقدات
تحده
ومجتمع
تذكرهم
##ارنة
رحلات
الحيااة
نتفرج
ﺂلا
رحمتك
وكتابه
اسفا
لرم
يحبكم
تلفزيون
البني
تركستان
⭕➰⭕
التخريب
يعطيهم
ونذكر
الفوعة
ننتظرها
الاعمى
باغي
##row
##هوض
##ودان
##تني
كباية
استمعت
النخوه
نمشي
عودتني
ونظرة
ولما
pr
االي
ذرفت
تفتكري
🍫
استقاله
عام19
ﺷﻬ
╬
وبعضي
##وتات
##بتسامه
بحلو
بلطفه
يتول
اممين
استنا
صفقوا
عذابك
سيري
كتابات
يافخر
##ديف
قربا
منكرات
يبيها
##✽
قصفه
السلع
اتقفل
##🎼
حيادي
طموحك
بالامور
##للس
التانى
محافظة
افقر
يعجز
المنف
ستسمع
##اتحة
هتافات
عماره
الصحاري
براحتك
مبخوت
طيحة
وتعبر
نظاره
مرعبه
##ید
مجتش
الرطب
ومكانتك
نسبته
تستصغر
خذلهم
##ﺰ
فتفشلوا
ومما
متروك
وشفيت
وحقق
للد
جرايد
يمدد
التصحيح
الناشية
انفلونزا
الفينال
رضى
بنغلاديش
يث
مشتركين
·
الهو
الغالين
لنبلوهم
##😟
##art
147
🇱
العطف
١٠
لعينيك
تضع
بيحبها
بدريه
تبكوا
لطفا
الشعيبي
chap
مسبار
بذنوب
المصنعة
##وثيقة
##دقق
900
صحون
للبحث
الارشاد
ماتنزل
همومها
ترس
##israel
يتذكرك
##jarred
وتتعب
نايت
حزة
زاد
ﺊ
عقول
لحالة
بتخبط
##غرت
الناه
تنموية
وحسبه
｡
داعش
لشخصين
يهاوش
ال٨
دبلوماسي
وبحبك
متظاهرون
لمباريات
ياو
تكذبون
اوليايك
مركزه
زملايك
مبديي
play
مزود
للمقاومة
اقروها
النقدية
يختبر
والبلا
خلگ
جلس
ماوس
ﭑﻟ
القه
##ux
وعاي
ﷺ💞
##eople
الصمود
صحفية
النجاحات
يبى
##ﻴﺲ
ابعدي
للندم
##البلد
للسرير
البوكس
ممله
##ظيفة
يتجاوز
ﻣﺆﻟﻢ
تربت
بانضمامهم
حكوميه
پہلے
وتقولك
يتفوق
بدقه
ahl
الشركات
ومعا
حما
don
مح
يتاهل
ستج
لجهود
تتوقف
الانانية
متله
واوصل
الثاير
ﺃﺑﺪﺍ
المتوقع
يذوب
فوزها
يضرها
بالاستقامة
ولاعدم
مملوك
##20
والملكوت
السلي
ﻣﺎﺗ
يشاهدها
اضطجع
فواح
باقيه
ومكان
⭕للمتواجدين
والكويت
مصخره
بمجرد
تكريت
dia
للعيوب
##واطي
##🇦🇹
دکھ
ين
خيانته
##حون
##صبه
الجوال
ممارس
ووفقني
١٤٣٦
مدري
ﺂﻟﺂ
الساسة
نسيانا
مقاتلة
وضع
##هرت
دعى
تساعدك
وشير
##نامج
فطره
سيارت
فروخ
المحافظات
بابتسام
هاتفيا
الاملاك
ﺷﻜ
حاط
##رابه
##iat
##ثنايي
الروا
العاصي
مصدقين
الانفاس
موك
مطي
اعظمه
##ناهم
جنب
حييتم
مشيا
البسي
اتذكرها
صورتنا
بالاعلام
ﻋﻘ
بطيبة
خذل
سواتر
ايامكم
walk
سباقا
تمثيلية
ستفرح
للعربي
مساءكم
والدهم
الرابطه
بعتها
نشمي
خفر
حايط
جھ
تسارع
dina
قولتلها
طعما
القيامہ
نرجس
كيال
ديما
ابان
ﻋﻨﺪﻣﺂ
انكك
##شكرا
رصي
قديش
تنهزم
جربو
لاب
شام
بالمشاهدة
وعاط
يخبرني
اللقافه
نترك
الهادف
الصمم
تلام
ماني
🌴استغفرالله
كبوة
الايزي
##ﻛﺪ
ورجاء
البعيد
للقلق
تتريق
😛😛
##كوب
لاسم
##احه
ﻣع
فاقبره
لذلك
##ٹر
##ستري
وعدم
الاسطول
وارث
تهذي
كحد
والليبر
الراجل
ﺎللهم
اشووف
وعجز
مخال
والبحث
يعشق
استخبارات
نستحي
بخت
ايفون6
الولاده
##دوم
واعراضهم
##ane
يعرف
##ڈا
##قسم
للنص
التروية
الهريفي
##🥰
##ﺤﻤﺪ
المهلب
##فيدة
تريدها
ماقريت
اسبابه
والدينه
🌺
بلاقى
##لاف
تصوموا
فاقض
لفلان
beautiful
moon
from
سبيلي
فسهل
تخلين
يصفع
اغنيها
##شح
دعاك
جبنة
مصرية
##ايدك
عودتنا
هوب
تحسم
يديد
تسالهم
الربانية
ذلا
متحرش
واراه
##هاش
##فون
متب
افطار
بفعالية
الحره
المونديال
لتدمير
بحاول
الحض
شاءالله
الانوار
##اصله
والتهليل
وثيابهم
الايوبي
##للك
سباق
فعلك
بيكبر
ترفعك
##دبر
ضيقك
الخريجات
بسيد
مادمتم
##ابهم
سوش
الغاية
تملوها
مالح
hos
اغضب
يبعتلك
غرقان
رماه
الشاورما
🔥🔥
مكانش
ولازلنا
##ولوج
واستخ
##جوهرات
شبابنا
جابرا
والابتسامه
تتربى
فشخت
##ميس
##لديه
##پا
##راح
وابع
اسهلها
تغرق
للحاجة
خفوقك
المينا
تركني
قدمو
ضعفك
والضمير
حتم
ومجنون
##جون
##😂😂😭😭
مدت
صرواح
بطولاتكم
##اكيد
لتقوية
##لريد
للناس
زيارات
ﻋﻴﻦ
والامان
##ويے
صادق
مشمولين
##لحقه
للعقول
الراغبين
بالحقيقه
المضربين
##uk
المنيبين
تدفق
##حدا
لوكانت
##خرجه
المعطي
لتحصل
الحدا
##وانى
افتي
محاصرة
##لوبا
مهج
كيما
تكره
##بيتهم
للدعم
حديثنا
لتشقى
بقاعة
الحرق
##ادو
efhm
الشهرين
احلاها
بالثلاجه
الخليفة
مادخلت
باعتقال
بحقوق
درك
زوجتك
##zaman
استرنا
حقارة
فيحمده
شالو
مانتمناه
##فرز
تسعون
mcq
الكافرون
بامتداد
لك
##وليين
الفروسية
##برتك
تفاءلوا
مصابنا
ستس
مقري
مسافر
ﻣﻌ
عونا
1973
اتح
للشاعر
الزبد
##ابخ
الماجستير
باقامة
كلامنا
بالاغاني
ميا
##نم
تكدس
٢٠١٥م
##نعام
تعبيرات
لمرورك
##pal
واوليك
㊙➍
لقلوبنا
البلاد
توقيعه
شفق
ثااني
لاهلنا
المجاهرين
##اهدا
مايميز
بران
تقرير
تسليما
وامددنا
حسبانا
اقرار
حقوق
انيقه
ㅤ⠀⠀
مقاومته
ارخ
المنقف
##الق
♬
يشرب
علموهم
خراب
اعتدال
تكبير
##وشح
النشيد
بخط
تغفرلي
##👴
تلبي
بنهايي
زارت
##صمون
نهمته
بالجامعات
المحاني
##امح
ﺗﺮﺗ
الفلبين
الطبطبايي
بلغاريا
وتنافس
كرمك
حند
طرحة
العدوان
let
##خابات
عظمى
هاته
لمستوى
غمض
واسيب
تسعى
متعاطف
العذاب
عسرنا
وارضا
سيتم
محتار
🌹صباح
العارضة
##ارسال
قشطة
الهرب
يبسط
الممتدة
تخش
##na
ابھی
رافض
جبلين
دينه
اختيار
انشرها
ودوني
الصالحه
بدا
وامين
وطارت
روحية
##زهة
روايتي
الاشعارات
يطوينا
##للب
ﻗﻠﻮﺑﻨﺎ
للزعيم
##oun
##ره
##ويلية
فانصرهم
ويلهمكم
##🎐
هواتفهم
ميدان
تعلوا
تفا
المزايين
والامنيات
القادسية
والحاقدين
##ازم
يتش
اغلق
قتله
يقدرنا
حجاجك
رجاال
##فلس
الابتك
بشر
اسباب
مامته
حافظ
عجبي
كلمتنا
خللي
وقفوا
##نديش
ماسمعت
ist
مكث
احزن
نصيبها
بعرق
اخاوي
##هلة
بالاه
ويقلل
ツ
لقاء
جمهوريه
##لاق
اسيبك
تهاوش
منظمات
والمد
ياجماعه
😴
مطبخ
ابه
مدرسين
تستظلون
الهدايا
نظيفا
الريكورد
اثقال
نسيتي
الذبول
تعازينا
وحلمي
حوي
اجابة
تفسير
دربي
البراك
##ميص
خلقهن
الديره
##نداويه
منط
جبروته
بقناعه
خطاك
##ﺤﺮ
المقفع
بداي
انتباهك
لاتموت
ونمت
ويعدي
🔴🔴
ممرض
واعف
يشوفونك
بعرفش
لزمة
##ap
##ضر
انكسرت
انذر
والبشر
لصديق
##eday
مالم
تعس
امانيكم
##زر
##able
ميق
ذرية
الايتام
العلا
وتختفي
نكلمهم
اتقالت
واكتب
واردى
الدرداء
##تا
تصرفاته
وقمة
الذود
صادفتك
##جيرات
مايحب
فاتخذوه
وامان
##ضوا
au
شفاه
للتر
اسكر
يصلون
الاسيست
ومامن
كالخ
بنهاية
هونه
اعاد
العظمى
الكرز
ماعلينا
التسعة
##☞
الجهراء
بعمر
بفولورز
للعودة
وازيد
الثواب
فراشة
##ﺑﻲ
##😂🏃
بايمانهم
استعمال
وزاد
والبركات
عزيزتي
every
وتذل
##ذية
احدثك
##لانكا
تعريفية
متفرد
الجهاز
والضحك
عنق
انهاردا
##لسى
🙊😂
ترونها
والقادر
##عوضني
المتكرره
فعلي
##متها
يغفرها
اتخاذ
اتحداكم
##تماام
الشفتين
الله🌿
الفاتحين
الهج
يلقيها
##نيي
الفارما
##62
بكاء
بخيير
وحقايق
ﺿﻴﻖ
نبي
طايرات
ناار
مراهقين
##قابلك
مغفور
خرابها
mubarak
بالايفون
متعودة
ذنبا
زعلان
معاش
هيغير
للتعصب
اخذي
العند
##اوى
يابن
لاعدم
مسب
تفك
##سدك
ليضع
الثقة
لاتكفي
والكي
محش
##اننا
قدوتي
فعلو
يعذبكم
لباريس
ويصلح
##🍒
##رمضان
اسمعي
والحروب
مراده
العناء
مايعرفوش
شكلج
نقاء
##عتلك
الاقرع
جهدها
وسيول
لشهد
يسر
الناي
##يف
المفارق
##اسال
متسا
زكريات
التو
بيليتش
لض
ساميه
تضرعا
مسلح
بالتويتر
والمنا
واراضي
العثمانية
لمضاجعهم
نارية
اوبريت
توران
مدينتك
الموهوب
رزقي
thrones
الخج
##راش
ساعته
مجموعات
اتفاج
قريبه
والقلوب
طينه
مالهم
تاجل
وابيع
بقنابل
التسجيل
##ױ
##وقفني
تظبط
جستنيه
اللحظات
ولاتم
للشفقة
والغايب
ماادري
٢٠١٤
تفايلو
##وولي
نظامها
وهاك
الفروانية
ياخبر
وس
والوجوه
اليجري
يتفرغون
كسور
مابك
اغني
136
هيخلي
وتزهر
وث
##احنا
وايم
المشارق
المريخ
انم
واسعاد
هواجيس
##㊙
ارد
وقات
كانك
الايك
الطقم
تعاملي
عقيمة
##ﻟﻪ
##🐼
الفون
امية
لبنان
واعملوا
بالباقي
وبلاء
البقعة
للمواقف
خليجيا
المتحابون
والاختلاف
الامارت
يهمني
ﻗﺪ
##ساير
موسى
ولاتولينا
تجتهد
الخامسه
انجا
انضرب
يشتك
عتيق
ياصديقتي
ثنا
الطفله
يوذون
فليصبر
واستقرارها
بفتكر
قبال
😔💜
الكمين
روحاني
عابرة
##عشان
##معه
##وونه
┊┊🌹
مو
هنيالك
واحوال
الخصوصيه
جفاك
واحلل
تاسعة
لكلم
##اني
تسالني
الويام
##واساة
يابشر
مشاورات
دليلي
دارم
##اعده
الاغت
بصى
استعماله
مرتين
ضلوا
اجود
خانتني
هروب
اهديتك
نعقل
استحباب
للنصر
fe
مطلقا
والتاهل
##قدمي
بتوع
ماتف
مالقى
عادني
تتابعني
خبراء
مرفوضة
الفارغ
##its
##ختي
تبال
بانفس
خليجي22
وسيعوضك
بموافقة
هاشتاج
ربيت
وحساب
فلذ
بريتويت
##كروباص
الايا
##tisis
واحسنه
##وزه
ناظ
وعقيدة
غلبت
تفري
🔵
😂😂💔
تعاملهم
لزوجته
عمارة
ليح
hr
##لرد
mors
##ﻮﻟﻚ
جماعت
##oman
احر
##✌😂
##داها
بحضر
لايف
حزنت
وصيد
##وطنية
وينج
اهدافا
##💚🇸🇦
لهذا
يعوضك
الكيم
والف
والمجد
بصرك
ber
نام
##عز
حدودنا
ماركيز
الوحشة
يامس
##شعر
يامهدي
يشرحه
لحسن
زیادہ
بتولع
يعافيه
كنانة
مالطا
بمدينة
لنفسه
الحوار
زعما
جعت
وتصرفاتي
اعل
منفصل
لتبرير
##طوير
##قاقير
ﺫﻧ
لعا
ماينتهي
يتدخلون
مجرى
الخواجة
للدفاع
بوجود
البريية
انتك
ﺺ
اقراو
بالخ
بدعايك
##کن
المزاحم
متمردة
الكناني
الرعد
نقله
كاتمه
جغرافية
الارباح
يصيحون
تارك
تنفع
اغتابني
📲
امتع
المزا
يولف
تنعى
بلايستيشن
وتفا
ظنيت
لحدود
قتلوه
احتقار
##خوا
معها
هتيجي
شانه
مقيد
##اخذ
واداء
اتظاهر
##وقراطية
##💦
بينات
وتفتح
##غطيه
الكوك
بالحكومة
ينشي
قبيلتك
وتزيد
خلوك
الداير
پہن
الحشمه
سدد
ويسد
##ضحكة
الفيوم
يعفي
ﺎلو
خريجة
want
ضمن
##ﻌ
يتلاعب
متناس
قاطعه
وحريرا
يفضفض
الخلط
##📷
فلة
بجناح
##ﺂء
عين
الساري
تسلل
اضاعوا
للخ
اصطنا
اوروبيا
مضلات
لعبتي
امريكان
ضربنا
##ﻮا
وتجارة
احتفالا
ba
ويعجز
1969
جنش
معايير
الدمعة
##ويتا
بالشفاء
👇🏽
mahm
للمحكمة
قصفها
هشوف
فاتهم
بجوار
وللوطن
ينقذك
البومه
وليال
التبديل
يتقنها
ينشغل
كهف
ودليل
رسلك
وحزني
البسوا
ليميز
##يادة
واب
الحاني
وخاصه
المعقول
لزمه
وبينكم
محافظا
البهجة
دلوقتى
##العالم
بجلطة
والصلاح
يصحبه
بحي
بقالي
وحيات
حالتها
هلكته
ﺎلحياه
سابق
متعشم
##ud
كبريت
الفا
تقاضي
ﺍﻏ
الترقيات
تنفي
بتفرج
وحياء
للجمهور
مغرب
ينفد
الفلوس
بگل
واجت
يديني
المقنع
وبشارة
مبيب
##اكس
نبضة
هبطل
المخل
فالعيد
##ساد
بصمه
سارة
##لاقتنا
بلدكم
مدعومة
شيخون
##فلو
بطرس
خبثا
داق
ومعاي
اطلبه
دوام
متفايلين
بعرفك
اساءه
الحاجة
يخصه
ماغفل
مبهجة
النغ
ﻣﺮﺍ
رهقا
واقلب
الزملكاوي
فتر
برود
لاتلتفت
الجاى
السنع
##حتش
الانستجرام
##🖕
ضار
للجيش
مدخل
شبة
المنحة
المجمع
ولبيه
##▓
##فرش
عجلون
نحقق
رغما
بالصوم
اخترعوا
yallaya
زملايي
شعوب
ﮫ
علوم
يستعرض
##وزيعها
##بعات
الخايسه
وحاقد
عبدو
شداد
شاهدها
نافذتي
الخونة
يشوبها
علبه
اقتلوا
ويخدم
##رموت
للاعلانات
فلسطينيين
رمل
صاحبن
##وجاع
دونه
والكسل
ماعرفنا
بطانا
لهيبتك
المعارك
لسلمان
يكمن
found
المزور
والانجازات
##حدر
صعدت
ميمنعش
عار
مباحثات
اقرووا
العرش
العطله
##تينا
##ﻨﻮﻥ
سخونة
احترامهم
بعفو
كماان
والغيب
صدوركم
نايم
لامته
للترند
اخافه
وتفكير
##ذلول
يفرحون
نعيمها
##ric
عجبه
المتقاعدين
كرامتي
السنافر
وشمس
موسسه
دخلتم
انقلبت
بالتفاول
وعم
لرابطة
للش
does
يساعدها
العلميه
twit
ضيع
للضر
بوشين
فقت
الكثيره
خصيصا
بالثورة
فتحي
##بطوا
مقطعه
سويته
وحدتي
المخضرم
العتبة
والمباراة
فخر
##ﻟﻠﻪ
##جرز
حقيقيين
برقع
الحسي
وابوس
هاذه
تكريمي
زنة
تبسط
بالود
##ﻳﻚ
مانك
ﻙ
اﻻم
الفناجيل
وروسيا
التغ
##وياء
محيط
الدكتور
متوكلا
تعذبني
تستخف
تركيزه
حرمته
ووصل
بحضوركم
khalid
يابابا
يجيي
التشام
لوحدي
اعصيك
##قالش
تثور
بالنار
بخدمة
الله💜
تبتسم
ترجمة
##بشرا
وطاحت
##للها
باصدار
##لھ
تثاءب
الخراف
تشهير
التهنيه
هيي
حبيتهم
##🐑
بتاعتك
##الملك
تكبيرة
السيره
متهم
ويبعد
ننتبه
للتربية
واخبرني
هعملك
مشرقا
جای
فتعالى
##عث
واحتلال
💛💙💛
المدخن
وسيعه
##نتاين
ونهايته
لتوافق
ويلعنون
رصد
تشي
بمتابعتكم
##جيو
##لموا
##اري
جحفله
لمعلمي
العفه
خطوت
مسلط
مسوولون
الفاش
##سكوت
ونسيم
ليالي
الحمود
##سجيل
الفيديو
الفريقين
##ضحى
للنبي
همى
ببلد
يغفرله
جرت
يعطر
##يعه
حقتك
ﺍﻟﻨﻔﺲ
ادب
ايرانيا
الرياضة
تمش
وصلني
يسطا
تكفيك
الاختباء
##تبىء
مريضة
واقفة
##etta
##زتك
وقام
ومت
الكارت
لاتبالي
تربط
قرارات
الجوهرة
للقتال
لال
بباقي
fight
هوايا
ولسى
صوي
اللوك
الفظ
بالمقلوب
حبني
اعنا
فغفر
كافورا
ایرانی
سيه
متهني
ذگرگ
ضابطا
الذيابي
يسدد
ووظيف
احيو
ازواج
##😜😂
ويهني
##داوة
اليق
عوف
وجاهد
القاهرة
وابيض
ﺂﻟ
الضماير
توجهنا
جلاجل
انفس
كلل
الفراخ
خوفا
##ورز
اثنيت
المنعم
🍃🍂
تاكدت
معقد
والاسلامية
السهرة
ليذكرك
ويزيد
سلامة
ويعطيها
ومتع
يجمعني
##ذافي
شغلت
قابض
بكافة
العصيبة
بطلاقة
وسياسة
فناجيل
الوظيفي
##جيج
خلقتك
لاثبات
يكاد
رستم
خطاياه
##💨
الاستهتار
##ماع
صقر
الجزيرة
وكبره
سيروا
للا
ليسال
متستاهلش
وتنسي
ادعمونا
باخطاء
نخلص
انق
بحيث
القدوة
##ב
فشل
عاملوا
والدوران
الحسبان
اسٺ
الاضرار
بالمرة
الكروت
ظنك
واسلموا
مصلحتنا
داء
بيقوم
kd
اتعسها
بذل
الناخبين
موعده
مذكورا
نموا
وذروا
سناء
لايعجزه
عثرات
##ﻴﺂ
##الحب
##ترين
سمو
زم
تستحم
القصيبي
يامولاي
عامرا
اسمعت
شخبارك
يتمثل
لشعوب
تسوين
مثلث
ﺍﻟﻤﺮ
لااه
مهجتي
خيبات
عدله
سكوتي
ستعرف
##يدون
مشير
ونسكي
رافت
##تيين
ورغ
بالشارع
الديكور
لغة
فدعا
التم
لميلان
تاملوها
يحد
hi
يازمن
تناظر
رمح
معلوماتي
وعشق
البعبع
مخرجون
نغير
لثلاث
كتوم
✔🅱➋ريتويت
تلو
يالاه
بیشتر
غثاء
##جرام
وريحان
قمرر
ارووح
السواق
اووف
newprofile
للعاشقين
حالك
ومالقيت
غزو
اختياره
ننساك
القاضي
تعالى
الكوثر
الكربلايي
مالوش
عبا
وتحلي
##👥
مرهف
بعرعر
##ثماري
بجد
فرحمته
##ﺟﻮﺩ
##مضى
معن
inst
هالمع
##قمة
نصحو
العنان
وفوقها
##غله
الانسجام
يزيده
بتعاملك
بالجفا
والرحمة
يكره
##ونغ
توقف
الباطنه
الوجبة
كنيسه
تتقدم
❶
وبداية
فضحت
تسليم
تتشمت
##يكي
ﻋﻠ
الماس
مبرروك
يتجاهل
بالرحيل
##يمكن
وعقال
الميموني
ماتهون
القطبي
وثق
موادع
بغاني
يشجع
عدلى
كرار
التحكيمية
ﺡ
حمرا
مرتضى
سيت
##هاجم
ننتظرك
يفوزون
##شنك
واسرة
سقيت
يدعك
##شرت
سرقة
وقاموا
راقبوا
التوعوية
المعادن
رويتر
بداء
اتركني
غيرني
وعذرا
##بكل
يناسبني
جاويش
##🇬🇧
##رايح
##كمن
لاجلك
وشا
وتزين
👆🏼
وتعطيه
ﻃﻔ
سلس
صمت
مغنيني
ايق
ﺂلدنيا
يبعده
##واييات
يلتهم
اماره
##ott
چي
العصبي
##رتبة
##قيناهم
الغيث
وضعنا
لبرج
بالدنيا
يصن
👆🏻
الاحص
بجميل
ﻋﻼ
ترت
قلع
يناه
##ظلوم
##اتج
تطلعات
يرجعني
##وانية
اهزر
محطات
وحظ
##امد
لوطننا
ادله
جنة
طاريك
##ادية
تحكيم
##نزل
ﺎع
متاخرين
##🙌🏻
يالربع
نير
دفعت
الشو
فزيت
##oof
عارفينه
المحبين
يكرهك
عارفه
وتجبر
صدقنا
واقعي
هتست
امتصاص
طوول
تعيسة
الطباخ
kuw
قفت
تستغفر
تاته
##ڈل
ازاد
ويرضيك
##ذبل
الجيش
اطفاله
الغفلة
الانعاش
المشاركة
تمنينا
shah
المشاهد
##وبيس
##🙂🙂
كثرت
نعما
فعاش
شكك
تتبعوا
وبناتها
col
فليست
لاحدود
تكونين
للصدقة
نوفمبر
يعجب
اوعي
نقيب
بوكس
تاجيل
جاهلا
الادويه
فرفض
بحياتكم
##محب
يحظر
اللحد
غلاه
اسلحه
الجملة
ولايزال
ذليلا
نتايجها
ولطفه
موذ
الاجمالي
عالمنا
لعبها
ويوجد
ملج
كفايه
بلطجي
السعوديون
غلاكم
بشعر
اوتيته
##صيح
غلبه
البروف
استوفيت
المفاجية
تمسه
متداول
وقاد
دسمان
لاجيال
##ولر
وشقيق
عروقه
وعقلا
يبوح
الاخطبوط
قددا
يمرض
البدلة
مراك
##صرة
music
قيادتنا
عالن
وعلامة
التجريبي
##جزيرة
وسهلة
يشتكون
ضعف
وقدمت
تسالوني
المدارية
بروم
المعامله
البلوى
للغايب
جله
##الصباح
موبايله
احبايي
##ﻠﻖ
الغيط
وكلكم
قاهرني
البوح
تذبحني
يقام
الرخص
اتعلمين
ماعتقد
الماسي
يستانف
اتردد
يوما
هالوجه
الميس
يسٺ
##↓↓
💘💘
تحترمه
نافس
هدرا
ويتاهل
تجيبه
مطرت
اعرفي
بابت
##اال
مشاعر
بالجنات
والج
اواسي
##بہ
بالجمهور
بيتح
فعش
عصبيتك
ثواب
طهور
قاب
المفيدة
اهمل
واليمين
بالرضا
##قجي
المحترمة
هيتشول
اعتاق
وﭑ
لاتجعلني
للتنمية
شاحن
جمعوا
للقايد
فهاجر
##الزور
اليومي
ﭔ
تفت
##لافات
واضيع
وعساه
##لتر
جدال
هاردلك
المعاليق
النعام
جريده
للتعارف
study
26
##ordan
التعدد
ﮓ
ويتوقع
##953
سلبيا
ولكنكم
330
كافر
ينطبق
ماكانوا
والمثابرة
ندعي
http
وقله
المزاجية
موفقة
تزعجنا
##ادهم
تعملي
هامبورغ
ياربيي
##ﺫ
gra
ولايته
معرة
طاريها
واشبع
الماي
##بعض
سيارات
اسب
##amors
وكرا
يزالون
انتظرتك
الذكريات
تغطية
الالقاب
باوند
وجحدوا
قواتنا
انثر
##اخت
وسيبقى
ويمنحك
ويسي
توجل
##ومين
اعطيهم
##فعني
##يته
متعلمين
ورى
##یے
النصيري
##ختك
مط
##ليون
العتي
تغريدها
تربيتك
##زحلق
النويدرات
##لب
النظافه
عهه
فلي
حياتة
مشواري
متستناش
بهلا
تابعني
abdelsalam
الاحترافي
وتتغير
##➐فولوباك
##وننا
##بطين
بتعيط
الفدايي
غرقى
اعرفهم
ومدى
تويتاتي
🔕💜
والالم
تابوت
راض
لكلماتك
عتابك
رعاع
ويرجعون
لليم
وتوكد
ذاكرته
وشهاد
ضمير
اليونا
ﺷﺧص
عطايه
مابينك
يغ
بالدليل
وصلح
لعندك
##اهلوا
قلبك❤
متالما
barcelona
اخطي
##عودية
فعلم
حميدة
٣٦
جنسيه
لمنطقة
حلقتين
المتجر
وانكم
خدها
عدني
يناسبه
يتراس
##شدني
الكسر
الزلل
##لكاوي
بينى
دردشة
رای
لخطبة
ﻛﻴﻒ
مسطول
##ﻴﺌﺎ
لاتكسر
رواسي
الشوارب
ناهد
ريختر
ماسب
بتشوفها
والامير
بالبرازيل
بسالفة
⭕⭕
يفترض
💎💎
والمستوصلة
مختلفا
يجهلون
للشرطة
##٨٠
تغريم
الهلالية
بغريب
##احد
بوابة
تهوى
اقنعني
تجعلك
المرتب
وجودگ
تحتل
لجمع
ماات
ريتشارد
##ents
ستكتشف
##attack
للجلوس
واطعموا
اشباهي
السلاح
##اتش
عبدالخالق
تاريخا
خلفنا
رغباته
تفلس
🌼🌼
يفرقون
تنقال
يستودع
مقصودة
نمارس
ريتك
خلفهم
الخيالية
##light
معدتي
نشكرك
بالند
##resse
ومنظر
واهوا
يدخل
بالمغفرة
الاجنبية
توصيه
شديت
قلوبكم
اتعمد
1966
تليفونك
يقاضي
ينتهي
1974
والمومنات
كلشي
المدربة
بالتدخل
##ﻗﺎ
تشاركنا
منجزات
يكرم
اهديتها
فتهجد
بنجلاديش
a5
تروي
يذيب
القاده
مرك
ادق
يدقق
تجزون
شراع
يتحسر
سيتحقق
ولاج
##هم
ومنح
جهدك
هيغواين
عساهم
بقلوبهم
##طقس
تحتج
يشيد
نده
حلف
قابلين
وتاريخه
والمف
سعينا
😠😠
تتخي
بذاتي
يازينه
بشرها
تعدى
غارقة
مغترب
متتكلمش
لقضاء
كرهك
فايز
sex
ابنة
البقا
##cl
efhmbr
لاتنتظر
افو
بهزر
للمشركين
مهمتك
الانقلابيين
الغوطة
وبصوت
شايعة
تاتينا
خانيونس
غاي
يكرهني
قانونيا
##رسها
مملكتنا
هالضحكه
يالت
وقبايل
للواء
تنتبه
الكنبه
##ﻠﻬﺎ
الصالحي
ركبة
وتزيل
ارس
##نقه
اسالة
باينة
قلبة
تكون
الامتناع
ﺗﻔﺴﺪ
باتها
حبيته
الخليج
سلاما
يبر
طريقتهم
للمساجد
جيان
الاودية
الراجحي
وندعوا
هالز
بتهزر
ترفع
سابقة
ويخليكم
##لغت
المفكرين
نفخر
الطاهر
اعزك
مناقشة
بتت
الثرى
يستغرب
العالق
الصقور
لانفاس
زايف
مصدع
##▬▬
##صلوا
داعين
##جازه
اعدي
لحق
ملتحي
المسرات
##ﺑر
##والح
الجلاد
ضبطها
الردع
بقية
واسالك
الصحہ
##لقين
##ran
وانشراح
بصنع
يشتكي
##ﺘﺮﻡ
ميليشيا
##يمه
السيكل
داه
تحبهم
بيحسد
المحاصرين
والتحقيق
##ヽ｀
وغيم
الجاحظ
##ﻧ
اوقاتها
ياللہ
ندافع
٦
بيتعلم
تناول
المستكبرين
الروع
نمتي
save
امنياته
فهمتي
الجامعي
لطريقة
للسيد
##✷
المعنوية
127
##صلى
اجسادا
الاكوان
سيتواجد
500🔥✅
130
مبسم
التمر
يستعدون
اهدافك
شبهك
الدوش
##🇩🇿
ورديه
الرمح
ترضخ
النحل
وعوده
حالاتك
ahmed
قدك
وطيبة
ابناينا
الخصومة
الالبوم
ستح
##تبقي
الثني
دفعات
لولاد
تحصنون
وغبي
يقروون
##قوة
ماسكيرانو
عراة
١٥
ﺛﻘﺔ
بتس
كورتوا
لحسابي
البحث
اكلي
بخيبة
يقفوا
السماع
مويدة
##سلم
حاضري
النهضه
فريقكم
تقلقي
افلم
مديره
ﺍﻟﺨﻄ
الشركة
رويتهم
استوعبنا
وتوك
والسب
بقالهم
يطبق
##باشر
بارترا
نرا
وانساك
تكتبوا
ويشهد
♥♥
عيينة
الاسماع
الكرويه
عاله
ويكند
وذمة
ارسلوا
تغارين
رقعة
##ﻤﺂ
##خاري
اتيكيت
ستزهر
لايليق
##ظها
البشوت
الاساسيين
رسالته
بالغرفة
فقع
مصممين
النموذجي
حرجه
التوقيت
الهييه
لابويا
يحاول
محاربة
الحذر
الرييسية
انحاش
سطا
سنكون
ذووقك
ربيع
احقاد
معطين
بشتري
الفاظ
##شاد
يد
ابحث
مايفرق
الوشم
الاتجاهات
هالغ
نحصل
بالوضع
ابتدات
گلام
الدارسين
قزاز
اتعرفت
يصحو
##لهام
تعلو
شوف
##عتك
خوفي
صفاتي
احلامنا
العرج
لمالك
cre
del
النادى
sl
استمتعوا
##ﻲ
لوول
وجودي
شهران
وعدا
##واره
اعتبرت
يسمعني
ردوا
يعت
كفرات
معبر
قافله
والصالحات
##عمر
الجزء
لاتضايق
اتعبهم
خلقناكم
مقصرون
عض
هبني
ﺑﻘ
تعكر
وسريع
للمريض
والذنب
هه😂
يقودنا
تتر
العبادة
##ﻤﻌﺔ
الموقوفين
لزملايي
فاصنع
اذبل
للوضع
ونك
تفوقت
##زيد
لطرح
ويغليك
اصارع
هالحزة
##عرع
الدري
بقيه
يٺ
وياا
غات
##مايو
اغضبتك
يرزقنا
لتق
مسمع
فيدي
اردا
بعدان
مذن
والحدود
للسلطنة
##ٺنا
وتتعلم
عطس
##💕
افطرت
النفير
##ec
انفرادي
روزنا
##aj
ويديم
يظنه
كذابين
صباع
نجمتنا
فيا
فاعلموا
ﺍﻟﻤﻮﺕ
لگي
##😂❤❤
الورود
نمتلك
مصلحون
غضبت
##قناش
##وفاء
يشعرني
هيم
##بكات
معرف
سياخذ
ar
هيعمل
الوقح
شفع
الباء
والعشره
دينيه
والصفاء
##1100
التاكد
ااش
زعلت
تبدد
نايمة
بتقوم
عبثية
بمارب
لمخلوق
نرقد
فاحذر
للثق
مابيك
المرا
##بيكم
اضيفه
ٲڪن
المثالية
انتبہ
الشريعة
##اات
امطرت
سالك
##اسب
الانضمام
ﻳﻬ
والغبار
تحفظه
طالبين
السكني
الاوهام
الرومن
اخذلك
دقوا
ووي
ﺎلث
لاحبابي
رث
##ف
##جرس
كثيفة
مهمته
##شش
حلال
##ثلي
الكويتي
شكري
ناحيتي
يسود
الوجهات
كور
##عوهم
ليفاجيك
بيدخل
معرفه
الخمسينات
ضايقني
تسمو
##خسرش
kau
الاجانب
وهمومك
كني
بالدي
دجله
بمدارس
تنعدم
##فكير
فعلن
##ﺭﻱ
ادبية
بدايه
وحري
تبخر
وعدد
ومابطن
تروق
مادامت
المحاسب
وبشوف
الصبحان
لابيه
ليذيقهم
لنايب
كا
##اقبه
➍فولو
حشمه
المواصل
وهى
الخاوية
بموقف
باركت
وشره
المتقين
والاجتماع
##خرو
وللت
اورينت
حسابك
وكلماتك
مويدين
بدلوا
بالمفضلة
حوايجنا
علب
دینے
المنفى
وماخاب
باعوك
لطفاء
281
##للى
##يى
زلت
##شوع
مجادي
سامحه
واسيا
##طنك
شبابه
##اريكا
القذايف
##ﯿﺮ
ستوك
والعار
##ضبط
##سرعة
المواجع
##وريز
اجبلك
بقه
شويتين
27500
##ثي
##فكرون
نتها
فالف
الذهنية
دورت
اسره
ميلاني
الامريكيه
##٦٠٠
للسعادهہ
##ايزه
يەو
امارة
استوطنت
وصاد
تعول
ويعد
تقصدي
جريزمان
night
##⚪
القعده
اضافية
عطينا
اﻟﻋ
متمس
نورة
##سلين
يحسبه
اترابا
٢٢٠
البنادق
نسيا
النفي
عندن
بالعم
🇩🇿
##ثيو
عب
يلطف
##💨💨🚈🚈
هوان
التنوير
وزی
وااجد
مطوع
تحيط
بيار
وتستمر
ﻛﺄ
ted
واللغة
اگ
وتكسر
المستنقع
لتست
واشباه
دارو
ودف
يتفاخرون
مشاعرها
فسترتني
##ذاجة
سنحيا
##ﻭﻝ
هربا
اطردو
ودموع
##جات
مفص
لهدم
ديرتي
وتاريخ
ارفض
##hadith
توي
نكتشف
الايرانيه
##املك
اشبي
الزوا
ماعرفت
شاہ
تعديل
وطريقة
##گثر
╮●
ياشيخنا
الاباحيه
قراراتك
تدفعه
نجاحك
نجاته
وابتلاء
##قرات
قولهم
التظاهر
مدلع
تناقش
عليش
mbcthevoicekids
المحتاج
##جازة
3مرات
الحجيج
©
الاشيا
للقناة
الصحبة
تتعطل
##ليفري
والعلن
##سهولة
يبخلون
##ration
القطاعات
ليسعدك
تسمن
##سنين
يصلحها
🍯
بالمجالس
سعوديا
الجبلين
grand
فضلك
الطاي
وارد
نملة
المحمدية
👌😍
جمالك
البطانة
تنتظروا
يستوطنون
عه
انی
##جاره
للابل
المشير
البردين
💭🌿
ملعبك
المعركة
##itt
اكرهني
ورض
##فروا
زنجبار
الجواد
╯
افنى
صابون
امك
الخد
توعدون
وعا
للملعب
صنعا
وبصري
الخذلان
ظهران
للثقافة
لاجتماع
شله
شيش
كالهواء
طازج
##ايد
had
الحوالي
##باتن
ارجوا
free
يتكون
صدره
##🗣
بيشوف
هالنوع
وبذل
##ضنا
يشر
الفضفضه
قياد
حانية
بموسم
والحكومه
وحضرتك
تعجبه
واستمتعوا
جرث
abdul
مافعلت
وبيده
يستحون
المراتب
خريف
ودعيت
واغفرلهم
المطي
بالعقول
بانجاز
افرايت
تخي
⛔
واسكنها
لاقرب
بزر
يعطيني
هدمت
##ضحكه
تشتهيه
للتطبيع
##طورة
والرابعة
هذول
##ora
##زني
خالدين
😂💔💔
##غلني
لاوجود
مواقيت
همته
نربي
يالغاليه
##319
عيوب
ماكون
فالمس
##سيج
يعلمني
ترف
وحشنى
والولايات
رصاص
خليكو
يوف
##طبخ
انجاح
ابنك
##رافه
للصهاينة
مكسبا
وسيي
نشرات
ستد
عالطريق
المغلوث
زعبيل
الاستقرار
سياحيه
الراس
لاكتشاف
اعقد
مبسوطين
ويعز
⛅
##رتنا
لسيدي
لبقى
مشاكلنا
الجامي
مناورة
كاست
اوب
والمواعيد
ثالث
ياكيف
القرفة
تعملو
bey
تختلط
##ﻮﺗ
وميز
مبروگ
سيب
متابعينك✔
##جيري
##ووطه
بامكانها
الفعال
##وو
بفكر
بامتلاك
الوارث
دفعتنا
النف
وول
يمكنني
اشكالنا
فاستغفرك
التمياط
وعندنا
نغرد
ازكى
فيحان
الكتابه
🎀
##اعات
واهلينا
براد
وربط
نصحه
الغاضبة
ابصارنا
بنخاف
وﻟ
طفلي
سالنا
يظبط
تفقدها
فولومي
يصلني
بوحده
تاريخيا
ومليشيات
ومولاها
كﻻم
الحلال
عايلات
والكذب
اشرار
##خيرة
الثمينه
🌺🍃
اذاب
##رضين
المضمون
حياته
التاخر
مسووله
يكدر
بالادارة
الجامعه
##ﺒﻴ
الخوار
المشتاق
ديماريا
مخلصين
للموسسات
عليناا
تعودني
المقاييس
💃🏻💃🏻
بتوقف
المرم
جفين
تهرب
بصباح
وجريح
جذوره
##ᅡ
زمام
ﮨ
والوصول
##🇸🇦👇🇸🇦👇
بنرجع
##ض
عروق
يقينك
الكيكة
تصك
تظاهرات
##لعني
تخصص
تغيرك
الفتن
مقنعة
ﺳﺘ
مخلوف
بالسودان
اعطيتها
والامة
رخاء
هزا
قايدهم
الحدودي
سنعمل
##رضون
لمتابعي
تقله
الاخرين
وبالعكس
المولف
فيومي
الترف
بوجوده
نكس
فلكل
ينحسب
الحصن
تحملها
استحسان
ونسيان
اشقاني
المسار
وينتظر
##ma
##شتم
وطالع
##راف
نعليه
اتزن
العلمانية
ابناءهم
قتيل
##فاوت
وادخلي
اﻻس
لله💙
sah
دعاوي
وعيدكم
الرواد
kills
واصلحوا
البعوض
عشرة
ماحدا
همین
القادمين
غفله
هيعيش
ببرهما
اهبط
kilaw
199
ﺗﻘﻮﻝ
##لش
cl
عليگ
بصديق
بيقولها
عظماء
القبس
السعه
دعموا
الباقي
كيري
ياجماعة
instagram
سحري
ثا
تغفل
059959
private
apple
ماستر
##وي
ومنعه
والشقاء
يديره
تستحوذ
وتوصيل
عزوبي
يكشف
مااعتقد
طلعته
والتزام
تناديكم
ضحكنا
هيبة
اتحدث
##جملها
ارايهم
بدايي
الوحش
خول
والثالثة
البريطانيه
الضربات
لذوقك
تسليمها
حرفي
هينزل
ﻫﻬ
عتقت
🇦🇷
اجنب
يرددها
without
انشطة
الكويت
معدن
يساعد
##ack
عيال
دعايات
نعمل
فاوليك
ﺗﻌﺎﻟﻰ
واكرم
بتسبيحة
ولاتحزن
يسمون
##للز
دعايك
الشاحنة
البن
##ge
موارد
وق
ضا
البخيتي
افلامه
people
شاذ
كاذ
المهارات
باننا
انع
الجديدة
مهماا
لستة
##ﻤﻴ
وضعيه
احبتنا
هنبدا
تفلح
كبي
تيسيرا
##باكي
##ﻄﺎﺀ
الرديف
اهتمامكم
◥
الطبل
ياعسى
طرايق
##ازلين
علاجه
المحافظة
ﺷﺊ
اسر
يبتسم
ﺍﻫ
الترقية
الكثيير
الوباء
يجهد
رية
##wi
بمن
النظ
##ستفيد
تجادلك
freedom
##ﺒﺎﺭ
السهرانين
ابووي
##وضي
شعرا
ملحوظ
لتفس
القرب
ﻗﻠﺒﻲ
قويه
وانين
ونفخر
يدبرها
##عوضش
التلاعب
##وجعك
بالمتابعة
المخلفات
##جيال
بلاستيك
القسوه
بليغة
غوست
المعلوماتية
ﺎلناس
##ستهم
ازم
تسامحوا
##سيون
الغارق
واللعب
عاشت
fah
انجليزية
الباسم
اوز
ازف
نلتقي
اتفرجت
تعملك
فعلتم
ملعقة
اوبا
تكتيكيا
بجنة
يعطيكي
استغلال
منزلتها
يابوح
بالصحة
show
نسى
يلغون
##نص
ومخيف
##😌❤
ينطح
فانكم
للدعوات
التسبيح
##فرجش
الشريان
##جرت
جايكم
مبعملش
فرجهم
ويشرب
ننجي
ghadajreidi
النسبة
الملاكمة
والذاكر
يتك
عدوة
للخلافات
الانشقاق
دزيكو
لديغا
يراد
ويكسر
مشاركات
زعيمهم
والفرحة
##♡♡
##وتوا
اسمگ
of
حش
الخلاف
فركوس
ﻭﺿ
لميس
انفج
ربک
اصي
ناجح
والمعاني
والالتزام
امتحانا
##91
مبنى
وجامعة
##لوم
يهدينا
بالظلام
f16
واهتمامك
ﻻاله
##الون
ترضي
فقدناها
بجيش
pat
a3
تفاي
يكثر
طايقة
##فترة
##ﻛﺮ
##بهت
فحاس
والسن
باليد
تسالها
٥٩
مسكينة
بحاجہ
باسبوع
مواصلة
ونسال
للاسباب
نج
الاشرف
الفتور
انفاقه
يشكرون
المنتهى
ﻋﻧ
القصب
##قبه
ياعيد
وحشه
خسر
افسده
ﺭﻣﻀﺎﻥ
بالاسف
سالفه
ولت
جيه
ايسر
مترجمة
باح
لاري
والتقديم
اضافه
والعود
قصيدة
الجلسات
سكتة
##ينيذ
اعلاني
نسقط
##💯
نبتدي
يهلل
##2015
سامحوني
نشاطا
برايهم
##صات
اعلامكم
٦٤
##فتك
ضجة
البخار
ياع
ويطمين
اتجن
##ﺘﺨ
طرقا
وتمسك
الشمالية
متجاوزا
خطوط
يضمد
المغاليق
تكبر
وفرحا
بسند
مابقتش
##شاب
رحمنا
يرقص
التوفيق
مديرا
واشرقت
سقاني
يستاه
مايستاهلون
احوجنا
القط
كريست
بسبع
هيرجع
يارسول
لرو
حقة
الخلاص
تشك
ولامفقودين
وبطل
وبحق
##break
لشاعرها
🗓
رسمه
sound
بترجع
حبيتو
وذيك
يتفلس
امرنا
راعية
عالفيسبوك
يجيز
تونسي
المحرك
تبسطها
عنادي
ومضى
دفة
لاغتيال
وشتاء
نحرهم
الدست
رخيص
توجعك
القاضى
صبحكم
تحبوني
مشاكلها
ㅤ
شاحنات
مفات
وممتع
السعدي
##اييه
92
الرمض
ارقصي
ايون
صويب
مساعدته
وخيب
الادنى
##ﺘﺂ
ومغفرته
🇮🇹
باسمه
جابو
دربنا
يجيني
قفاه
##مية
##قصير
يخليلنا
تجسسوا
مخر
##ذمر
بتدعم
##▄▄✿▄▄✿▄▄✿
اخطر
همة
مستيق
بيلاعب
باتصال
نتذكر
ذكيا
امثالك
لصحة
تنوم
اخبره
وعيونك
فكرتي
واكرمهم
وتجيني
##وسف
بالولايات
للسلام
##نيين
والكتابة
##لتكم
بيتى
كلطف
متناقض
##ner
ككل
##حرق
ادعس
وليعلمن
الجبس
منزلي
والفتيات
واج
##شيء
وطول
بعيدين
شاخ
رضاء
زمانه
ولقاهم
الونسو
ومحلات
جهده
حواجبها
طارد
يفني
جيشنا
واصلي
يترقب
اهتموا
بدينه
رقيبه
ترحمه
لندخ
ذاك
الصحيفة
دينار
الشبه
يحيط
الغريبه
نحوها
##نتمكن
فزعتك
تغنينا
سيعلم
حكومات
بعلاق
للعراق
تحرمنا
حفيظ
الموجز
الحسبة
حواره
سالوها
لجل
جوني
بخصم
فاط
اودي
بمنه
لحيه
التيمي
وتملك
كويتيون
الموافقه
السطوح
##٣
للاسطورة
اسويلك
##اعطني
##امير
##🤦
روحا
يمه
##هرة
احم
وفريق
اختل
facebook
##اسيس
لساعة
لمساعد
فيورنتينا
ياويل
مايزعج
برب
والمومن
وال
اشتكت
الغيبوبه
يقظة
##واه
لموتانا
داخلها
العامه
حساباتي
تتحم
واول
يناير
ماعليج
سطرين
وخشيتك
بالبراميل
بتذكر
العوق
ايمن
##ﻋﻲ
عثر
فبقوة
حصلته
مسكين
فلاحين
##لل
النصرة
والحسين
تاخذوا
راق
##صاص
##ﺧﺮﻳﻦ
حرث
يرو
ارفق
sham
يسرني
صلاه
##❥
تڪ
يشربون
ياتيك
ايكاردي
عديها
##نفري
بشرف
##فلوا
غمازات
شخابيط
##800
يوضع
رنيه
بشروا
بالنادي
ال5
ڼ
##🎈🎈
اغرق
##فح
##جدت
يسجل
نصمت
الالفاظ
بعملنا
گيے
لتكتشف
احساسهم
موضوعنا
بقوله
##وديوم
فاتجوز
ياعيوني
ﺂلن
##ns
مادبة
القطرية
دلت
جماعه
جمعه
طيبتي
يااللي
واضافة
ييسوا
##ﺔ
متميزه
شيكات
وخالي
بالقبر
بالرحمه
##فني
##40
الشلالات
يضلون
wom
شابت
وكيلا
الاق
التاثر
يتصف
والقانون
بيبوظ
سنعيش
وتقرب
سيسى
اطفش
اكتبك
المقدمه
يثبتك
هتخلص
الشريط
اغر
واقض
مختطف
مسو
رايحته
تستخدم
##شاري
يختص
متى
لابداع
حسب
يبكى
ويهم
مدحورا
تحبط
السعد
بعزه
بهالزمن
اتلي
هيا
اوزن
اوجه
المتوفين
انتة
05
مستقبلك
اليگ
بتكون
شباب
الصيانة
ذهبيه
افضل
##حيى
مشواره
العراقيون
السورية
كسي
##تحر
افعالكم
الحراميه
جعلتك
يجر
زملا
شبان
القثاء
اعددنا
اعتزل
شبه
محروقة
تحسبه
##ديا
ﺇﻵ
رجلها
فتم
الوزن
وصن
مهز
الظل
##اهير
وتجري
ارسلي
##باا
باليوم
الهبله
مواسمه
يوم
يشرحها
trip
الصادر
تمناك
اعرب
زق
الغنايم
##💔💔
باسلوبك
طع
##انيخ
نديم
##لاقي
الزاد
يداعب
بلل
مهتمين
وجنتك
الدعوية
احنى
ابي
وخواتي
المطمينة
وتحدي
هتفرح
الضو
ملفت
حركه
بيرجع
سيشارك
بينزل
تشتغل
فترك
التوب
وضد
المهنه
بتشبه
ذيبا
سيش
االح
زرعتها
مسيية
اوها
المحاولة
biaworld
فالاخلاق
نظل
لشوفتك
##لروع
كميه
للثورة
امامة
جاستن
للاهلى
تعطيني
##زيها
عقدۿہ
البكتريا
وظلت
##ﺮﺟ
ارزقني
احدثكم
الهاند
الخروجة
بلاتيني
##✦
صافي
##ې
خفافيش
وجعك
يشهدون
عربا
الخره
##فسير
tv
القناع
تصدقون
تعده
##روقه
النشاط
وضعته
تقا
##🔺
يخسى
فاغتن
هوما
طماطم
واا
لغوب
بتعملوا
حكيمة
واهما
قلبها
وجسر
الاستقالة
علماني
الهدنة
القولون
استغيث
القاد
##ily
الحركات
##earch
يارج
⚜
التحقيق
نظيفه
اللحاق
ضعت
تشوفون
##alek
استكانوا
التاسعة
الصليبيين
##یا
هارب
المقف
##لاشى
كفوفي
اضلاعي
صحفي
جوليانو
لايك
حوثيين
##ورع
الحاسد
الرجعى
موكيت
تورق
الصامد
جامل
السعير
##بلدية
🌸💭
يسكنني
حدوتة
يشيل
بقوم
قافية
شافي
وهموما
زوجية
##105
يلون
##ines
جبيني
امهاتكم
رضاي
ويشرفني
والحصار
بصيامك
نراك
اغمضت
حيدر
احتاجت
سوبرمان
فبشرهم
التنبيه
للشياطين
##بعثر
بسياره
والمعلمات
يتلون
فہ
ويخلف
تصارخ
يحفظج
الفانلة
بيعهما
والوله
للخيل
التقليد
بحالي
◀للاشتراك
راسنا
تتسرب
بابايكم
وكذاب
ﺧﻠ
اكييد
غبى
البرلماني
الجزي
وعشرات
شهواته
تستبدل
✔⭕تابع
بتاخذ
الاداب
عري
المستخدمين
التعود
للاوابين
مفتوحة
الفحم
شاهدتها
وعشقي
💨
شقيقه
الوايلي
قسنطينة
ونحس
يمحي
تتباهى
اشحن
فتجده
يسرقون
وحلو
رقى
ترخص
الساكت
##ﺮ
صدقه
##¨
##وفن
العابر
##ووي
وياش
رضاگ
الطاح
اعلامنا
معادية
يتحلطم
ختامها
مثيرا
اكتيب
خساير
وصفا
##برتو
علیه
سمعتنا
بديه
شاى
فوزنا
للخدمات
الله🌱
نبضاته
مابيني
☹☹
دلال
عبدالباري
##موذ
كوال
زيتونة
للنوم
حديثه
##ﺕ
خلينى
##برلين
تخيف
واحفظها
وجديدها
لحص
يحلمون
بمعناها
نزعل
هاو
تحفظ
share
وعمر
اثري
خير❤
سامحنا
دیکھ
موا
الغيظ
محير
عيشوا
تصل
ضره
##لوكي
تاقف
واكيد
وبكى
مصحوبا
نوفل
للمحتاجين
شقيه
رموشي
غرورك
وماحدش
ﻧﺤﺐ
♈
يراني
ضايف
ورزقي
##فايه
تضربوا
لرحلة
مانزلت
لنبينا
الخت
المعلمي
ليقدم
بصيح
سبيع
مكاوي
تتقن
تاخذنا
##للة
طمانينة
ممرات
هحاول
هتكسب
نامي
والهدم
وانهار
الاشد
الامنا
مجزي
عيناوي
ب15
بدمي
المشتاقون
ستذهب
حاضرون
⚡
وذكاء
##حسنين
😠
##قولة
صعيد
الروب
هالعيد
والجنون
فمت
الاذكار
ﺩﻣ
🔮
انجازاتك
🌐
اتو
راين
تاتيه
فييك
النعاس
والمجلس
انتصر
تسهيلا
غيب
##رازيل
بسويه
تصيبوا
بوية
jun
##🚨
حساباته
اصل
وطايرات
فرحنا
في٣٠
بالقتل
وفى
الاخرھ
التفجيرات
وبكون
بالوحد
تثبيت
##ky
اراقبك
هزمت
بتتريق
وقوي
ﻣﺎﺫﺍ
اهتدي
وعودا
ياخدني
مشش
التوصيات
الفعاليات
##84
والمروة
📍
للنظر
##كافيه
الاهلاويين
الاصابة
ماجاني
بيبى
امة2016
ماملكت
ملوك
مخابر
والسما
لتونس
سموها
اخذني
##فول
التعري
حلفت
الهييات
##ﻐ
الغرد
##زقة
ذي
##ماهم
صوتنا
ماطاح
و15
اسفي
يستبدل
والوك
هالشعب
##اكفين
اوجعه
يخرجه
افات
##فوفين
وتخاف
زبر
وفشل
##چه
ويوفقك
مويا
تفتش
وابكى
الترا
ونبارك
##ليے
بغف
لاصدق
حقه
ودخلت
##ذى
اعتاب
##غيري
##لق
ملون
باجازة
وافع
صدرا
الون
صدور
رخصه
فهب
نفيسة
صياح
للخواطر
بتحب
واحسانك
دوني
even
عالق
girl
##هور
##يالا
##ليجرام
##زيلها
شفاعته
يجاز
اشراك
##دريس
اسيا
##جازي
خشوم
القرشي
امتلا
##غداد
اصالة
##امن
شلونك
حاصر
##لديم
##اله
بالفطره
st
##خاء
حالات
بيسم
انطلق
وبريق
بنفضل
##قفل
متتالية
امطري
١٤٤٠
مانشستريونايتد
الطيور
مايعطي
ياورد
القطعه
##⇣
المشغل
منفقا
خيالك
لاخترت
wael
كلش
يحرس
جوناس
وصدقه
معزز
استخدمه
سجنك
##جوه
##emen
الجيل
وعشاق
لتفوز
لحد
للكل
##حيث
الاجداد
تحيتهم
##والدين
تحطين
التسهيل
💔❤
وشحن
ويثبت
بتعصب
الدكاترة
ويسعدني
مسموع
بحاج
وتغطية
##يبه
فردها
اعمالا
خذا
النشيج
خلوني
نظارة
زك
بشوفهم
مهلكي
باللبن
##راجل
زوجين
الناموس
مكفرات
بحفرالباطن
الوصاية
فواصل
وهلاليه💙💙
بهتانا
منحوت
فلن
ﺑﺪ
😎😂
وجمعه
##ﻘﻪ
بديلة
##نسى
والسد
والمق
البولي
ۆانت
##ابز
يستس
بالاسبوع
زيني
للته
😔
باسعار
الهالات
ايناس
الجريدة
لمسافة
انقلا
لليل
##ew
السودا
المواثيق
##ساع
تفض
دخلك
الثريد
تردده
دريت
ركوب
##اشهر
البناء
المناخية
الاستاد
البس
لتخ
##ﻇ
يحسدك
##ﺗﻬﻢ
وادركت
عارية
رجب
محر
طير
المكس
ييت
عزيزا
ماشوق
يلاه
بلحة
المزيكا
gcc
المرشد
تتجاه
السقا
والعسل
معسر
شدن
مايمكن
التاليه
ترزقنا
معظمه
يتامى
مخها
##وضها
سفره
محبوبة
راقصة
والهوى
يالاد
التقدير
##شارات
##يتس
عرقه
براا
وتوفير
##39
لاسيا
ويله
بكرامه
يمدحون
دستور
اجهل
وسع
##🤤
توجعه
عجمان
##😧
خسارتها
هذي
تصادم
الابتسام
وصحابي
والدعوة
تبدوا
البراهيم
اسوق
##شى
اقتباسات
##وج
مصير
ثماني
وامطار
ضياعي
وتعليقات
كريه
تبيه
والرجوع
انتر
اصط
##تذكر
امنية
بسجده
or
يي
##اتيجي
بلوغا
##ووز
ضعها
والبن
يحتفظ
بخفي
اعتصام
وربعك
فالاح
بالخدمة
##عده
والاخير
تذكريني
فست
مجزرة
الجدران
محاسبة
##ﺎﺟ
علوي
ﻣﻥ
عزكم
ويحول
😭💜💜
وحلق
##×
الخيط
لسكان
للتطور
تنباس
الرح
والفتن
تسا
باسي
##اندوز
الشرم
##سات
ارتقى
يارا
وصدقا
انفخ
غفت
يسا
بسلامه
يظما
للصورة
العلبه
بغت
يواصل
يوخرهم
##ific
خلاك
اهيم
للمستشفى
يرب
ويحمل
٢٠١٦
براس
ﻟﺘ
انتعل
##صو
##لندا
برجل
انتبه
عيالنا
يدون
كوباية
##اردة
بحاجتها
لشخصك
██
يض
##وظف
وليست
الالتزامات
هينه
الكيميايي
النجم
تفرغ
ابتسمنا
##تاخر
يفرحنا
عاديا
ريحتها
الباسط
كليتنا
تنع
والظراب
انساهم
هتضيع
ساجعل
اللع
الخدمه
ينطلق
مستاهلة
تدركها
مختلطة
اجار
کسی
الواث
صافات
بالسناب
اپنی
والغرق
يحلون
الخزي
اعتزاله
متكون
اطمع
بدرية
هيجيلك
عدته
اضعاف
فالى
##dc
mic
##ادا
الضحية
بالعديد
يتحرى
احصاي
بدالك
الڤ
يفقهه
التعا
شرهه
قتلتها
ينباع
لمشاريع
اللبنانية
هتولع
فانصت
وجزيل
والجامعات
والے
توج
فالنسيا
الاغذية
##جني
ﺎلط
##اتے
عس
##لتوا
اشفني
##لاط
old
فقدناهم
مقابر
بحبه
ادبرت
متوك
##🍇
بزوغ
ولجا
اوام
وتواجد
القي
ﺍﻷ
فريقك
##فقد
المدي
##idol
##روفة
سيسك
وجسدي
##ثمرين
وتقولين
ﻻن
##خابية
##الفه
ليكم
التحديات
لموسى
تلبس
مفهي
وانسه
تردها
تجاوزها
##ولاد
احاا
لجماعة
ﺻ
پہنچ
ﯿ
وياكاشف
وافخم
كوستا
فاجابه
قالكم
توا
ومنابت
##صدك
عاصر
360
هواية
اذق
##سر
تتجافى
اعدد
قربة
شت
بالفخر
فجا
الماكولات
سيجري
اخوانكم
السعا
مختفيه
##فع
##فعول
لعبده
كيفي
عرسان
##تے
المتاخره
لمر
88
دخلها
واشكال
يابه
موسم
مشان
نسخت
makeup
زوز
والعسكرية
##ﻨﺎﻙ
##wy
الفزعات
قلتلك
##ينكم
##⛄
ونفاق
المستخدم
##راية
الطيارات
dead
ضوءا
بكسر
هاتف
وغفل
قلب
النظافة
الخضر
بصمات
الراقيه
ريحت
وسبحان
🎉🎉
نحيي
##خه
ﻧﻮﺭ
واال
##لة
يتلذذ
👏🏻👏🏻
##ريدا
فران
ركلة
المالديف
الشه
الدنمارك
رهان
تخطت
لاستغلال
ونيس
المركزى
عتمتي
جعلكم
ستشارك
يفت
قروش
وجعلهم
يخلونا
ادخله
##خوة
التفايل
توكلوا
##منك
الصباحي
##وريات
فتيات
قلبهہ
هالحزه
افسدت
محجبة
لتسهيل
##يابك
عادت
هقفل
##زمك
هتحس
##😊
لوالدى
ويسال
بالوتي
.
وجما
طفلتي
الالهي
الضلالة
وعصبي
ويمن
يزاحم
واخرون
##حيل
وجداني
##١١
الحوثيين
##زار
بالطايف
واضحة
الجهاد
والسبت
برتاح
##سرتي
##خرية
تنقل
##رونا
فامسك
اعالج
الانقراض
خويي
##١٦
❤👍
اذوق
ﻛﺜﺮ
عهدا
##يا
مكانتها
##طير
##لبي
عشب
مناشده
علا
##iabenchik
والاثنين
تاي
ونسوا
استمتعي
##itch
##الی
بحركة
بفردوسها
##ركه
للرحمن
وخض
وداني
خالصين
الاعلانات
بخمسة
اطب
##زرها
مفرجة
بدوا
هتعمل
معجزين
تكسرني
المتدرب
بنية
سنابنا
ب١٠٠
يدعمهم
وجہ
تعري
عاشقك
وترضي
واوردنا
يدعمه
التفحيط
انتخبوا
ينصرون
مديدا
مخنوق
اسالوا
ومتاب
هاشتاقات
ایسی
اسبانيا
لتافكنا
٠٠٩
الفتى
مسا
اعتزلت
يومي
حتی
سلطانه
فالصبر
امرهم
اشهار
##لفا
wish
##فله
##ﻮﻳﺔ
فقلبي
شهي
الارسنال
المهموم
مروءة
##كرين
بشرية
artist
الوصفة
سياتى
تكلفا
اقامت
يحطوا
تعارف
لاحتوايه
بوسكيتس
خذلوك
مراجع
اسهر
القبيله
طابا
قز
##زموا
##لاست
تباط
##راحا
الدرس
##عذ
دماوها
تدعمه
واحاديث
منسيه
وياما
ﺗﺮﻛ
بالاضافة
اندية
نحمل
الامانات
بلح
🙈🙊
ٍ
ياحرام
جناين
ﻧﺎﺱ
طهورا
رابع
ينفتح
##قبها
يفقد
##بعية
فعجبا
الهلاليه
##رار
وبرحم
لمياء
بريق
بالتمام
##pg
تمرين
اصيله
وصيام
ۈمن
الاهرام
مزاولة
##war
لبي
الكتا
وانقض
فاحترم
##ضرورة
سايد
حسيبك
للعالميين
وخزة
##ولنا
بدوره
##✰
وللب
ووجهت
تفسيرا
nowplaying
يتمتعون
لاجلكم
الجريدي
تستورد
##دمات
الماسنجر
##👋🏼
سادس
مايخلي
##😞💔
سبات
##یات
##chahine
ماعملت
riy
قرانه
##ديون
##ﺪا
برجس
اعتقادي
هاجموا
مايجيك
تاملت
نضرب
الجراثيم
توامان
بالوظايف
بالساعات
يعله
تقشف
بدونك
فالش
ﺍﻟﻔ
ﺍﻟﻮﺍ
دبوس
تاذي
##فادع
##wood
مغفورة
يحذرون
والتط
يرحلوا
لتوظيف
متخصصة
لافض
بتغني
البود
بقصد
حريه
توهب
الرحباني
اريده
صحافي
والخارجية
المنامة
بتوفيقك
بشوفه
يابري
●الاشتراك
ونطق
بقبض
الجانبية
تابعة
اسوة
معاناة
تقدرون
المصيرية
##طلح
اضحي
##ڳ
جناته
المشهود
جديدي
وتيم
واعيش
والمستشفيات
والغير
مام
تطوله
##لغبط
وعلم
دولت
##بابات
الثلث
✔🅱
التظاهرات
مادري
جوبز
مذاكرة
لمعان
جوده
رحنا
بالشام
لذنوب
عملاق
لرش
##لعة
ترضاه
ماليه
والسابق
ياص
ترتيبها
##ديقة
اذ
الاخوان
##ماس
##ارے
##وﺎ
معص
سوته
افشل
تفاجينا
##خنين
يدع
هرمنا
دین
عداد
##وريوس
المذله
##عذر
بمستشفي
##یت
##درين
وشى
##خلصش
غامبول
اسيا2019
##طاير
🕊🕊
وبوجهه
شييين
##ولا
للجمعيات
الاشعري
##ودعها
تجيلي
سقا
ہر
##دى
##ێر
غيرتها
الرويشد
يندرج
تفوق
##ect
اهديته
ردع
الع
شنبه
##ثلا
الشات
جاهدت
لكونك
يمنعها
انتل
للقمة
فوسع
ورحمه
اوقاتك
تسحروا
الحضارات
وتوفيقا
اظبط
يستحقك
البدل
مقدرتش
نمد
##ثرها
ذلولا
##الس
هاام
الباسورد
كسالى
##غلول
المميزة
fashion
بالبرد
يهوي
المخالفة
يرفعان
الفقره
حااجة
##oo
تمد
يتفلسف
فامي
##هبال
بقربهم
فوانيس
والرجاء
شاشة
تتجاوز
رايعة
والحديث
واجراء
##ديدات
وني
الزويهري
يلتقون
حقدهم
زواجي
غلطة
حاطين
صحح
وسيع
حلها
الوضعية
مدنيين
الاصلاح
##ﺪﺕ
##بيان
الطايفية
الدمع
المقرب
واحمل
عكس
كاهيل
وفقكم
بالاسباب
##👯
وتولني
واحيان
جالها
ثوا
يرعى
تمترون
لتتفاعل
⸀
عاقب
##اتبك
بالاحلام
##صيحه
بتبص
اشتراكات
##غسون
rob
sara
##الوتر
السكينه
يتالم
هاشمي
القتل
مسقط
ﺓ
روبين
##تام
تهاني
بنزعل
تذيب
##وكو
##خبة
##بث
نظرة
##حبهم
ﺎلذي
دقيقا
مصادر
الزبده
حسبت
##صدري
والواثق
دیگر
افكرك
الحوش
الوحشي
##➌
##متوا
طلعات
##فال
اصابنا
##ﻛ
ندوش
الخياطة
لنفت
بقصيدة
##رواح
بصرى
الاثيوبي
لاتشكي
المهنية
##قلبون
تستحقين
وحشانى
نموذ
ساقعة
جدتي
يتناسب
ﻋﺎﻳ
اذكري
التش
بتبقي
شيماء
الخليجيين
##قالت
بيطلعون
غلطاتي
عاذ
مبتدي
باصبعيه
علك
واحلام
bl
وازواجنا
ستمطر
احس
خذلني
المقالات
البشر
الكنيست
اكتفاء
##ase
الكرار
مكانتك
فايبر
##سامحك
الغان
للشي
للفايزين
تحرى
خبرات
ميز
عاين
ينكحها
التيرم
يتوسل
تشديد
وقضاء
للزميل
وصاحبته
ۆشگر
مقاتلات
١٠٧
اهي
دامكم
لنفسك
نجعله
استثناييا
الج
السلوك
جناحك
انهت
عدالة
الرومنسيه
##alt
اشغلتني
##اليش
البدر
المقتدر
الابكم
الانص
ﺗﻨ
وقريبا
والاش
الوت
بالنوايا
وبيتك
بغل
جاءهم
يتزوج
🚶💔
نشاطك
bein
قرارها
بجلا
واعز
والترا
فجرت
##ﮪہ
##يراث
ولاتجعلني
برضا
##ناكو
وفرحوا
ياخط
مدع
يفارقنا
الغامضة
اطير
حابين
##😌😌
وريده
##eth
خورافي
●●
تهين
الانفال
##ﻮﻭ
يمجد
الفان
##قصات
دكتورنا
البولندي
الطرب
قطران
قرارت
المواد
لايعرف
وبنفس
ليكي
ملكات
##طنوخ
##ابوس
ارددها
ﻡ
دولار
ترتوت
اعتمد
اثمن
عقال
طاحوا
غريزة
للترجمة
نعتقد
يزداد
وسنه
❈
الاخبار
فساد
والفاسدين
ناظرت
قوول
##💙💛
مهت
ماقلته
الحديده
يفلت
هلف
##ﺘﺎ
ودعني
براحة
الفكره
هالتويته
##ياحي
ببيع
سليماني
الرويش
وتالي
الالياف
اقصاي
حقن
عظمي
كالمسك
تعاد
معاناتك
جزوعا
فطوركم
والصاحب
الشجر
يحضرون
سايبة
##لادي
وجهود
##زاهم
ودعواتكم
عبالهم
يمدحونه
حفتهم
بيشارك
بلد
##لفات
بيستخدم
##ثمت
عجيبة
ادخر
والطريقة
الوحي
الطيز
يله
ودوران
تغت
التص
الليام
ناد
اق
وسمي
كبل
وامسي
##رول
بيخت
##كانك
نصحي
##ﺍﻥ
نسيناه
نادره
يسويها
بالض
يان
ومقارنة
باهمية
حياتى
اطارات
##k4
##رسم
##صيل
ويلعب
##افه
ينقي
الضرورة
ﺛﻘ
ﺃﻫ
خطاياك
ramy
##لفه
عبره
قوايم
ترة
والدكتور
وبقينا
لمحا
سبحانة
الرحيل
بالعا
##هارة
ودله
##غمين
ﻳﺆﻟ
cbc
##شنج
ينمي
مملك
##ننا
##افو
منيعا
المكروه
سيلف
بلديه
بدعوى
للدار
الجادة
النصابين
استبعاد
واهات
المباركة
الحرمين
لتكوني
واسبانيا
الارص
زكها
محام
وذريته
ولادك
ياعالم
ايجابيه
🎶
اللذين
##ﺴﺖ
يشت
مسيولا
💙💭
##فرقش
العلانية
وصادق
٤٦
افرحي
وبذكر
افظع
خاوة
بختك
##تحول
لسجن
يترا
تايوان
ass
##اصدقاء
💠
مثلهن
هاشتاق
فتكون
الباب
سكنوا
اللواء
تخلصت
استفسارات
يعيدنا
باسكن
القيا
كونه
فج
الاردنيه
حكومه
بنصره
البوس
☺
كذبهم
فاعفوا
والحرس
طرد
بكفو
للمرا
شعارها
النبيﷺ
##عس
ﻗﺮ
بكرا
واثبت
شوز
وجبت
موديل
قشعريرة
##رجله
ﺿ
يكفينا
الشخصيه
تصيبك
اتنی
المرايا
فاستغفروا
ياعزيزي
اسمعني
وحدد
🌟
القليله
المعالج
ويقف
فاطمه
بغزة
واشك
احسنتي
التضليل
تنا
وتنظيف
152
همي
وامل
والكبر
##صب
اطال
##بناها
الحراير
متن
جينا
اكاديمية
اعطينا
##فاجا
تكلمنا
غايه
بالسجود
ادعولي
لاقول
مسني
##طبيق
بمستقبل
حبک
لتاهيل
بالابطال
مشاركين
💔🌚
##المتابعين✔
##😂
متحمس
دمك
##الانماء
الكف
##ins
شغلتك
بيشه
المعتق
باستن
نفيق
ايجاد
##جاير
ٱلذ
وارفع
##دينى
معاهم
قنع
والحقد
##ىء
كسوتنيه
نموت
لاستهداف
طبق
البلكونة
وذكره
انجلي
المطلاع
##ﻧك
🐣
نخاف
##تهن
فواكه
##➋
مقاوم
##ولكم
حسام
بسقوطي
البصل
يركع
بكاملها
نذيقهم
sk
##هونا
العليل
المكمل
حقيقة
مبب
ويرحمنا
v
شميت
يجت
شيبسي
طول
ينهى
##وازرة
ههااي
##فساد
تشوفها
##ويلات
المفرطة
ليزداد
بيلي
وهاي
حره
##ﺧﻠﻲ
##شيت
مايف
┊💙
##☕
##ﺦ
##تويتو
دودي
##🖐🏻
هخلص
يجزي
ايميل
video
كنا
##ame
بايخ
انتقاص
مبشرات
👌💜
فطورك
وتسعى
وحل
لولاه
😍💚
رقدت
هاذ
رفقته
والمستفيد
ملتقي
##اقم
عزوف
##ياز
هيمنة
ﻓﺮﺣ
قولوا
يصورون
والريح
ماتحس
واخرها
عالتويتر
⬇
هتلاقي
ايران
فعوله
141
عكسي
الاشعة
##ضول
خض
قوافل
ظننا
دعاة
اوطانهم
الموسيقار
لشعب
البشاشة
يتصلح
##دة
بردانه
ونندم
الجور
للتعاقد
خدوا
النساء
welcome
بالنفاق
الاستلام
اطلعوا
اوخ
سجين
ينقلبون
نيم
للض
##ايك
ميعاد
المادي
هزعل
مقابلتك
##ضرم
وحلا
ماغيرك
مشوارك
عنبر
الكريسماس
🔰
ضرار
التامر
سلعه
صعوبة
ماقدمت
والعيون
بضارهم
حصانة
مكبرة
##باد
##🌙
##رجر
ديكتاتور
😂👌🏻
##92
وعاشت
مشتاقلك
وستون
مشيوا
لحاكم
بالتعليم
وجھ
المشافي
هالع
باتو
ازور
##حبني
عنترة
##عاون
زراعة
##اكاو
للمعلوميه
اهلن
وثواب
##ذج
ماحبك
هتعم
لجيش
والسرور
بياكل
السهول
بالنا
الملاكم
تعيس
صبار
##ارب
شفه
بعطيك
الغبيه
##⬛
طرقات
فرضا
جمعناهم
يعطونه
لطفلة
المذهل
##واز
##در
##واتنا
همی
والديها
اضعت
بالس
نكسر
امثلة
الملاحظ
##ﺪﻭﺭ
تيكي
##ماجد
بمصابيح
##لومين
اتعصب
وزواج
الواسطات
بوم
رشح
تفع
للجامعات
اولادهم
معضلة
😹😹
ويفطر
الاو
صاروخية
المناعه
بايقاف
غدوا
اجعله
ﺗﺆ
جنيف
السيس
##مين
مقداره
tah
يبغاله
دخلهم
##عتب
##شيله
الموهوبين
وفقد
##درب
والفتح
وحاسس
استخفاف
منتج
سنود
وصاله
كرويف
زنقة
فحب
الطق
سنجار
ج2
بزعلك
##مامك
##ارعين
بالنهار
تكلفة
المفت
##ايتك
سيجعلك
##يوليو
افقدك
ملاقيكم
☆☆
الانستا
واستغفروه
زميرة
دٱ
البشير
وتمشي
الملكوت
علاقاتك
الظابط
عاريات
والبس
يابعيد
حاصله
١٤٣٩ه
الجادل
نبرا
♻
##قاتل
ضالا
معسل
والمصيبه
##ذكرني
وتعاطف
زياد
اطمح
يوظف
صالحة
الجلي
##🎥
ضال
اليافعي
سلسال
ببت
للتب
مصممه
والبدء
الفر
المناه
##رفان
الغريق
ﺣﻴﺎﺓ
لبد
قواي
يحادثك
##قنعة
عنيزة
مبتلي
##ذوق
سکتے
اتعام
بالكاس
موقع
يساله
ماتكره
سوالها
اقرر
مريضنا
للاخت
##فلة
tim
اوحي
الكحل
اجتمع
غاليها
منتح
##وشر
تعق
الوحدات
تسخر
بباريس
تنشر
افراحه
جواها
اعلاميي
تحلية
اغسلني
بيتعب
كتيير
عددها
للبي
يسرقها
سوما
والشرق
تكتم
##لاج
الطرقي
ومشاكل
##لاتها
##صفور
وجله
الاسس
بيش
بكري
بظهور
الخضوع
انصفوا
فلاته
##ضاني
1976
ضلوع
المبكي
##ent
الابجديات
نتغ
يخليها
كثرهم
الاطلالة
التاهي
وفتنته
تستهينوا
بيبص
والنادي
يرقع
مشر
##روف
مابي
##تناا
##ﻬﻪ
جددا
الجفاف
##وقن
بثاري
ستواجه
##201
##رسهم
فهذا
لفعل
نوال
هنديه
مدارسهم
الشفايف
القيص
موقفين
بدرى
واخويا
مدينه
اشيك
قبيلي
للابيض
ﺗﺼ
النزال
يرزقها
اصولها
يحبونا
##زمات
الاشتباك
الفق
ومسهلا
⬛
##صاميم
بهجت
وصدق
ولرب
فاكثر
لتذكر
طوابير
للخط
لاجيين
توبي
ياثم
للقوات
تعرف
والعلماء
ثلاثاء
ودني
وصوتها
بہ
الجنازة
##نطوا
الثقافي
وجسديا
المثال
التقى
سن
السادس
وتصلح
اطع
hist
البعيدين
بالعزم
النكته
فكشفنا
##ياسه
##وعه
يخترعون
اعملوا
يحمينا
الوساخه
المبدعه
##الهلالي
سيما
##بطت
الغيوم
🇵🇸
اخذناهم
للط
تيسير
سيهون
استمرار
enjoy
اظهر
##ﻘ
الخلابة
لجمعية
توضيح
تفجيرات
اقعدي
##🎆
يوفي
يغفرلك
نعاتبهم
لاهنتم
امره
##ابع
abo
نظراتك
وامجاد
افتح
عشاقها
المنطقه
ﺍﻟﻠﻪ
##هرباء
##عمري
المنحرف
فاش
تاخير
للغة
للاق
الطارق
خفاياه
##😘😍
شطب
##شيما
احاس
مستندات
حاجتهم
##مالي
نقلل
يخوض
ياسيسي
والبرود
بتمسي
الصعود
شعيب
بارقام
ينضح
فاتموا
فدكتا
##اتر
الحزم
بالاخر
منفى
ولديه
تواصيف
للتوقف
ويوفقنا
الخراب
والنقل
ﺎلا
##حام
خرق
تتزين
ويختار
ستك
##يلة
دست
مخد
واروي
اسيوية
يدلك
فكك
##صفح
##ولني
💙❤
##██
بيدى
وتحم
للخلق
انفعال
يرسله
مكاف
ومثله
ﻣﺤ
رتابة
عطيني
ماتكلم
##reif
الطازجة
مسابقات
مرتو
ازاله
يساوم
عزومه
مافيہ
ملبورن
زرقي
يعمري
باشراف
33
مخالفا
تحقيقات
عاجزين
باكملها
لحما
وبشر
ايامى
للاهتمام
بدع
نوران
جذري
ورزقه
وشايل
وديني
##فالية
يقدر
بنزين
تعبك
للحل
الغلطه
الاوصاف
هله
للمشتركين
الازمنة
##وراء
٤٩
##غبه
مفادها
##اشت
اليونسكو
صورتي
عرفان
الخاسر
ول
صحف
وجابك
لطفلك
بريقه
وزملايي
والبحرين
استهلاك
اصغر
##همه
جيزان
يتلى
للذكرى
وردت
يتجزا
ارواح
m7
##متني
لبنانية
##هق
تحليلات
تصافح
واش
##وزين
سيهات
تحتاج
☆
##فو
لايشكر
الجوي
ضلوعي
##fi
لدرج
تحسفت
تي
والريحان
بتصويت
للاحتفال
الصرصور
ليكذب
##ادن
ورديت
نسر
##ساويه
وجنب
تعم
ورغب
##بيك
يجوع
ﺎلوقت
القابض
وكد
معتوه
يستوعبها
تحوم
نبايع
شهيد
وكنت
الجبيل
الطاغي
ٱلح
تشغلني
جماعية
4⃣
الخر
حاظر
اجرني
والمستوشمة
اسخف
تبعي
الفضول
##ضاعف
قبرص
الشبيحة
عنيف
واخو
لاني
المصلى
##raissi
اطلس
##ﺑﻋ
وامانتي
بالعلا
جوميز
حيلتك
##وحشه
جنبني
واخره
الاانت
روسكم
بوعده
ومالي
الاشاوس
##ﺑي
الفقه
احاديث
يخلط
زعلتك
مغامرة
واعص
الدجى
البيرنابيو
فتنه
وبلسم
حلاوتها
تفخر
كاسر
وطيفك
المصرفية
بعزم
##🦋
comp
كيدهم
يعترض
اركد
##داقية
المتخ
##ينيك
فاران
للامير
فلينفض
احبگ
♥✨
ارحمها
##ט
##وخالد
جينز
وشعار
energy
رقي
والاض
الاخصايي
😂🤦🏻
حاسم
##ible
والعسكري
تستغل
محلا
الثام
##مدن
لتوقيع
تصرفاتي
2008
##مينان
والكر
##بهه
الصداره
##وايها
مسلس
فصد
غفير
وافق
عسكري
الاهلا
بركي
التاشيرة
فطوبى
ﷲ🌹
شيعيه
##ﺪﻯ
##وفني
فرقة
##وحد
ياشاعرنا
قل
##4a
##وطي
بماله
المبتسمين
يديرها
نسيانهم
الزعفران
بالشي
ماالذي
الضما
اييك
تامن
موجودا
##eng
الداعم
##th
الكربات
تخفوه
بمديرية
ﻓﻮﻕ
ايسرهما
المطلق
واحلامي
بطلق
جدو
المقدسة
اخذتها
بلقب
الاقصى
شدخل
##باگ
2003
الطيبين
##elf
لحياتي
وفقه
وابرز
يازب
اتفضلي
##عمل
نستعد
##فقة
حروفي
##بيتي
كالثلج
فراشي
استهدي
date
##شی
بداخل
ننتصر
ووٹ
بستر
وتغريد
حوايج
اوري
ﻋﺸﺎﻥ
وشفنا
المومنون
العجيب
بمكتب
##ستحقش
بالنيابة
صلی
##dy
الوزيرة
يفش
ايثار
اعتني
نصوحة
ڷ
فلبيني
وسنبقى
##☺💔
يجوا
تشاكا
##سلامة
اعذروني
##اتھ
ونبلوكم
للدور
ٱلر
المريحة
ايدها
وقاعده
جاى
شي
غليل
##ib
وقالك
لحمه
وماجوج
اموالا
المعمول
الصالحات
الرومي
اتلتكو
الصينيه
ربگ
gu
يافار
رجعني
المحيط
ولاكن
والبسه
بعينيه
خلفيه
والعطاء
صداره
يكرمكم
##وايح
##لاء
دموعا
##هير
البلاغة
وتلعب
مرفا
ومعاهم
بالعت
مستحقات
جاهله
##لسكوني
استطاع
بالكرم
ﻟﻨﻔﺴ
##˺
الزغبي
##ﻐﺎﺿﻰ
بقايهم
عدينا
سكولز
واسع
اليمنية
online
ورسم
##قطيع
بالحسنة
##قويم
فقرة
##غاثة
ثمارها
##بتدي
السرم
حرقان
عفي
ﻛﺘ
يكلمني
وتضيع
##اناه
قدماه
وطن
##فاوة
شاكيري
لہم
لاتتعب
اكباد
طعاما
بوده
ويفرح
وتستحق
بزا
الشح
للاكتياب
وسواريز
وعاشق
حجارة
منى
🙂💔
هی
نعمك
##شك
نشاء
لادم
شھ
المتدين
جوالات
ورقية
##ريكه
يعجبني
العرضة
الاستد
نفعل
ﺭﺃ
≈
نتوقع
الحميه
قبيل
ماعليكم
🏽
العصافير
اسمعو
تخدم
تحقيق
وعافيتها
وبينهم
امنين
كايدهم
الكشفية
طايره
خام
بحماس
جنوبا
work
##وايهم
لامن
بضحك
وبدي
##اثرت
مهران
يتحطم
براحتي
bama
خارجة
بوبا
خطب
البان
تعتقدون
وخل
اطردوا
الدرر
واشخاص
ليفهم
لاتوجد
طيرا
##لاد
##لگ
ومطلوب
اسبوعية
بتمثل
للسوبر
وجسد
##ۊ
واولياء
كولومبيا
الاحسان
راسهم
يضي
ينتظرني
##لطت
تلاقت
والطلاقۿہ
##لد
التصدي
التشخيص
يتطرق
فالمحبه
واشف
اخرس
تسعه
لحنان
مرتدة
اص
شقت
الزيك
لامير
ويمدد
كفتة
##ﺪﻳﻦ
باﻷ
##جوم
وتهدي
##￼
##تكي
##ﻧﺂ
لوين
##🎉🎊
يتركك
المراجع
تكلنى
عضلاتك
##رفها
الاخضر
ٱلذي
معناه
هاج
زفت
##ﻃ
التكيف
محتاجا
وارجع
##عبي
الاعتذارواذا
##كنش
ابنسى
يدفعان
نصيبك
##❷
ارجوك
ۈالحمدللہ
وحاله
تفرعت
##غم
يگون
مسامعي
ومعنويا
##↴
بدعوتكم
##قضي
تبدع
ليع
لگن
يغليك
دفعوا
تصغي
😂😂🤦
اضيق
وضح
قولكم
مظله
وشخصيتك
متفايلا
مبطل
واعطي
♣
المواجيب
مرير
##سبوك
تومنون
الاجراء
صايرة
وحبيبتي
##يلية
بلياردو
بانواعه
##ضبان
واستهداف
جدارية
غيابي
عالقهوه
##ورش
011
ۉكبر
اخبط
الطهر
اسن
مدايق
ذاكرتك
والوكيل
معفنة
ديوان
يرينا
باهلنا
الاوف
##رييل
تاسيسه
samsung
##شغل
اچھا
صفع
ينتظرنا
##ﻨﺪ
##سمعك
run
##وهاا
بهيك
##هاض
صفايح
بغوا
حبيبة
if
اوجعك
يستحقه
##سطها
الناش
ماخليت
متاخره
افتعبدون
##ضيقا
لتصبح
🔴🔵
روسنا
##فلومي
الغرور
يخب
اجرامية
الدرج
ماهر
تسترجع
الاذاعي
بحلق
بفا
بالطيران
##ظهري
##d
المهتم
لاترد
مقات
##123
النارية
برلين
فعندما
مساحته
متاكدا
بالفساد
##اضرين
اديهم
باز
الدايم
لفعاليات
والغناء
ينفعني
بناصيتها
الوالي
##قصد
##قيت
متعه
زاح
اجبرتني
واعمال
كانتي
اﻟخير
##عال
ann
##تاك
سروري
واشعر
الشف
ادنى
بالبقاء
السلم
متصلة
قذايف
وشروط
والدواعش
تار
المستدامة
خطواته
العجمان
الاحباب
يتعاون
سمعته
بتمطر
يهجرون
للطيب
يوقع
##ﺪﻳﺪ
##متعهم
تربية
صورك
الركب
فلقد
👌❤
كلامها
هوو
موته
جولة
وتق
فداك
وبشار
##ﺟﻪ
جولد
هوليوود
فاعرف
مونتاج
##هايط
نتالم
ال2
حطوه
🎈
⁽
##خصصة
##بعون
٦٧
فتوح
يالدنيا
للربع
استطال
their
0
وابوي
##ﻤﺴ
مخك
مباارك
وبدت
وبالح
المدر
سكشن
الصدمة
الارم
غلاته
يكتسح
النشي
اجتماع
تلهم
المحظوظين
حسبتم
يرخصك
##زرع
استكبارا
الارتواء
موتاكم
reminder
ماكي
نعيط
نتمكن
##راهية
واذاكر
يابوع
ويسامح
وانجح
المبر
##سرته
لازاد
واخته
الفتي
viva
قذارة
##لسانه
ياقلبى
واع
زی
جعب
##وفتش
ولاسابق
يغضبك
المشاع
🔲
بتوجيهات
##قتكم
القيام
للطلبة
بكثافة
المعوذتين
اجنبي
ماطلبت
قناعاتي
المظلومين
##💏
ويرحلون
وحيدة
لاتحكم
البداية
اكتسبوا
ب2
##ثم
شرهة
منتب
والروس
والخارج
اجملك
##ages
لتحقيقها
##بيه
ماها
نشطة
اخرتي
ضغط
الرق
سددت
دليلك
اقيموا
امال
الجنايي
المضي
تصبحي
للجار
دواي
##4t
المصلح
بالصيام
وانار
##نطاس
معارضة
سرد
قواما
البواسل
ضحكتيني
طاي
القصي
##om
زياده
عدها
وصبح
هتلاقيه
الحفظ
دليل
قاسم
ورحمتك
تغليك
##جنني
##sl
##enger
ملک
لحساب
ظهير
ﺐ
##تاح
##ﺾ
##سبحان
باسرها
الكرامة
اختارتها
لاشاف
يغشانا
15pm
##وبى
يبحث
ساخت
جلسات
##بالم
##حقر
##ايعين
##راام
ندق
بوعي
جاهزة
##صرفات
للدرج
تدبر
بین
عملناه
##دهم
واتقان
تخسي
هتموت
ضحكة
ماركو
👎
والسلوك
ٳن
جنوبية
ﷻ
هديك
بصومه
ودعمكم
بالشمس
اكسس
##من
فيقتل
امرىء
يحررون
بالام
##ويا
الادمن
يبدون
العايلي
##شدنا
سخيمة
الاتباع
لرجال
دعاءه
عقلاء
والحي
يتبرا
اختلف
تتاب
تحتضر
وتطور
سيقول
يحللون
تضامنا
واخرتك
لن
لجامعة
فقيه
ودعوة
مشيته
المراد
تتفاجا
رہی
المباره
والتكبر
##oukries
💯💯ضيفني🔛اضيفك
القايله
الجحش
هادي
تفاصيلها
مطور
##طوني
㊗➏
##😹
بالقروب
لا
##لوو
وبالمقابل
حبيبين
مصانع
برفق
الكفاءات
لحينا
تاريخكم
يحفظون
##محمدﷺ
لاتنس
يتسع
بينيتيز
نشروا
تضربه
قصتنا
الحكايه
مايفتح
40
العي
بتحبها
##وقظك
زلاتهم
خبز
وينقلب
الاراده
تشترك
الجاري
التسليك
##وسد
##هبل
##كها
عنادك
##مت
بشرهم
عثيمين
تفوو
بعدگ
يعينا
بالعاصمة
هعيش
##حاني
##لتهابات
غرابة
مكالم
ملالي
صبروا
تستجيب
وصباحي
رييسك
ضربها
تجميد
ايقظت
ونقطة
جنبهم
املي
اجتماعها
اعذرني
الالغ
##يراد
سميوني
لرفض
رجعنا
السد
بخشيتك
mass
لاستضافة
ﻟﻤﺎ
المجانيه
##شوفه
تمول
يكفيهم
##jj
الغربان
##سار
فيه
##اهره
افنيت
يوصلون
##63
حولها
والامت
center
##😭😭❤
الشوكي
وتقديري
الايه
سيم
ﺗﻮ
##sa
جرحى
شملتهم
184
##vi
ارتفاع
نتوب
عرشه
بانتما
##يرت
موسيقية
بالاصل
البل
سبعه
العيسري
yall
اخوية
اعتر
##🌕
اسما
##ريمي
مقابلته
وناخد
مجهد
شرايها
ياوطني
غذا
بالصواريخ
وعمرها
α
والقد
احصايياتي
متفكر
ضحكي
عاقلة
يرجعه
يوصيني
style
مقرب
ليرة
##⚫⚪
نخوض
تعاق
تجدوا
وايد
والانس
عدهم
فغفرلي
بالغد
الكيوي
متكامل
##فبراير
##ל
الفكري
المفص
ل5
ورجل
النعناع
لصحتك
النشاما
واك
والعروض
اناقه
تفرق
فجرا
متناكة
سالف
##لكا
##◄
الضويية
والوع
واذكروا
حلاته
وهمك
نتيجتها
التسمية
حكام
ترحي
❤✨
تفارقه
وطهر
تعنيني
والدها
ابد
شفاءك
##ولف
لدينك
شادين
المتخلفه
واجمل
ليسعدوا
##ولدن
تسقيني
فاصفح
حمدى
بالمنت
المحاسبة
منتهيه
وبار
المدبر
الشيي
بلده
صحيفتك
يمنعون
التليفزيون
والبرص
ويسر
فانتقمنا
لمحزون
lost
كلينتون
اللغات
للاج
العذال
الرت
للغ
متعصبة
تسبب
هونك
للجمعية
صده
السستم
##😂✋
لاوالله
انسدح
لتخفيف
##ينوا
ليوناردو
الاقليات
ورضوانا
never
وتقولي
البلاء
محاطا
ايعقل
المواكب
بالقصيم
##قابلهم
اخصايي
وتصور
تمنا
##ذرني
زوجا
وزوجة
يجدعان
##ave
المهمات
سيغنيني
نبيها
الساط
كايروكي
السبان
ييسر
ۆﺎ
التز
##ضك
الكلوي
وجري
##🎩
ارتبك
املها
ياعالميين
بالمت
عقيدتنا
المفسدين
##ﻌﺮﻑ
سجنه
دوب
برسايل
واغاني
هنا
ﻭﻻ
مناقصة
منجد
##مهندس
تصيبني
سبحان
حيك
الغاط
التمرين
🇸
يهون
تسيل
حاال
الحصل
للمستوى
احتواني
عجاج
##شعل
218
الجريد
بمين
😏😏
مواف
حاشدة
السراب
مدربي
تمزح
العوامية
مكاين
الوي
برنامجا
ياحبيبى
النعماني
يجعلنا
حز
يراگ
المجند
انضباط
وعروض
الكس
##30967
صووت
طاريه
تعصيه
التانيب
انثى
##مميز
الورده
مكثفة
تتخذ
وللاخرة
وحرار
الربا
رايحة
الياب
والاطباء
فلول
مشفتش
##رووح
دهانات
جوايا
جدة
##58
##رح
تلعب
فاتنا
انقهر
##ﺮﻭﺍ
حبذا
##حمدا
جيرمان
دولتكم
البريطان
للمريخ
##خذلك
مامرت
تحمي
والشده
بتبادل
##لیل
للسعودية
بيظهر
والذيب
الكابي
الخفاق
sh
##تيها
موزة
الموسوعة
ستفتح
تنفتح
ﺑﺤ
##جواء
##صرم
##شاور
كالذى
لتنذر
🇵
لادن
نرضي
وفرض
غسيل
يطغيني
ﻭﻧ
stand
واحده
قايز
بالوفا
المجرمين
##فسر
توشك
##اعة
ستر
للطيبين
تهاون
الابتسامات
الاتصالات
والعشرين
##تحاد
350
لاعلى
باذ
##ﻫﮧ
افانت
##مدم
٢٠١٧م
ظباط
##uz
الاونة
##ينيل
##ويرس
الضال
التايب
تعيين
##انات
٢٠١٨م
اجابته
التغاريد
##ذون
ﻣﻌﻲ
ولوالديك
اووي
العريان
الاستفادة
تشتي
المرعبة
بالست
لاح
موجودين
قاضى
والشتاء
وجان
😂💔
##شلونة
بطرت
موديلات
السوفي
بالسي
بخار
ﻳﻌﺮﻑ
4k
اﻻهلي
٣
يعيشها
يسكنك
رقبة
شراء
يلو
بشهر
البطش
كروية
متماسك
لاتشتكي
توصلك
طر
##ستقرام
السميري
بايصال
يول
وذي
للابحاث
اقراي
رضاا
بنطلع
وابنها
##يسي
مسمعي
الفطر
المزورة
والام
يديده
علمك
بيفكرني
الضلمه
بتحويل
سويف
مانيب
ببي
ir
١١٥
يسوو
البطاقات
الساهر
حيلها
بتزين
هتقوم
شاكيرا
##نكر
##موه
شوشو
منش
##ااد
لازلنا
المقلب
ملكه
##75
نفت
غابة
يتفطرن
عقده
فردوسك
طاحت
##جبات
مضجعك
عالط
الدموية
يوفنتوس
كما
ب7
وحشته
##ﺼ
للوصول
کہاں
##ظه
اثارت
##قصاء
خربشات
##افري
للتخفيف
منبج
قايدها
احداهن
##❤✨
فياتي
تستضيف
بالذاكرة
بشنو
تزه
طما
الانتصارات
المبارك
الحنية
فليتذكر
mbcth
تبعثرني
seen
انتخابية
head
مجهولا
التنمر
تضحكين
سرهم
الذلة
نظرا
اشهى
blog
الزوجة
لكون
حفظي
بعدو
هتيجى
##مسنا
لنظام
لروحي
قطاعات
##دالا
تقطيع
14feb
ديك
الوصخه
تنتشر
اوراقها
قميصك
##صحاب
حميم
انقاذ
والقليل
نهارا
عباءة
حبيبه
غد
##ﺪﺙ
انضم
البويه
لمس
المعجب
مكرمون
اررحب
تدمن
المحتاجين
صايد
النهرده
قسوته
اصابتك
الحكيمة
ماتن
غال
للفشل
hd
زكاة
ممالك
يجي
ننكر
لمدرب
اقسمت
السويدية
وغش
ثلاثي
المهاجم
تحدثه
يبيك
الجموع
عبدالجواد
مذاكرتش
يستغل
يلعبها
طايفي
لصلب
house
وتحياتي
كتابه
التفات
العروق
احداثه
##فقودين
ويكيليكس
ﻫﻨ
نقني
منقوله
بنشاط
مستعجلين
تحير
ينتابني
سبحانه
اا
الاصغاء
والمغرم
وافض
ملو
عقبالك
##فاح
وهيبة
ونبتسم
واعلن
للطاقة
فاجمع
الراهنة
##😂👊
وسيلة
جحيم
استرج
حاصل
😂🙈
الذخيرة
تركته
ويقولو
اختبي
يلعبوا
السابقون
البايع
تربح
كلموني
وقرارات
نته
الثمين
ﺣﺐ
##ape
وطه
عقولنا
يعينكم
التصرفات
بحزم
زواجهم
نجعلهم
مدينتنا
النهر
##ﻬﺂ
🍺
ورزقنيه
الابتكار
المزعجة
المزاجيه
حف
جودي
عفة
عينين
يوفقج
الفاتيكان
قارعة
عنزه
بغارة
اخلا
المتعمد
لكف
اسوي
حربنا
##وسها
المخلصين
on
بروفيسور
تعيينه
اليمنيين
وزير
بتب
والادواء
قد
ec
اخوض
بهتم
دﺎ
سهل
يعودوا
وكمال
تحتم
الفحل
خفاف
##اتمة
##♡ي
اهملتها
علميه
قسما
يعطيكم
بقى
الوعد
قرى
##هدوء
لايقدر
اخلاصك
sab
قني
اتيناهم
العمالة
لاختراق
اعبدوا
صدام
والمرض
##👏🏻
بالرجل
معس
والموضوع
سنوات
##عمها
الخسارة
المولمة
يتجمع
ويقوي
ومانشستر
سلب
خبره
##طيع
يلبسه
ماوجد
والاعلاميين
كافة
وشهادة
بالخيانه
ⓜ➏اضافة
بنوته
ارسين
بقوتك
وسق
بعرس
تلبسي
ويلت
بعبادة
عملوا
بذاكرتي
وعزايم
بعلمه
فحين
🔷
##¯
لز
وهيبه
لمره
كاح
اشخاصا
وقادة
بمح
الاا
يبطن
الاوان
نوحا
قباني
صافر
القناعات
لاك
وضعوا
ﺧﻴﺮﺍ
ملكية
فيسات
وبيق
بلكي
☺🌹
لوت
مالوا
اعلامها
نسالگ
قمره
##علمك
w
شہر
لحالنا
الكلاام
بادية
##عاوي
##ودين
ورضاها
بمعنى
التواريخ
الخطر
التاسيس
makkah
##✹
يخلصنا
اكسنت
فنزويلا
الدولتين
##❤❤
نخلا
اصلاحي
للاخرة
معطرة
ﻑ
حرها
##😮
رييسا
القسط
##🇩🇪
##ﺆﺍﻝ
تعلمين
##ﺜ
ماتحتاجه
الشماغ
امنحني
السيء
عريان
ولوالدينا
محتااج
##بله
##ﺸﻖ
##لتها
##ight
ويمكر
والنفوس
فعي
تشهدها
الشبيح
كروس
يوصل
سميت
هتتجوز
لنتايج
##j
مواليد
يضح
ﮑ
نشره
haidymoussa
سويلي
##ﺵ
امین
عزانا
طالبان
ويهي
والقرف
تودع
اربح
الباسل
اقصدك
بتاخ
شبا
وبسيط
اتسرق
خياطة
##ويتين
وسلمواتس
بزوال
سيرته
فالحمد
##کان
مطية
زهايمر
##ظب
القبطان
اذكياء
واتينا
وحزم
ويتعلم
##وزا
وصحبة
اغاث
وطيران
دين
تذاكر
معلنا
##ﺗﺎ
##③
للارواح
للكتابة
خطة
##🙍
يامدبر
ظاهرها
الردى
علمه
ep
د
##ضف
ضيفوا
هلع
عمال
راها
ويقدم
بشان
الله🌸
##شتت
سينمايية
كمثال
كالش
وجيت
تصعيد
امواجه
افتقدنا
نجاحي
طمين
تحسها
غريان
ويزدكم
بسب
🙄😂
تتخرج
##لبت
هالترم
باخلاص
##حبوش
❤💦
بتجميع
استاذه
قاريا
##فيديو
يدبر
كربة
بحفل
بيف
##اليت
يورد
##جازف
ينكسر
يبعدنا
##vs
موخرا
للصباح
مفاج
الربط
نيلسون
ارهاب
جاهزون
يلغى
##بدو
السميط
للميلان
بطله
جانے
اتنفسك
##ﺄﻟﻢ
##بارة
##بتم
نرغب
بالتعبير
بمزاج
##ساءه
النقابات
نفرط
الفه
والجزر
کنم
ﻭﺃﻧﺖ
الثنيان
زوجه
انستقرام
وι
##jar
تلاقينا
##تبوا
واتركها
للملايكة
جوان
متد
معدوده
##no
قتالية
تخافوا
بسح
##طو
الطوا
وتلهم
عانت
الكلور
صحبي
وتكتفي
elect
اباتشي
تصافحك
للرسول
كلية
الديوان
واجبر
خطاه
اجلال
اتجاهل
وتفاءلوا
##لط
شاليه
الوايت
##يب
ولقايه
بارواح
سايق
رونالدينيو
🍃🌸🍃
يعي
التعزية
طعنة
الاسمري
##ارضه
تجيه
اعذرك
##واات
الحامدين
##نب
##سمحش
لرضا
تنحي
repostapp
لكنى
😭💔💔
فرقا
يتساءلون
والحياء
##بتها
يفع
##ourahla
بايمان
وتعزروه
##قبلا
##قذك
ﻵ
يالليل
المحافظه
##ازيتا
##برز
##عملها
بتفاول
كمثل
يبيلك
فارفق
##وتيه
##سدح
اثنتين
##اليه
اوضة
ﺍﻟﺒﻌ
اخذو
الجديده
هنيدي
haw
اعتمدت
ريتني
يسقيها
##تنظيف
بدموع
جالت
دقيق
والزك
##لاع
حث
سيادة
مدرجات
cr7
غرد
فنا
تشب
ظنونه
ضراء
قوويه
العنز
تليفوني
العروبة
جماعته
ترتسم
##يرهم
رسل
وافكاري
بكثرة
بامره
للابت
لون
الساس
##ندى
ماعشت
##😬
بعفويه
للون
##غز
لتفادي
لمدارس
هرمون
خلى
ولكننا
ارجي
يعتبره
المسرفين
فالدال
بالطمانينة
##وموا
عنود
متقرب
##🇷
اقترح
نرك
ايعجز
كز
ترانا
يورق
البيضة
تتحدث
الربع
ٺرى
غزيرة
عتيبة
متاك
##ﻴﺪﺍ
فعد
##٨٧
الخطي
الخرج
ونزه
##ودى
##ينها
تعبثوا
معيشتها
تجين
النافذه
واسكب
تطمن
والنفط
كعك
بيتحول
##قااء
##وادي
الاتي
بيده
239
المغرور
بصحيح
تناشدكم
حرمني
الجحود
##ذو
القصبي
استغفرو
واشوفك
واليم
##تح
الطيار
لهوا
✨💜
رعاية
شقيق
ﻳﺰ
اسرة
ايا
فيصل
للقصف
78
الكره
##لسم
leave
##دع
الضالون
به
بمعافاتك
الحته
##شركة
##88
فتحبني
pres
الحمير
بضغط
ﻦ
توفاه
وصريح
فوك
بالاحرى
##لذ
##u
##بيرة
##لويات
العمالقة
يبصر
كااك
لهفتي
ومساء
عرضها
للتعريف
وﻵ
وينجي
##باعد
لليابان
السهر
تكسبه
ظهور
اكسو
غث
المنافقون
خيل
بسماع
ياغلا
تصرفاتك
تويد
يحبون
الجناح
للحظات
اراضيها
وعوا
اختلافي
النعال
لتث
اسعدك
##شمة
متحركة
علامك
قطاع
ولگم
اختلق
سطرا
عقوب
بعودته
اقدارك
ﮐﮯ
ﺑﺨ
بيعشق
بالحمد
يخلصون
مدفع
بالانجليزي
##نيجي
الفعايل
لاعادة
الضويي
والقلة
تصرفاتها
وامورهم
والقنوات
بضربة
ارميها
والتع
لسلامة
الهدهد
##ﯾب
الوطن
حكوا
قضيتهم
استهبال
الحرامية
يخبط
بكيفك
ننساهم
##عثرة
گیا
سوه
مكانتي
والمغرب
زايد
عمرين
تزهر
الهندية
تشخيص
##رسل
زرد
##ﻀﻞ
يتجسد
اعانك
الاستشارة
##مادول
الحقيقية
اجيب
##ﻼﻡ
##زل
اوتوا
##يمورا
اعلانات
استني
##قادي
فاجره
حروفك
دفنت
شايلين
النفيسي
خوفت
لزياده
لاندري
والخروج
الياي
##غطي
سلطاننا
سيضر
الهيية
عقلة
اصابته
راتبين
جبارة
اجور
المهلة
##ضاة
ﻞ
تلهينا
استضافت
##ليهم
مددا
بالسهر
صامدون
قسيس
##w
مبهجه
لروية
##ﮬﮬ
بانج
👇🇸🇦👇🇸🇦👇
نھ
##هدا
تحملوا
سوانزي
دولارات
كتابهم
##نصرية
وواق
بمحاربة
ومط
قرارة
ترك
##وماتيك
مرضيه
نتخرج
##می
عں
بتغلط
##افره
برمي
الناز
عونه
بالسكري
saudi
##ويسرا
المدريديستا
احسنكم
وجال
جناحين
##ظام
ضعفي
الامارتي
الخصم
الجمارك
ﺂحب
راحتهم
لحا
غباءا
##ition
الوكر
غزوة
القروض
##ation
تنتحر
ﻧﺼ
دجال
شعرج
مساكم
lab
##مني
هالشي
وبفرح
##خصصات
ساظل
الطهور
##تب
نحو
وعقلك
بالبحرين
ثقتهم
##لايه
ابغاك
طفوله
##وامر
نمنع
لتقبل
ياعظيم
ﺳبحان
##ل؏
##💙
هدنة
مى
ومكانة
گت
##حملت
اهدافها
امنون
ذرب
المخا
ناسى
٦٩
##يبون
الوناسه
بالعون
نفسيته
ناه
اعطيه
حكايتي
لوجدوا
بالحيرة
الاوروبية
جارحة
الداعي
ازبل
يتوه
طايعا
علاقاتها
اسرق
واتباع
##كتفي
يختارون
😏✋
##قافيه
استث
الحناجر
ينوصف
اجابه
تحث
شهادتهم
لعلاج
ﻳﻨﺎ
##ورت
المحرر
التنموية
وحدتهم
##stc
المترجم
تساه
stay
ثريد
انقذو
مجنن
الولايات
الحلافي
والنعم
وحاليا
سيار
تصوره
نقولهم
بقرا
افراج
وبمشي
الحلو
✋👌
استثمارية
واجعله
خطوبه
##⌚
اكراه
المناسب
تتعا
لفتحه
كاامل
اخ
قبة
مرجع
جثث
زيي
المغر
بقوا
تفويض
sand
مليونية
جاهزه
ياحمار
بادارة
يوحشني
ليحدث
مظلة
##ﻳﺎﻡ
برا
باهي
مدرستي
##نز
فقامه
##اس
الضحوك
فعلينا
بذن
الملايكه
مكرا
##بيلك
اخباره
الروايي
للمشاركة
بطيب
حليما
وينت
##ليي
اتمناه
هبقي
وناسي
دكتور
انته
نبيذ
تلامي
والتصرفات
وجار
تلهكم
##inews
##عاان
الاخيره
وتختلف
وبناته
ذخيرة
يايها
اشباههم
والسلطة
##pro
تفرحني
وقلوب
كليه
معدلات
طولكرم
ينط
الخل
احضن
تشات
##عسى
ازا
كج
ملاب
جريمه
انجازاتهم
بالاقت
شكر
باند
فالجنه
##لاصق
الفش
##○
باسماء
وتهون
للقاعدة
##ﻠﻴ
💝
تخرب
اگثر
كورت
وغاز
##eh
والمفروض
بفوزه
بترول
الانت
ماتضحك
اللاجي
بيجيك
البرشلونيين
واهانة
##ناسبك
الضرايب
واشهد
طوا
ولٱ
اسان
بيبعت
نظمت
##لاحسان
تناجي
بعضا
التفكير
ساص
بهالت
##٠
الخار
نااس
واكسر
قنى
بحديدة
نتصل
💭💜
تستحقر
وطعن
🌹✋
١٧
الطغيان
##😪💔
شارك
عمت
بيرث
يفعلها
باحدث
بتتش
##واننا
يمول
روحها
41
ﺩﻋﺎﺀ
التركى
##خلون
مدرسية
ﻤ
بالمد
مساعدتي
الشقردية
المتع
ثقله
##ﻨﺎﺱ
ابنايها
قطعنا
احترامنا
##سيه
تشرفنا
الاروع
##لوون
متقلقيش
للثلاث
##10
##قبة
عزله
وتتك
لصفحة
التوعية
ومشكور
##مرتبة
رفيجاتي
ويقومها
استدع
يستنى
اراعي
##ﺜﻖ
اصابها
##ولتراس
متفرج
بيتم
##ندس
خرج
##ﻴﻬﺎ
للخونة
اون
##ﺒﻌﺾ
وظيفتك
ایک
رباك
يربك
لسواك
ونبرا
الجداول
لتعطي
للتصويت
##ﻘﺎ
متوجع
لسبب
وواحدة
ksa
##ندل
رذاذ
الحامدون
والاكثر
##نفوس
سميث
حدة
ساكنه
يحبگ
بتصحى
تشمل
##انسيه
##لندية
والتوكل
##انسية
ﺈلا
تحبينه
150k
عقولا
والورد
بييرو
ساتھ
المواصيل
يتولاك
الثقافات
يضربون
اعتكف
ديكارت
دوريات
تتسبب
هدهد
واستقر
الروقان
القبله
تاهيل
ناديته
عقدا
الانجليزي
صباحگ
يعاتب
##واجد
مواساه
استمرت
تحصي
اوجع
السماعة
العقيق
وحض
بظروفك
حيتان
شارح
ماتا
انفراج
فاخر
كرة
الشعي
تتابعه
##gg
##ہل
##خبارات
غناء
##ليان
ملييا
لايد
مرطب
استغل
بالموقع
للوحدة
يطوله
2071
ولذنوب
لضر
تزييف
صعدا
##ولية
وقتلت
بلاتر
##habi
##كروسوفت
وعاء
توضح
والطيبة
كلاام
الحصرية
اباينا
الاخاء
الصاحب
ادلكم
مستوح
😂😭😭
عمتا
قلبكم
جنبي
عذبت
الملاهي
لاير
محذوف
والصراخ
##هيية
money
بنكهة
اتليتي
يستغيث
وشرك
هنسقط
رااح
التزلج
للسودان
لولو
نابع
بخليك
السابقه
##اسة
منظور
##ند
دمروا
ووجهه
ينزاح
الحريص
لايمثل
اضربه
لاحقا
للنهايه
جبته
النوتيلا
بسكر
ودهم
وتجارب
وبالذكر
الفاضلة
وسبب
سويعات
فايزين
الدعوة
ﺗﻐﻴﺮ
مابيه
حربا
##ولى
ايسكو
دوخ
يركعون
وسيح
المعلمين
وهدي
المنافسات
بالسف
للسرطان
طنطا
ap
##داما
##لج
ضحت
الخور
الارهابيون
باقدارك
تجالس
ليز
اسلاف
ابكاك
نثق
تسعها
المشبوه
##صيلا
فاقده
يلدغ
كط
ويحفظهم
اهتمامها
الذاب
برنامج
لايصال
تخصصات
معشوق
صارلك
##ولهاش
تشكيلة
غصبا
##اطرة
جيشا
تعاند
معطلة
فاض
بهايم
السرطان
المصاحف
مقول
الثواني
ﺣﺒ
للسيسى
تبق
قبرة
تنين
ونفسي
وبتت
انتوني
للقايمين
ترتيبات
مزاجيه
##86
ناف
نخسر
السودانيين
هوشة
بذكره
مسروقه
الداعيه
لسانج
منس
علومه
1436ه
##قترح
والتظاهر
بموتت
دارهم
الوقتي
كنج
وروحك
عدلي
بيكى
المسند
التزامات
لديكم
ابية
فرانكو
بوخالد
##وذكس
هضم
لامال
يشوفوك
يخافون
##٤٤٠٤٤٢
يحلي
حصنت
##اهين
شبهي
##راقب
واشتغل
ويمارس
نستغل
بصر
الواثقة
لايفهم
الله😂😂
يلي
والدنا
جانبه
بنعيم
الفتيات
العتيبي
والمي
🐸🐸
يونان
قصور
حربية
نواياهم
العابرون
الراكعين
يلهيني
سادعم
دارت
الشاربين
لنهايي
التحيات
القومى
يعترفون
##فل
واستهداك
##تحل
بخبر
مواصيل
زملايه
نطهر
فابتسم
##زهرة
الاربعاء
بليبيا
بحق
↓˓❁
مهمل
چیز
##فہ
يتبدل
ﺎللہم
كطفل
المحيا
محشوم
ﺂللہ
اوجعته
وجنة
يدخلها
النبل
تعظيما
ياسطا
جادل
بوند
اصدقايه
الانفلونزا
فردا
مناسبة
وبينهما
للفنان
الانفجارات
الصفاق
اصابني
بطرابلس
الشثري
الطرا
بغتة
لفوز
المولع
عقار
##قنهم
رطبا
##بط
نجران
حفاظا
فنس
دف
التمسوها
المحتمل
بنتى
الجاليات
والاخيره
افتتحت
ابصارهم
بنقعد
تزعجني
انظ
اردننا
بصنعاء
تهجم
لوك
##وءة
اللﮧ
الضيافه
نغم
بيرس
الاوض
للكذب
مركزي
الرقابة
مسيره
💎💦💖استغفر
تلاته
الموعد
الاستخبارات
✦✿
وروني
لعي
اعراب
اعراس
كمواطنين
مضحك
نهار
نصحني
##سمار
عصفورين
##اسم
هلكوني
كاول
نوادر
تريحنا
للمبتعثين
دهن
بركاته
الامار
ننبسط
الاسلحه
عساس
الاحمد
##ﺲ
البروتين
وتجعل
باحباط
ایم
الاند
وبنك
غاوي
غرامي
طق
ريقك
متتاليه
##💖💖
بنجاحك
بنجاح
التهاني
وابطل
فتحا
وجميله
كباقي
alwefaq
##رافية
المعارف
##ومس
الامتحان
يرجي
الاثري
والفولو
مانشيت
تتعاقد
الاخونجيه
المسلحة
الجارح
دينى
يخطر
وغر
يقف
تداعب
وف
اللغوي
البسمات
بتوجع
##تنان
##ony
بحكمة
قولتله
الفيش
يتخبط
الكتابة
يمنعك
وصيه
##كاء
ولانه
روحى
`
لاتليق
##ﻨﻴﻦ
##👌👌
بعيد
الشحن
فالنفس
اكرام
ماجبت
وملذاتها
##ious
فلسفه
ويسمع
المسمار
وعالج
جمعنا
قصب
الحسود
دليلا
تعايد
ﺗﺄﻣ
نهايية
انجلش
عسيري
مدتها
وتحمي
اغرب
الوحشية
##غلى
##خده
فهمك
يدعوكم
9090
ارحمونا
##نطفي
مثبت
تقب
##باعا
هلالي
والغي
المخلصة
مسرعة
الموج
النات
بابوظبي
الخالة
روعة
حمدي
لعامل
عاجبتني
احتياجي
الرفق
مغرد
الموضوع
لعبت
جعلتني
ايدينك
واحداث
شرس
وتتهم
ويقترب
المبت
عت
ماشيت
##um
والت
##حهم
الله❤
بحروف
توديني
##لسف
كوابيس
عزوم
😭😭❤
بالصيف
ثقہ
التغييرات
رويتها
وقضايا
ريست
مرشد
لديك
رفت
لواحدة
المعتوه
انہا
جاهلية
وعدها
اكرمتها
##gen
استطيع
جميل
ويجعلهم
مافتحت
ينصرهم
بااي
##لطه
مخن
فتنصرني
يالك
غاضبا
تخذ
وعى
التكتل
وهند
ٱللهم
##yle
##عافيه
شگرا
##ﻳر
💵
ناجى
بالتدريج
ميزك
دواء
يصاحب
والارهاق
بروا
يحبو
صدقا
مكيفات
الهزايم
##ۆد
##💯💯
وتخشى
dark
شاءت
هدوم
00pm
##على
العزيز
احشرنا
😃😃
جروحك
عقد
يربي
ٱللہ
يعيقه
الغزال
الولاد
ليزر
مارزيو
الدروس
friend
وسارع
ويهذب
زبون
سبر
😍😍❤❤
##لاعبين
لتصفية
فراى
ارسلناه
كتبوا
قه
وقوله
بقرب
##اكة
الخيمه
شريفة
الغابه
اليسا
##٤٥
⏳
كيني
بيفهم
وكما
وتختم
بغز
ية
مخاوفك
weekend
الافات
افجر
لاهلي
خيري
تفقر
##ﻌﻚ
جعلتها
الزيتون
صوتوا
علوش
عليكك
بالمرا
بلو
##وكيا
بقايد
##جرين
اعيده
رخام
ستوديو
##♂
رفضها
##ادرون
اطالب
استبداله
##لطنة
حواليها
لاتقرب
##لاحي
يسم
لاصدقايي
ماشوقتهم
المدنيين
حوار
بودرة
الموظ
اوق
فيذهب
ו
جاريه
نقمك
وبالتاكيد
##لتنا
تقطعوا
##هره
صمتا
يغار
😊💔
اللوم
ستجدها
اعتزاز
السمعه
فته
شعرنا
ضباب
##دياد
وامال
البرميل
استعد
بون
للمباراة
لنت
ازقة
اندير
المندسين
دنيته
والصحابة
القصيد
##👏🏼
الاولين
والتفوق
تريليون
بلدان
بالعشرات
كتمت
نتطلع
اقذف
##خلينا
الاعضاء
##خاي
الحر
ياجد
اهدار
للدراجات
بقف
##قوم
##ريحك
بشكلها
روقت
☺☺
اوجاعي
وصغير
##لوح
مادرينا
👒
اكتبي
اﻟﻤ
الحان
لوفاة
ويسيب
😜
العاشقين
##━╯
ذكية
91
استبدله
وراتب
واسلوبي
قدرو
gh
لاتنظر
##ﺒﻊ
الذباب
ترحلون
ابديا
اوڤر
action
مشروع
البدن
والفا
تتنا
والل
ياكله
السرايا
mtv
سليل
##فاار
تلقوا
يتساقطون
زمهريرا
كارثية
للزوج
التكليف
اضن
ستنطلق
حكيها
سيتخلى
🇾🇪
تعرضون
وصفق
معرفش
##زمني
اجده
المفض
احتلالها
العيسي
البين
والتشهير
حولنا
بعينيك
جلالة
زويت
بترفع
##ياات
جيده
لعيناك
تقتصر
واشتراك
##نييا
ضجيج
يرجعون
تطورت
للمصريين
##😴❤
رازفان
اشيا
رانا
##atan
يطالبون
الهلال
بيكي
ⓜ➐
عاملة
فراغا
##craft
وسيق
وابط
الشغلة
مايتمناه
القيلولة
اوكر
المعلنة
اواها
انتقال
##لبا
بالطلب
وجمال
وجيهنا
##حہ
ترقبو
عبادكم
هالتغريدة
توبا
هاب
وبالمناسبة
ماجت
وعار
السنه
سرقته
بفكره
مكانه
تقوى
##ﻜﻦ
كارفخال
الاعاصير
والصواريخ
لياا
est
ﺍﻣﺎ
يتركونه
##وهم
ليقول
بشوشا
وضعكم
الديمقراطيه
لوزارة
النمله
وثمة
فعن
الشيعة
##ااا
الهمم
##ﻮﻩ
##ولتهم
الكتيبة
##جى
ثنتين
ادايه
وحسرة
مدينہ
بندر
بحضني
بشروط
احضانك
وﺎ
##تمت
البرب
اثارهم
ورايا
وصديقتي
تقوده
يتطور
واجواء
ويعلي
وضل
انتم
##كوو
خلط
فالكاو
##ush
##ادرة
المستهلك
بنكيه
استثنايية
اكثرها
المنشود
بانه
2018
احضار
يامعالي
مغاد
المعاهد
الماع
كوزمين
##لفها
##الورد
##لفى
khal
##لود
تالا
كلج
مافقدت
##🍉
تراعي
تذرني
بخور
ومعي
الخضير
زميلك
تتحمس
ووالله
##ﺒﻞ
##موا
morning
بتفت
برزخا
ليب
اعر
وحضورك
ذكرياتك
حقيره
القرعة
فاينال
##▫
##جعله
التحالف
فاستفتهم
مذاهب
سوري
توزيعها
بضبط
تقبلوا
😜😜
ياثر
##ﺒﺎﺏ
البلنتي
ااحب
انتصارا
ويودي
حفز
##گم
اتحادية
##هاون
للبلاء
زمانك
اقواما
تطفو
يقي
اسرانا
القاف
##ردى
تتلاشى
ونبض
حديثها
##جه
بلياك
##ld
وقاله
انعمت
مقه
عينيها
هار
دكان
زيكو
العقاب
مزع
يتقبله
المخططات
المفقودون
المصد
محاضرة
اتمناها
قومهم
ارسال
حاجي
روسي
##ريكان
##my
العارض
والثورة
##ساوية
vid
راحلته
اذنبت
##et
يحبنا
وخسر
وتنت
بالتعادل
ياحظ
زجاجة
نرتك
الرشد
سقوطك
والدوري
متجددة
ناهيك
قديمي
##جاهلك
رغد
##هاق
راوند
الطاغوت
اﻷمل
للعمر
سعادت
متواز
اﻟناس
واعين
نفسك
ابتليتني
dr
بغرام
##تيكيت
تلقاهم
المنتظرة
زارني
للصعود
مملة
اسلم
مسيح
بتامين
بولند
##اش
فاحرص
الرش
وسبق
واصبح
بنعمة
يرمي
يحققه
اقو
ضاح
ينجلي
تعرب
##خربها
مصلح
الشطي
##سنه
مزدحم
الهادفة
مجاورة
ﻆ
التطبيقات
واشتك
الاطمينان
ﺃﻭﻝ
مشاعرك
##خصص
باتشينو
sp
خضار
شركات
##ووله
تحتويك
يقب
ى
الترجمة
صاله
haz
بكالوريوس
##والله
لاسقيناهم
##ﺭﺕ
فثبت
##امخ
##حدار
مدعوم
##قي
الثلاجه
المتخلفة
##ذي
المدعوم
شاركها
بيانو
مظاهره
الفخامه
شربه
قيادي
##ارض
الصحفية
حضورهم
المشجعين
وخلوا
وتوكل
الطريفي
##قض
والازدهار
##دوز
السلعة
المبهر
وجاهل
يارس
##فايا
اربا
واكن
مخصوص
بالرابط
شاركك
كذه
بطاطا
بيشبه
يوتر
aleppo
ابوسعود
الست
ويجد
انجز
ساقطة
بعيونك
الطبيعى
هالقلب
وحشتك
يديي
يفس
سرق
هيحس
ميلي
افلام
##ناشيد
مادمنا
روايه
ﻋﻨﻚ
موية
##💦🌀
يقربني
ملكوت
ايتو
للاهمية
##ياجات
##نهہ
شييا
##👞
الغاء
##oma
ويطرد
ﻻعب
##غيرة
##امتك
##كيك
لايزيد
↩
نتد
شرعه
بيص
رفيقي
تفرقهم
نصب
وسيم
الزميل
دقاته
بدعمكم
مشوه
ﻋﻟﯾ
ووس
##المت
سارع
stud
فدع
يطالبك
اصبعه
ﻛل
بتفقد
##ٳ
الجرب
اشاعه
المبادي
محطم
##قيما
ارغ
مغناطيس
وعرشه
##دينار
القطان
##ووس
مزعجة
عندماا
وقاعدين
عاليها
تنديدا
اللبناني
ويالله
لاحدى
تنوع
وراقي
معينة
تلفونه
واحاذر
الخسران
فوقه
الباقية
##تناقش
وعافهم
##روبه
✋🌹
التانية
بالندم
يااهلي
بالرج
الجمل
سييہ
طبيه
كينج
##ازجة
ردي
يقولج
يمديني
##طع
اسرارك
##💭💕
الحاجه
المزعوم
ملوث
ذكرنا
##ورية
وشعوبها
##فوعة
اليمن
يلزم
##ذم
بودن
نصدق
بداعي
لمية
البقاله
جثمانه
القرني
بسرع
البارحه
بالتع
كتابته
نثرت
اغبى
لرع
المجرمون
معقول
بک
العيون
##تک
لاتخرج
nassimraissi
يرعاني
متابعتكم
رالسلنا
##کاری
الاتليتي
##🌊
##ديس
للعايلات
تواجدك
rain
🅾
اهتما
##خطي
مناج
المغردة
ونذيرا
##لينا
لعينك
يهرج
##لقات
الحيطة
صدارة
فرحه
ﺎللهہ
يحسد
يبيلها
شغب
مزدوج
يفاجينا
صور
جناح
كبا
##ﻠﻴﻚ
2011
اربيلوا
##صية
عافيتي
صداقة
##مشيش
تخاف
وهول
بداخلنا
##ode
الصالحية
مستثمرين
وعقلي
اختاره
للقادم
الرد
##افت
عيوننا
##ﻈﻢ
جاوبت
##صاف
لمطار
توش
محتر
##واكبة
ﻭﺍﻟﻠﻪ
حظك
##طقه
بجمالك
المكانة
لهدرجه
طمعان
يبتدي
طيبها
مرام
الدويلة
يعق
يفسدون
##بيلا
##بدال
وتقديرا
راسه
الكفاح
##ثته
الشمل
رووعه
صاحبته
فارفعوا
ﻛﺒﻴﺮ
تنازع
##لقني
ومتت
مخليه
##مر
##🙈
##غالية
ويثير
💋💋
مصل
فيراتي
فلاتر
مسااء
لاشريك
مكلوم
وتغيير
الصناعية
دقت
يصحبي
ﻋﻨﺪﻱ
ونبدا
المفتوحة
جمبى
ونال
بمصير
اعيط
تسويها
البسم
يابوناصر
ورعايته
لوجه
المسافه
بايد
صغيرتي
العاملات
ومحاسبة
عطاها
قيمه
يخذ
باربي
ﻋﻟى
##عتبر
بدرب
##ﻜﺖ
وجهرا
##رجة
##عيدها
📣
العنايه
مصلحتهم
ولان
والاج
رحمهم
ﻗﻠﺖ
ينتهوا
بطمانينة
cup
واقولها
😏
تهنا
اسبوعا
والاحكام
شيعية
وحبنا
اساووا
تزايد
##وى
عبدالحليم
تتكلم
ارخم
غن
الخسارات
تبوح
يرون
ter
##رتيب
سياج
لاتذ
الخاش
احكيلي
الدريس
فكانما
محاس
مسح
العندليب
الصواب
فخلف
كلماتہ
اجلت
مفاصل
اقاموا
جعلته
بالوحده
لجذب
الامي
شتريد
##اطير
المعلوم
يخذلها
التنمية
يعيده
طولك
حقود
🤙
وتخسر
بذنوبهم
الارهابية
المسلمة
مشاركتي
رمال
والابيض
اقدمه
عليكو
موست
اخرا
عهدي
جنابك
السني
اكتافنا
صفحتها
التفاع
نضربها
واصلين
اكلت
البشرية
لبطولة
ودايم
واستجب
الشغلا
جاهل
اللغز
بدافع
توبتك
مصيدة
ولانني
ميلادك
##لp
وحداوي
##شرى
العصيان
يحبوك
خالى
القاني
هياا
ياض
السدود
يالن
ميريام
مخيمات
اوغندا
لطيف
ذات
bo
تدفي
باتريك
قاس
##زينه
الطنطاوي
ميلو
ارم
تعني
هتلاق
ok
بالاتصال
التلاحم
luck
لترتيب
فرفع
وصعوبة
الموسوي
ثامر
بالانستقرام
شبيهة
مشاكله
يتخطى
يحق
ويكرمك
البطانيه
شكينا
عبدالقادر
##رفزه
ابتسامتها
##عيمي
واهتم
هضبة
جماعي
لانقاص
قايلا
تسكنني
ويهز
خيبة
يتمنين
خوار
بطري
##للح
وفاز
ولاشي
ﺎلذ
##ورم
استشهدت
بسواعد
صمته
غي
احكيلك
يعص
واعلامي
تزد
عقيم
تغضبك
##لت
تختبر
يوريك
الامبراطورية
جوعه
م
يومهم
دواها
اليونايتد
والعزاء
بيجوا
##مامات
ياخونا
محسوبه
شفها
محسورا
يتجدد
حبل
صبحا
بيته
وحوا
الاسعد
يجوب
العفوو
فرجي
وزنك
حضنا
تفقدك
اكررها
##الحمدللہ
108
يصلح
اعصار
نامو
فاوتر
بدالي
التدمير
ماقلتي
##لز
ساحة
عاملنا
اجلد
لبنانيه
التعالي
##يبت
غرض
هينة
##داب
لكوني
وجودك
طبخه
ارهابي
نرمين
الحرث
يوجه
بربنا
ابتدايى
كسك
تخاريف
##وقت
عدا
##فوف
ورضاه
سرر
الكادر
العنقودية
العيناوي
لحالي
القادسيه
تذر
وسوء
ﺣ
ونشوف
##وديني
بقرار
بقضاء
كاسياس
حبة
نايما
جربوها
المسايي
##ريبه
اوصله
الفلورز
منز
العمال
سويسرا
الضوابط
المبررات
نظرتنا
##خذني
➏
النسبية
بامان
الضعيفة
درجاتي
اظلم
المكسيكي
قدها
الجاب
الروضه
منوعا
عنصرا
يفصل
بنبغي
باتم
##43
يجدها
يفضلوا
مشتهي
┋♥استغفر
لايطاق
واحساسه
##ومهم
الفني
مصابهم
العز
هنييا
افخر
اييه
فامنوا
يشغلها
fan
شجون
pro
وتغيرت
##ﻛﺮﻳﺎﺕ
كرامتنا
##غمس
بنينا
يرى
يعدلون
تكذيب
##vda
الراء
نهيان
لعنتها
تعيشها
##ﻴﺦ
madeupword0001
وعناد
نرددها
##ذاذ
شافتك
وعلاج
منحرف
واولادكم
وتعجز
ثوري
هتش
القوم
يتفضل
بلوكات
اشاعة
مزقت
فعلاا
محبه
وبكاء
##iege
الالح
¸¸
اشعاري
هتعملي
يتعدى
يحوس
مرماه
🇷
باحثون
##امعات
بيومي
وجدتها
فعصى
##وتني
طبيعته
ابرز
مسلسلات
كوكتيل
رجلا
لاتمسهما
السبكي
##ﮑ
توصلوا
##ﻋﻟ
يلاقي
der
ملف
الغندور
اذڪروا
قوارير
زعلنا
جيف
##خلش
بخلت
المعتدين
لايب
##راغ
وادر
الضايع
فانشرنا
يجبر
##يكة
شكاوى
يرا
##ague
ومعد
والاخرون
يرتسم
دلعها
النفع
تعودوا
بالدعوات
والشيب
##يتى
مايدخل
تم😍هت
##ربيات
حديثا
المسيحية
اعلمك
التدابير
ليفاجي
تمنيتك
للرج
وتبت
تبعية
عالجرح
##لاات
يمثله
تم
وطالت
##053
##كتوب
معااك
##٤٤٠
بدوري
##خلي
سواگ
لرعيته
يمحى
للتق
للصايم
يالغالي
قولي
ﺍﻗ
قرض
مذهله
الوحيدون
قتيبة
الريق
##فة
كيمياء
اتاتون
##عمم
ابداعي
وضاح
مبكية
پٹوار
التذكار
للمعت
شافني
استوقفتني
ﻳﺨ
۰
يقل
كييب
رخيصا
شموس
##الوطن
بصله
وجه
والاخطاء
ادير
المساء
##لوه
لوجد
نرزقك
راجين
اعترا
فاتتك
رقيقة
والادارة
وباسم
لكلمة
##خرت
الاوا
ونجومه
بجروح
رهاين
ساضع
اديسون
البركات
يرش
لسمو
##فاني
المهنة
الشناوى
الموم
اعصابه
كيش
اذكر
😂😃
والمض
الدرا
علشانك
لوق
فهموا
يرمون
##ستوي
البطان
لامرتهم
بالتغريدة
المخترع
##ردة
##♢
تضوي
سماعات
وراح
كفاع
للتكن
التربيه
شرفتني
نحدد
حياة
##سبنا
وتعين
توق
المتداول
التطوير
ياعفو
بشعرها
##ثلاث
حروفا
##ورط
##شفة
المنتخب
##اميم
يسعدها
الريدز
ووص
##ﻃﻦ
##yn
بوصف
حفيظا
ينفعك
حك
كربتي
ګ
المراقيب
ايمي
ذمتي
الحشمة
الرقيقة
خلفه
العبقري
الرشايدة
رسالتنا
ماتغير
ﻣﺼﺮ
🙃💔
يناسبها
صيده
اهدى
154
كاحد
تستوطن
##e
بلادنا
التزمت
الحن
گتبت
ثاني
دفعته
لد
ادمها
ونتشرف
##ﮬﮧ
اللقمة
قع
##نس
##داوه
ليدخل
وتشتت
تضحكون
##✥✥
واوريدو
الكث
ياصعب
عالمك
المتطرفين
محترمة
دهر
##رشي
##tv
وتهدا
حارتنا
ﺍﻟﺒ
ندم
0097150
تجلت
القصوى
##سبب
توعد
وظيفه
فيروس
##شمي
العالى
تذكرة
لدني
بالتغريده
المطاليق
المقام
شاشات
تبلى
##ومش
السجدتين
##ترار
rab
حطت
المسجد
وبيكون
ربو
المانجا
##♥♥
بيخلص
حالاتها
##موما
صدة
يحتضنك
وامي
قاموس
تجنن
بنعم
اصب
افصح
لايحمل
بعدم
جايي
e3
نذير
تيسيرك
سين
حاشاه
الفيتامينات
والارجنتين
ثبت
##نزانه
الزوق
وحدا
يضوي
car
المحترمين
الاماكن
قتلتني
زفير
١٠٤
اغلاط
تتد
😬😬
يالهلال
ميلانو
صلواتهم
بفعله
مسخ
تمكنك
##ﺎﻫ
##اغ
تسقى
والاحت
لة
وكاين
عايزاه
بسنا
##😳😳
يجماعه
كالن
##☹💔
التمدد
هايت
ويد
بالنفط
بنوك
غلطتك
لچ
منحط
كومار
وتفجير
##ﻻي
والاقتصادي
الزكية
لتاريخ
دقني
##🌹❤
فودافون
بالدولة
يستن
اللحمه
عليكي
خشونة
الجالية
نجرب
##اردو
⁰⁰
ظلمه
التخصصات
كالج
كارينيو
بيهون
الابادة
ستعرض
بحزب
##حيين
معقولة
##رحمة
اصبحوا
الفقرات
نتزوج
وماهي
💛🌿
يلطم
مجنونه
ﻫﻨﺎ
هنود
متعلقا
تمام
##علل
المجه
اصفي
لايمان
ويبون
bag
الصرح
##💟
ﺃﺣﺒﻚ
##باة
رصيدك
ويام
يتبرع
تصلني
وغيث
بالافضل
##cer
برواز
زا
كفوري
##لبيات
gaza
هاذي
يقتصر
اتمسك
##ﺒﻨﻲ
المتمرك
قش
بالسحر
تدوي
##😎😎
بمكه
هاف
ونجران
شروع
حفنة
##هاك
بكده
##نتم
##سبوا
الصلح
الاخيار
القوى
استجيب
كربك
مكالمات
##شخ
رحلو
واجبنا
ورحلة
كانسان
بالمياه
ابتسا
خدماتنا
شربات
بڑ
خليتك
يضاهي
الفريد
للمد
##ساك
الجوكر
الثقال
كقطع
هيخرج
الثلاجة
فبالك
شكا
اسرح
الار
بدعو
والجيش
##💃🏻💃🏻
شوفو
الالات
حابة
والطلاقة
والنصارى
##كتوراه
بحمدالله
عبست
##فيدكم
لاتفاق
بكيت
##زلة
المتبرعين
للكبار
شد
يليق
الضجة
فاصبح
العظام
ۄ
متواص
ﻧﺸ
اقتربنا
المعالجة
واقفل
فوهة
نعله
ومناقشة
عطاياه
##ستقبل
##غره
تامر
##دانا
اسقاط
بجناتك
##iler
اشوفگ
##فولوباك✔
حارق
يمضي
خيير
ماطال
لکن
سنلتقي
افنان
اهمس
اوم
##لوية
والقضاء
##ﻭﺭ
يكرمنا
##قيقي
يتحرك
##سعاف
شورت
دافوس
##عاك
##تكلمش
وميتة
اهكذا
الاعتبار
ديت
ﻷﻥ
راضين
##راه
فزنا
يرج
البرك
الاستاذة
النمط
النجوى
قلبي
وغدر
ديون
ياعبدالله
برستي
كيار
شاعرك
وثقة
بصحي
##بح
المفلس
الالاف
عاتقك
يضيء
اسودا
مشكل
mas
ابوك
يعطونا
😢❤
✖
جبره
ترسخ
بسببك
##جزون
ميزانه
هوغو
##جازر
تقريرا
الماليزية
ستجتاز
الوعر
##كتكم
##صريه
نهيت
زدنا
##رﺣ
ودنياك
ﺗﺴﺘ
المهور
معتبر
##اعه
##97
ورحمتي
السنافي
ومص
اخلاقا
بتحن
ذنبنا
يبلغون
رسم
بهہ
جيرانكم
مستش
##وعيه
ﺣﺎ
محششين
وبالغ
##khader
شفتني
حنانه
لبلادنا
رقيق
##انوا
نضع
موليها
دى
عداوه
حضوري
نصبح
##تهاا
شاكره
واشعار
الفاعل
العطلة
اماراتي
السلك
ﺍﻟﻠﻲ
لگل
خلصانه
اهتدى
اتاه
الروعه
الكمبيوتر
يبذ
مرره
الردي
النيجيري
والكلمات
احراج
ﺻﺎﺭ
شقا
الجب
مبهرة
خشبة
الناضجة
##بحا
ﺑﻲ
##صدرها
الغلب
##صورات
تتلى
واصيب
فبارك
الكعك
😱
التعويض
😂😂😍
تاخر
ﺍﻻ
توقعتها
وترفض
والشعوب
اخوان
dubai
rem
كفانا
##ريتك
واقلهم
الاتحادات
تبتلع
للبار
سنحت
##ﻜﻚ
اعلنت
هقطع
##باحث
الحلوه
راحله
وشخصية
قوطي
وللخ
##بطون
میرا
پاکستانی
نلقا
يتبنى
وشكرا
وقفو
شفيعة
المتكرر
وتذوق
فينغر
شاهد
##طراب
للقايمة
الٲ
وامتداد
شذرات
سيارتي
##گره
بشراكم
الصمت
##حلف
##وبايل
والتقنية
يتسلم
##فزة
لعايلة
الايثار
معانق
##باحة
تفصيل
وسماع
عكاش
ووجودك
عالفاضي
مصغر
##ﻼﺓ
والخميس
افهمه
ترابها
##رجانات
ببطوله
العلى
الصايمين
توجد
##اسس
الغاضب
لاجاك
كلارك
وارضنا
##شوشة
##كرت
ميمي
مفروشات
##rad
ضيقته
##ناة
الملوح
يورو
للارض
يشعروا
خشمها
ووقتها
هالزمن
السكس
الاثرية
سهام
##ونو
الخوات
كوكبنا
واطالب
الضحكه
كبده
غس
##تونا
غلام
الحريه
احبهم
وخلني
يتاذى
الختمة
المصابة
سطحي
##قلوبنا
ومالك
##قدوا
القدره
تقت
غربه
اسكتي
غانا
يعينهم
سواسية
##ميي
مسيول
##ريجات
##اذبية
وتتكلم
هندسية
كالب
يغرك
واقفا
لايامي
تعال
والاجانب
##وزع
ديوث
البشري
##قيمي
لرون
مقرفه
تك
##دهور
فكذبوه
الكندية
صامدا
ودمه
##قوه
🎼❤
##خلف
##ااج
لمواصلة
وقوفا
##تنبوا
تخلد
##لرك
يحمله
يتلفظ
اعنف
✔
مضاد
التفاهة
كومي
نادية
عليكم
لعاد
فلسطينيون
وضرب
الشجاع
استبا
تشرف
بساع
غادروا
ارقى
لمكتب
يقتلهم
##طال
فهمته
تمهل
اوصيك
وشيوخ
سيلفا
افتقدتك
اتيه
استيقظ
ترين
بسهر
ولايه
اصن
بالتعاون
فهمني
بكتير
كلمہ
اشوفكم
لخير
##حار
رووسهم
وجزاء
السيم
خات
والتحديات
ايماء
##udhabi
توبہ
لشخص
جابوها
فيصبح
توخي
السويدي
اليت
🌹😊
وتحديد
الاخوانية
الاحضان
فرجت
##ﺘﺴﺎ
اعانه
✋😍
والجان
##ضيت
ترحم
رشاد
للشهر
وعبدالعزيز
كيميايية
ودعتك
بتتب
##ﺴﻢ
مشارك
الليوث
نعومة
معزه
##رانة
##ابني
يعتني
##عاطي
امراتك
يزال
ناموا
تعيي
اعجوبة
وشيعة
مايطري
##ەت
ﺇﻧﺴﺎﻥ
للبايسين
بقبلة
الارج
وزكها
لتمرير
عزيمه
سديدا
فسيرى
وصلته
##رايد
يعرقل
ولاين
مبطي
بالمعروف
میڈیا
تنتهي
##وطنه
حصن
مايقهرني
##bl
فاردنا
معموله
كوادرادو
كوكو
لاسمح
للشمس
ويحصل
الكوليسترول
المفا
باعو
##صادف
اعوام
ﺍﻟﻘﻠﻮﺏ
مقس
##كشاف
لعودة
n
للاغ
فكة
للوال
لاطفال
##طايرة
للمراة
نبذل
فصبر
وسلامة
تطيع
شكيت
للدولة
بالمط
سامسون
الزنجبيل
تتوه
مقاما
سوالفهم
الموازين
تروحي
🇴🇲
ودموعي
عجييب
تتكفل
مثلكم
كوسيلة
جامعي
معكك
والذكرى
الميلادي
##👦
ذكوري
البرص
البدنية
اعاده
ابرة
;
نطير
توله
وتغافل
##ﻟﻣ
للمقا
والصديقين
ﺣﺒﻴﺒ
دهاليز
قراري
علن
عبدنا
وبطلت
هيبقا
##وفق
بعد
eg
اللبر
لشعبه
الكتال
##شتاغ
استغفر
اضحى
تعيشه
تناظرني
arabic
الجر
دعنا
بامكاننا
بونص
قطط
وتلبس
متفحشا
لجيل
واخرى
يبدء
🙋
ذكرياتهم
الجيا
تختبي
مفاوضات
درجاتهم
ساهي
شوون
قيمتهم
╮●╰
جمعها
المحسوبين
بتاعه
1440
mr
##جدون
وعف
مرحوم
تصفيه
per
التصريح
##ۆا
وتصبحون
نصيبي
[...]
